#version: 0.2 - Trained by `huggingface/tokenizers`
d e
Ġ e
Ġ de
Ġ l
o s
Ġ p
Ġ a
Ġ c
e r
e n
a r
Ġ s
e s
o n
a s
c i
u e
a n
o r
a d
Ġl a
q ue
Ġ m
u n
Ã ³
Ġe n
a l
Ġ que
r e
i n
Ġe l
Ġ t
s t
Ġ y
Ã Ń
Ġ h
en t
Ġ un
i c
Ġc on
Ã ¡
Ġ n
Ã³ n
i d
r a
r o
Ġ d
Ġs e
Ġ f
o m
Ġl os
Ġ E
t i
Ġ v
Ġs u
t a
Ġe s
ci Ã³n
â Ģ
t e
Ġde l
o l
ad o
Ġ re
r i
a m
Ã ©
Ġ in
Ġh a
l e
Ġp ar
r es
Ġ o
t o
d o
Ġe st
Ã ±
i s
Ġa l
Ġp or
Ġ P
Ġ C
Ġl as
Ġc om
ÃŃ a
b i
Ġ A
Ġ L
e c
m p
Ġ g
Ġun a
Ġn o
d i
Ġ M
Ġ S
l a
i st
u r
a b
i t
i l
Ġ b
Ġpar a
q u
ent e
Ġp ro
ci on
u l
Ã º
Ã¡ s
Ġ âĢ
er o
ic a
ci a
e l
m a
c h
Ġde s
t er
ad a
i r
i o
i g
id o
t r
Ġc u
d a
âĢ Ŀ
p a
Ġa c
Ġl o
ĠâĢ ľ
i a
Ġe x
a t
Ġ 2
Ġm Ã¡s
m o
Ġ 1
s e
id ad
l o
Ġ T
Ġ G
Ġ B
i en
Ġ (
Ġm e
de n
i e
g o
ĠE l
u s
Ġcom o
er a
Ġ R
Ġ D
Ġd i
Ġm u
ti v
Ġ i
c e
r an
t or
Ġt o
Ġ j
al es
ad os
Ã¡ n
Ġa n
ic o
an do
Ġp er
cion es
0 0
i z
ent o
a j
t os
Ġs o
b re
t es
t u
ĠL a
Ġ F
a ciÃ³n
id a
i Ã³n
Ġa Ã±
Ġ N
Ġl e
o c
i ci
g u
i v
t ra
Ġsu s
i er
Ġ res
r u
m os
u es
Ġa p
an te
t ar
Ġ I
r as
b l
de s
m i
p e
Ġ J
Ã© n
ĠE n
Ġen t
Ġs er
Ġ "
am bi
Ġ U
on es
c u
c a
Ġp a
Ġt ra
Ġp res
pa Ã±
d ad
Ġ qu
Ġp re
t en
Ġ H
c o
ad or
u m
e z
de r
Ġp o
Ãº n
Ġ V
c on
Ġi mp
Ġm a
en cia
ri m
u er
Ġp as
Ġa r
ĠE s
d u
Ġa s
t ro
Ġs in
ar i
n o
Ġp ero
Ġex p
âĢĿ ,
Ġc as
g un
0 1
ĠaÃ± os
Ġc a
ĠE st
Ġs i
ar a
b er
v er
Ã© s
Ġt en
m ente
Ġent re
Ġp r
b le
z a
or a
Ġ O
Ġe mp
c l
an o
an a
d os
il l
g a
en s
Ġest e
Ġl le
t as
c es
ab a
p o
âĢĿ .
ÃŃ t
Ġ Y
Ġp ol
Ġcom p
n a
ue v
ambi Ã©n
ad as
Ġh an
Ġso bre
Ġcon s
Ġs ol
i m
a c
Ġt e
ÃŃ s
Ġp ue
i den
g ar
ci al
Ġt ien
Ġm an
b a
f or
ent es
ist a
m e
Ġp rim
p er
tr os
ic os
bi er
Ġd is
Ġ r
Ġin ter
Ġa b
c er
o y
ar io
Ġd os
Ġ2 01
b r
Ġs on
l os
s on
Ġc re
it u
Ġf or
l an
ent a
Ġt ambiÃ©n
p u
or es
as ta
is mo
Ġm o
ar on
Ġs al
os i
Ġf in
Ġes c
m as
Ġa u
in a
j e
Ġy a
b aj
f er
Ġest Ã¡
Ġo b
Ġc i
ec h
Ġha y
p on
Ġmu ch
ĠC on
ie mp
ĠA l
ĠU n
Ġm ar
Ġdes de
Ġ or
e g
am ente
Ġj u
Ġf ue
am os
ic as
Ġv er
Ġc ar
mi ento
j o
Ġc o
Ġn uev
Ġest a
l es
Ġto do
Ġa m
tiv o
id os
) ,
cion al
m an
ĠL os
h e
u ro
ĠI n
Ġper son
Ġ 3
p or
Ġt an
d r
p ar
ÃŃ n
Ġpol ÃŃt
ÃŃ as
l as
Ġ Â
Ġl i
Ġn i
v e
c ul
Ġha b
v en
es ti
bi l
o bier
f ici
ÃŃ an
ci as
Ġcu ando
Ġmu y
paÃ± a
v i
ci o
Ġm ill
m in
Ġme di
re c
d as
Ġma y
" ,
ent os
Ġh asta
an tes
ue l
Ġc or
Ġcon tra
Ġtra baj
Ãº l
en a
Ġm un
g ra
Ġg ran
t ado
Ġde ci
Ġpar t
Ġm en
Ġpa ÃŃs
Ġre c
on a
Ġa h
Ġc ol
Ġpro p
Ġm i
j er
in g
Ġpor que
Ġp e
Ġs ig
ab le
obier no
g an
Ãºl ti
i f
ur os
Ġt er
Ãº bl
ec es
) .
Ġtien e
ĠD e
Ġmill ones
qu i
Ġ1 9
al iz
Ġc an
l am
ĠaÃ± o
Ġf u
Ġa f
Ġ Ã©
ĠÂ ¿
ar se
ĠN o
r en
Ġ Ãºlti
Ġn os
s o
Ġa d
du c
ida des
ad r
ĠM ar
en er
ari os
ĠP ero
u st
Ġc al
e m
tu ra
t al
i ones
Ġsol o
a y
in o
e mos
Ġse g
Ġc am
i os
Ġpres iden
a v
Ġl u
00 0
" .
c al
c ar
ĠEs paÃ±a
Ġo p
l ar
ti r
ist as
u di
Ġt ras
Ġp Ãºbl
u dad
Ġ bi
Ġre g
b o
j a
Ġd on
Ġe uros
at al
Ġha ce
Ġme j
ĠG obierno
Ġc os
l ic
i on
ĠA n
ador es
Ã± o
e ci
an os
Ġpar te
tiv a
ĠS e
u d
ch a
v o
ci p
Ġe m
Ġ 4
Ã³ m
Ġdi rec
Ġa y
ri s
st itu
Ġc ent
Ġha cer
ur ante
Ġ ro
Ġpue de
un to
Ġmay or
Ġv ez
Ġemp res
adr id
Ã© r
Ġun o
g en
Ġd ic
Ã± a
de m
u ra
x i
Ġdon de
e d
t Ã³
z o
pu Ã©s
Ġe ra
ri b
Ġes p
Ġin v
i Ã³
Ġp osi
paÃ± ol
Ġse gu
ar Ã¡
v a
o g
i ta
Ġpas ado
Ġc ambi
Ġse c
us o
ĠP or
Ġal gun
en do
un que
e t
ĠM adrid
Ġm es
Ġt res
Ġ K
tr as
t on
Ġ2 00
ul ar
ĠC om
Ġhab ÃŃa
Ġs ido
Ġf un
oc o
o ci
Ġt iemp
Ġto dos
Ġde f
ar c
Ġah ora
p ues
Ġ 5
ti l
Ġn e
Ġm in
Ġfor ma
Ġc er
Ġo f
g r
id as
Ġci udad
Ġf uer
st a
Ġes paÃ±ol
Ġprim er
Ġre p
u al
ĠR e
ec to
l i
Ġv iv
Ġn ues
Ġ W
Ġf al
Ġe con
Ġes e
ter i
Ġo c
n os
u en
it ar
Ġt he
Ġmen os
Ġh ech
v is
Ġde b
la ciÃ³n
Ġcon f
Ġac tu
Ġin for
Ġdes puÃ©s
Ġo tros
or ia
al a
l ica
b ar
Ġmej or
ĠâĢ Ķ
Ġre ci
Ġpresiden te
c an
Ġ w
Ġc h
Ġm is
Ã¡ t
Ġel ec
t an
at ro
Ġseg Ãºn
s iÃ³n
Ġh ist
Ġn a
g os
un ta
Ġmun do
it al
Ġd urante
ĠS an
Ġc in
ĠC h
t re
Ġc ada
am i
Ġp la
ist e
or d
ĠL as
ab an
t ur
Ġin cl
u da
Ġl es
i de
Ġcas o
Ġbi en
st ru
s a
Ġn eces
Ġv ida
Ġg ener
dem Ã¡s
Ġd ÃŃa
âĢ Ķ
Ġ ra
i as
Ġm om
Ġp u
ĠS u
Ġt ran
Ġtiemp o
Ġest Ã¡n
Ġv al
Ġm ismo
Ġes a
Ġt u
qu ier
er on
ci l
d ido
qu ÃŃ
Ġe v
Ġcom un
Ġs ent
Ã© c
al idad
ta ciÃ³n
Ġ 6
bil idad
p en
Ġso ci
Ġan te
Ġe di
g res
Ġh i
tiv os
Ġde n
Ġperson as
Ġde j
Ġan tes
ch o
Ġs ab
tor es
Ġpr in
iemp re
am il
ĠP ar
Ġes o
Ġv ol
er s
Ġ ri
Ġp es
Ġprim era
Ġf r
Ġp lan
ĠE uro
Ġa se
Ġv en
Ġso cial
Ġo tro
Ġprin cip
ien do
Ġb aj
t in
Ġimp or
c en
Ġb an
te l
Ġg ra
Ġres pon
Ġhech o
ĠC ar
Ġg ru
t ados
Ġqu ien
Ġes pe
u y
Ã± os
Ġv o
j os
Ġlle v
Ġun os
Ġas ÃŃ
Ġmuch o
Ġpro f
al mente
r os
g e
. .
ec e
ĠA r
Ġpart ido
Ġh om
Ġap ar
Ġv a
E l
ĠpolÃŃt ica
Ġto da
z ar
a ce
Ġa unque
en e
Ġca p
Ġm er
Ġp l
Ġp el
Ġf amil
ra ciÃ³n
e a
Ġtran s
Ġres ul
er os
Ġmu jer
ĠL o
Ġd ist
Ġ 7
Ġin s
aj e
Ġ Ã
Ġin f
Ġen tr
Ġs iempre
ch e
Ġmom ento
un ci
ÃŃ cul
Ġpro ble
d ic
Ġs ÃŃ
Ġal go
bi r
d ida
c ciÃ³n
Ġ ir
Ġqu Ã©
Ġlle g
Ġl lam
Ġs itu
o k
Ã³ mo
Ġre cu
Ġde re
Ġj ue
t ante
Ġnuev o
i cia
Ġe qui
Ġsin o
Ġtan to
Ġpro y
Ġse gun
Ġcon v
Ġ -
L a
Ġc ul
Ġt i
Ġp ues
ĠÃ© l
ol u
Ġsu b
Ġcu al
ĠL e
que l
ci os
ĠA s
Ãº s
ĠP P
Ġp ri
l u
Ġsu per
ent ar
Ġp on
Ġa quÃŃ
Ġg an
Ġt r
Ġpo dr
p os
ec u
Ġv is
ĠV al
Ġpro duc
Ġb ar
ami ento
Ġo tra
m ar
Ġsegu ir
ica ciÃ³n
ent ras
Ġcu enta
v an
Ġel los
Ġd ÃŃas
Ġ 8
Ġm on
Ã³ r
c re
Ġv e
Ġse Ã±
Ġcon se
Ġc ab
Ġser v
Ġ u
b an
ĠS i
e le
Ġ1 0
Ġre f
ĠEst e
Ġ2 0
Ġb as
Ġor gan
Ġest udi
Ġlu gar
ĠD es
Ġest os
ĠP a
ces o
Ġn or
di a
Ġtien en
Ġcas i
Ġp oco
Ġh er
Ġtrabaj o
en o
Ġ Q
ĠJ os
Ġecon Ã³m
Ġque d
h o
Ġinv esti
ari as
f ic
Ġv i
Ġe uro
di Ã³
Ġf o
Ġcu atro
Ġh or
ĠEst ado
an cia
c os
ver s
t ic
Ġpo der
arc el
Ġt ar
z as
Ġesc ri
ĠF ran
c ado
c ri
era ciÃ³n
du ci
Ġo tras
ar ro
ĠC as
w it
Ġ 9
Ġi de
an d
Ġe je
Ġre con
ĠC u
ĠR o
an za
m ana
iv ers
am p
Ġm il
t ido
y a
Ġm al
ier on
2 01
un tos
teri or
Ġh oy
Ġau tor
Ġre la
Ġay er
ĠM an
Ġd a
er v
c ur
f r
ris is
Ġc r
c as
er n
Ġ z
mp l
wit ter
e p
Ġa g
Ġap ro
ar ia
e o
Ġ Ãºn
iz aciÃ³n
Ġa quel
at os
Ġ1 5
Ġha ber
Ġc risis
Ġdic e
Ġpr Ã³
Ġdi fer
Ġmes es
ĠL u
Ġn ada
Ġle g
Ġ Ã¡
ĠM e
ĠpÃºbl ico
il la
ĠpaÃŃs es
os o
ens a
Ġhist oria
Ġem bar
Ġt om
Ġg u
g ur
ĠU na
Ġexp lica
ici o
am a
b ol
Ġeje mp
om in
Ġc ier
Ġin t
u t
ie m
Ġfin al
ri l
ri st
Ġexp er
b ro
ĠP S
Ġh um
cu ent
ĠN e
arcel ona
p re
Ġten er
Ġmuch os
i es
ÃŃ st
Ġest ado
Ġprof es
Ġde cl
Ġne go
Ġb us
Ġcom paÃ±
Ġl ÃŃ
Ġrep res
Ġg ente
Ġgru po
ĠP ara
Ġde st
Ġ X
Ġle y
Ġe f
ri g
Ġmedi o
Ġm ad
ĠT witter
Ġt or
Ġan d
Ġembar go
Ġa demÃ¡s
bl es
ĠP A
Ã į
Ġp ens
Ġ Z
bo ok
âĢ Ļ
Ġpres ent
Ġgran des
Ġd oc
Ġse a
Ġh u
un ca
Ġqu ier
Ġ ig
t ad
ta mente
Ġalgun os
ĠC atal
Ġc Ã³mo
ace book
Ġd ar
i to
ĠB arcelona
Ġpu bl
Ġl ar
Ġespe cial
Ġdirec tor
Ġac uer
gu a
Ġequi po
ĠF acebook
ar d
b res
Ġob je
Ġen con
osi ciÃ³n
a p
Ġb uen
b e
ma ciÃ³n
Ġar t
Ġs iste
oc a
Ġre v
Ġpar ti
ci s
ce p
Ġn Ãº
min ist
on ces
c om
t ica
er g
tiv as
Ġgener al
Ġd in
Ġn om
Ġp al
Ġs an
ÃŃ o
ĠT o
ĠJos Ã©
iz o
Ã³ g
Ġdeci r
ĠE L
al l
os a
Ġest ar
Ġcin co
te g
Ġcambi o
ĠS in
Ġpro gra
Ġmu er
Ġfr ente
Ġtra ta
ĠP o
Ġte mp
if ic
Ġmi entras
ar es
b ra
en cias
Ġ 0
ĠG u
Ġf e
Ġre aliz
ol es
Ġha bl
a ciones
Ġcas a
Ġcon ver
Ġto das
Ġinvesti g
e dad
Ãį S
Ġf is
Ġv ia
ĠÃ ģ
Ġa le
arro l
Ã³ lo
ĠM a
ĠPA ÃįS
Ġap oy
Ġest aba
em bre
Ġpro v
in e
Ġfu era
Ġre for
om ÃŃa
Ġcomp le
Ġsitu aciÃ³n
Ġca pa
Ġen cuent
Ġemp le
ĠJ u
Ġf ir
ic h
Ġpue den
d ÃŃa
ĠnÃº m
Ġdi jo
u c
Ġent onces
Ġmin ist
Ġ1 2
Ġcent ro
Ġal l
Ġv uel
ĠEuro pa
er ÃŃa
Ġha bi
Ġp os
Ġju g
Ġcon stru
ĠC or
ĠprÃ³ xi
Ġg as
ĠA m
Ġa Ãºn
Ġc ele
Ġpre gun
ez a
b or
el l
m it
t antes
N o
ti Ã³
Ġan ti
Ġin de
ĠA y
ab les
Ġejemp lo
Ġempres a
Ġnuev a
ri r
Ġdi f
b as
p i
Ġcon tin
ci miento
Ã¡ c
Ġes per
Ġpe que
ĠÃºlti mos
Ġse mana
ĠM i
Ġ is
en ci
Ġinter na
ĠM on
Ġlle gar
Ġo fici
Ġempres as
Ġp ad
le t
di r
Ġac ab
Ġju st
mo c
Ġv eces
Ġaf ir
Ġeuro pe
Ġsiste ma
Ġc atal
br os
t un
d ica
ri a
ÃŃcul o
ĠÃºlti mo
ĠNe w
ĠS eg
Ġmayor ÃŃa
f e
ici os
ar an
E s
Ġest as
Ġcon tro
ec t
ol og
an ci
mi entos
ĠEst ados
Ġcos as
Ġa t
Ġfal ta
Ã¡ r
ri Ã³
Ġfo to
Ġcomp ar
m Ã³
h i
ici p
is iÃ³n
Ġn unca
Ġproy ecto
ĠN a
di o
Ġtra v
Ġdes arrol
Ġase gur
Ġexp lic
Ġs os
Ġac tiv
Ġ ur
Ġdes p
Ġper io
m ent
Ġser Ã¡
Ġc lar
Ġper mi
cion ales
Ġ ru
Ġcon oci
Ġincl uso
s os
Ġacuer do
Ġun as
Ġ k
Ġcual quier
Ġnues tro
Ġman era
is o
u Ã±a
g ado
Ġh izo
ar ÃŃa
Ġ1 8
Ġin stitu
esti Ã³n
p ular
Ġpre v
Ġsec re
ti s
tar io
r ado
qu il
Ġna cional
Ġt al
ent as
Ġpar ece
Ġres p
Ġencon tr
O E
ĠP ue
Ġman ten
de mos
Ġfuer on
den cia
Ġti po
Ġv ÃŃ
j ecu
at ur
Ġdin ero
ten ciÃ³n
g on
m ento
Ġp unto
ur idad
i or
ci n
ĠnÃºm ero
Ġdeb e
Ġimp res
Ġel la
c el
Ġtrav Ã©s
v ÃŃa
Ġh e
Ġ1 1
Ġrec or
Ġcom er
Ġdi rig
Ġy o
bl ig
Ġmis ma
Ġte le
Ġno v
Ġd o
Ġha cia
Ġb u
gu ra
Ġi ma
r al
av or
st as
Ġcons ide
Ġmujer es
gra f
Ġre fer
Ġ3 0
Ġt h
Ġg en
ol a
ri o
i ciÃ³n
âĢ ¦
Ġcap ital
Ġs ue
ec tos
ent al
ĠJ o
ist o
Ġhor as
ad ie
e ta
Ġmun icip
Ġrec ur
ues ta
Ġa um
Ġs a
Ġo blig
ĠG ener
Ġf ran
Ġ us
Ġemp ez
z Ã³
ĠS o
Ġten ÃŃa
v il
Ġcom pe
ch os
ĠB ar
ĠT ambiÃ©n
Ġfun cion
Ã¡t ico
Ġlo gr
d idas
h a
Ġg ust
u i
ol o
Ã¡ l
Ġm Ãºs
Ġin st
Ġh o
Ġc l
Ġexp res
Ġes pa
Ġdes a
re z
ĠM u
Ġpart idos
ĠC i
Ġto tal
Ġpro ceso
Ġmo de
Ġde ber
ci dad
Ġ201 1
rib u
Ġcon ta
en as
Ġs om
Ġf avor
ue go
Ġinde pen
Ġ1 4
it os
Ġelec ciones
ĠA h
b os
t ico
Ġel lo
ab or
Ġfin anci
p el
Ġposi ble
ĠUn idos
Ġm Ã¡
Ġvi ol
m ado
Ã¡ f
Ġmer cado
Ġa de
Ġde moc
g as
Ġb a
Ġal can
d an
n es
t ada
Ġproble ma
r or
ci do
Ġd atos
Ġsec tor
Ġp untos
Ġinter es
Ġedi ciÃ³n
ĠGener al
Ġdecl ar
te c
Ġimpor tante
ĠT he
Ġdist in
ĠCatal uÃ±a
Ġf on
i ble
uer ra
Ġre un
eci Ã³
m en
z ado
.. .
Ġv ic
ĠNew s
ĠJu an
Ġg ol
ĠC o
Ġig ual
Ġob ra
ue la
Ġbaj o
Ġcomp ro
ĠPS OE
Ġse is
c or
vis iÃ³n
ig o
pues to
ĠIn ter
ador a
Ġli ber
tu ro
de z
cri bir
n e
let ter
Ġoc ur
cu la
er as
Ġp ie
tur as
Ġan unci
Ġcon di
ĠAy unta
Ġfamil ia
Ġ1 3
ĠA demÃ¡s
Ġde por
Ġtr ad
ci den
ol Ã³g
c ent
d al
Ġal cal
ĠA le
Ġrecu er
ĠpolÃŃt ico
on o
ru p
r ar
Ġf il
Ġu til
ĠH a
Ġart ÃŃculo
ta ciones
Ġsoci edad
Ġg o
ti on
E n
Ġf i
iv el
Ġca us
Ġmuch as
Ġha br
ĠM o
Ã©c n
Ġre alidad
Ġ ol
Ġmin u
Ġex tra
Ġ2 5
Ġm or
Ġh ora
Ġj unto
ĠEst a
Ġof re
Ġor den
de ra
Ġac us
er io
Ġest o
Ġes os
ĠNews letter
ic ÃŃa
t h
g ue
ÃŃ f
Ġin m
Ġfis cal
mp le
rib un
r on
Ġtemp or
i mo
tr an
ĠS al
Ġ1 7
er ic
Ġpodr ÃŃa
v id
iz ar
Ġdoc um
Ġ1 6
Ġval or
Ġsig ue
ul o
Ġpal ab
ĠÃºlti ma
iv a
ĠF ern
Ġla bor
Ġrepres ent
Ġn ivel
ien e
Ġ201 0
Ġra z
di al
e x
Ã¡ m
Ġn eg
Ġp en
mp li
Ġcon tr
Ġno che
Ġsu pon
Ġex ist
us iÃ³n
Ġrespon s
in iÃ³n
Ġz ona
ĠDes de
t Ã¡n
un d
Ġp uer
Ġf ac
ĠAs ÃŃ
Ġproble mas
Ġar ti
in os
Ġcol ec
Ġcal le
Ġsegun do
in as
ic amente
Ġten dr
i al
f a
Ġfu turo
b al
b ado
t s
il o
iv il
z os
ĠPue des
ĠD i
le g
ti ene
ĠSeg Ãºn
Ġen car
Ġprop io
Ġsus cribir
v ar
Ġb al
Ġf ra
Ġdif ÃŃ
qu es
Ġlo cal
Ġase gura
Ġcon ven
Ġm os
ĠA d
in gun
da des
duci r
ter a
c ÃŃa
i ma
Ġquier e
ĠpÃºbl ica
ci Ã³
Ġc ara
Ġin di
re a
ĠespaÃ±ol a
g el
l or
Ġb o
Ġqu er
Ġsuscribir te
ĠP e
Ġt Ã©cn
Ġex ig
Ġlar go
j ero
Ġse p
Ġm Ã©
Ġnos o
ĠAyunta miento
Ġden tro
Ġau to
Ġaf ec
u g
en da
Ġc ir
Ġn adie
Ġc las
Ġcin e
Ġl ado
ien cia
ĠH ay
gres o
Ġactu al
Ġm iem
Ġsu r
Ġd omin
Ġt ri
Ġ19 9
Ġp an
Ġmu es
Ġin ici
Ġpa pel
amp oco
Ġv an
ĠM Ã©
ĠC an
Ġpas o
Ġa ta
Ġpues to
aj es
r era
Ġhom bre
du st
Ġhay a
olog ÃŃa
ĠR a
es t
Ġ2 2
Ġsoci ales
ĠB an
Ġtar de
Ġs ac
d or
Ġpubl ic
z quier
ar Ã¡n
Ġnoso tros
j as
re g
Ġor ig
Ġri es
Ġmedi a
Ġh emos
Ġest able
ĠLu is
pues ta
ĠO r
aj oy
v al
ĠseÃ± al
olu ciÃ³n
e b
x ico
Ġde m
Ġelec tor
Ġprogra ma
es e
Ġpo pular
ta gon
Ġsegun da
ĠCom o
Ġcas os
Ġdeci siÃ³n
iv o
ĠR ajoy
Ġseg uridad
Ġdef in
Ġc ur
un a
Ġres to
ci ales
Ġni Ã±os
Ġc ri
Ġnom bre
Ġa bier
iden te
Ġman if
Ġtoda vÃŃa
t bol
Ġorgan iz
c k
Ġac om
ec er
Ġoc as
Ġau t
ĠpolÃŃt icos
Ġen c
Ġv arios
Ġnues tra
Ġsu f
y o
Ġ on
ĠAh ora
Ġs or
Ġb ene
Ġconse gu
Ġest u
om a
Ġqu i
i mos
v es
i ano
u la
m es
ĠNa cional
Ġref le
Ġper f
ĠCu ando
Ġa tra
Ġv eci
i le
ing Ãºn
Ġd Ã©c
Ġpri v
ion al
i p
ĠâĢ ĵ
Ġclar o
ci er
ĠC ol
Ġas es
Ġbu ena
Ġe jer
ita t
Ġide a
Ġ2 1
bi Ã³
Ġ201 2
Ġpon er
ul io
Ġo cu
Ġm ul
Ġserv icios
Ġinvestig aciÃ³n
Ġli bro
cia ciÃ³n
ci endo
Ġpro tagon
Ã± ana
ba te
Ġpor ta
Ġalgun as
tar on
Ġin ver
Ġl ÃŃn
i ar
c ti
Ġf a
Ġsig lo
Ġinfor maciÃ³n
Ġciudad anos
ivers idad
Ġpar tir
Ġn ingun
o p
ĠP ro
en der
Ġcon oc
Ġcr ÃŃt
ig a
Ġm at
Ġre laciÃ³n
r ic
tor ia
ĠdifÃŃ cil
ĠM in
Ġtu vo
i ado
dos e
pa ciÃ³n
or k
Ġminist ro
an as
ĠM un
Ġj o
ĠÃºn ico
Ġj un
u ales
Ġsent ido
Ġd Ã©
ĠMÃ© xico
Ġcom en
ĠAn ton
ven es
Ġreg ist
Ã³ venes
n as
Ġre cl
Ġcon te
it er
ÃŃ amos
Ġes as
ĠI s
Ġin te
Ġecon omÃŃa
Ġn atur
di ente
Ġdere cho
Ġob ras
ti en
Ġse x
Ã¡t ica
Ġter min
an to
Ġparti ci
Ġcu mpl
Ġen fr
Ġsi m
ĠEuro pe
ber n
if ica
Ġhab ÃŃan
lar es
Ġs Ã³lo
il ar
uy e
Ġj Ã³venes
Ġab s
Ġn ingÃºn
Ġten ido
Ġas ist
el o
Ġa van
Ġcon cl
ĠE E
Ġf Ã¡
Ġcontin u
Ġc la
bi a
Ġi zquier
Ġs iendo
Ġbene fici
cur so
Ġp in
Ġobje tivo
Ġminu tos
Ġcontro l
Ġ5 0
ĠpolÃŃt icas
Ġlleg Ã³
t ero
Ġh os
ti z
ĠA unque
oc u
Ġi den
Ġm ano
Ġconside ra
Ġpres u
Ġc li
Ġp at
at ura
Ġapar eciÃ³
t ando
ĠmÃºs ica
b lo
ĠGeneral itat
Ġl an
Ġcam paÃ±a
E st
Ã ¼
Ġma Ã±ana
Ġter ri
Ġcu ar
ie te
Ġest ra
tr Ã¡s
Ġcele br
Ġre co
ĠB o
ĠU U
ĠeconÃ³m ica
Ġlle va
Ġes cu
Ġam bi
Ġpl ante
Ġp oc
f o
i ra
man as
Ġcon ce
ĠvÃŃ cti
Ġc ru
Ġprop ia
Ã± as
Ġmedi os
Ġser ÃŃa
ribun al
Ġdes cu
Ġm ens
Ġdes e
Ġf ig
Ġa mpli
ÃŃ cula
Ġ [
Ġfun d
Ġl uego
Ġser ie
ru mp
Ġpr Ã¡c
m on
Ġr en
Ġj e
Ġt ec
tu al
Ġr ad
Ġesp ect
ĠQ u
Ġquien es
vo z
Ġpo b
Ġnuev os
Ġinfor me
ĠlÃŃ der
ĠM or
i der
ĠP u
ĠCar los
Ġel las
j ar
Ġre al
Ġespa cio
Ġpad re
Ã¡ g
p as
un es
Ġin dust
Ġmode lo
g er
g ent
ĠC a
Ġg uerra
Ġa gua
Ġpes ar
Ġd ig
Ġg al
Ġinterna cional
Ġme didas
Ġah ÃŃ
g n
Ġmuer te
ĠG al
Ġin gres
iz a
Ġci f
ul ta
duc aciÃ³n
Ġesc en
Ġd ado
Ġ4 0
un iden
Ġk il
Ġdis e
tor io
ord in
ĠP ol
ĠG ran
ar lo
Ġm as
xi to
Ġdi pu
u das
Ġrec ord
ch ez
1 9
o ce
Ġpro ce
c ales
Ġrecon oci
Ġperson al
Ġsig n
Ġd Ã³
Ġest re
ĠcompaÃ± ÃŃa
Ġdes con
Ġcon t
Ġdere chos
Ġ201 3
Ġestado uniden
Ġprim ero
Ġb lan
ĠP er
ĠÃ© xito
Ġmos tr
ĠI g
Ġac er
Ġde r
Ã©r ica
ĠR u
Ġpr on
Ġde dic
le c
Ġporta voz
Ġe ran
t idad
Ġjo ven
d ico
Ġprincip al
ĠE x
Q u
ĠMar ÃŃa
Ġac ep
ti embre
or io
Ġau ton
Ġpr ue
Ġpol icÃŃa
Ġnuev as
por tun
ĠCon se
rup ciÃ³n
Ġcu er
t ÃŃn
a u
ra cia
Ġperson a
Ġapoy o
Ġe r
aj a
Ġrefor ma
Ġjue go
Ġjue z
Ġev itar
Ġel eg
x to
Ġcon j
o d
uev a
on d
ĠespaÃ±ol es
Ġm ir
Ã¡n chez
Ġsep tiembre
on e
ter min
Ġ *
a de
Ġten emos
g Ãºn
ĠP re
Ġpa c
Ġs iete
ti o
ĠprÃ³xi mo
Ġar te
Ġ201 4
ĠS Ã¡nchez
ĠEn tre
Ġhi jos
ent ado
ec en
ĠC ent
Ġde uda
Ġde bate
ĠCom un
Ġries go
Ġe jecu
Ġen fer
or n
L os
cul o
Ġen ero
s iones
Ġg aran
Ġ2 4
Ġdi ci
Ġtec n
Ġap or
Ġcar rera
Ġj ulio
Ġcier to
Ġsor p
Ġimpres a
ier nes
ĠM as
Ġan terior
Ġpel ÃŃcula
me tros
tar ia
ĠAnton io
Ġme tros
Ġcre cimiento
ĠT ras
f i
b u
Ġv isto
tu d
mi te
ĠmÃ¡ xi
c era
Ġme dida
Ġmad re
Ġo portun
Ġprimer os
Ġpre ten
tu bre
Ġvol ver
Ġresul tado
Ġin ten
Ġab and
Ġcapa cidad
Ġ201 5
g in
Ġal ter
l y
ĠT e
Ġcer ca
Ġt ur
Ġhu bi
ch ar
ĠC al
Ġdici embre
Ġima gen
vi Ã³
ĠT or
% .
Ġsol u
ier ra
Ġap enas
Ġmay o
Ġ il
Ġfu entes
Ġpob laciÃ³n
Ġpre ocu
Ġcons ider
Ġob s
s i
Ġcam ino
Ġd io
Ġhabl ar
r Ã³
Ġpas ar
ĠCon s
ĠâĢ ĺ
Ġall ÃŃ
i re
lu b
res pon
Ġg obierno
Ġsu ce
h er
Ġjun io
Ġs en
ta ba
Ã¡ p
Ã¡n dez
ul s
e v
Ġincl u
Ġo cho
qui era
Ġmar cha
Ġre cha
Ġ2 3
ĠO p
Ġl l
Ġar gu
Ġoc tubre
ti fic
Ġv ig
Ġl ec
Ġm it
ta ble
ĠdÃ³ lares
Ġcon stitu
un da
el as
Ġt ampoco
v ent
Ġde pen
Ġay ud
Ġsal ud
Ġad minist
r ido
ues tas
Ġfor m
Ġm us
as e
Ġhist Ã³r
Ġedi fici
ti m
Ġam ena
Ġalgun a
Ġv arias
Ġre d
ĠVal encia
Ġmo vi
ĠY o
Ġv as
Ġpa gar
Ġperio di
rim on
Ġprov oc
Ġno ve
Ã© g
ĠaÃ± ad
tor a
p ro
Ġserv icio
Ġop osiciÃ³n
l l
Ġmil itar
Ġde man
ĠUn iversidad
j ust
Ġse manas
ĠÃ© p
Ġpue blo
Ġmanif es
Ġacom paÃ±
Ġtempor ada
Ġg estiÃ³n
Ġviv ien
Ġmiem bros
Ġa gu
Ġper man
k e
Ã¡f ico
ĠCon stitu
Ġreci b
ĠO b
Ġningun a
Ġdej ar
Ġt ÃŃt
Ġ os
Ġcon den
Ġcan dida
ent an
Ã© m
g l
Ġresp ecto
Ġha cen
ĠCi udad
Ġal gÃºn
Ġcon ten
ĠM er
Ġpro du
arc ÃŃa
Ġcondi ciones
Ġt a
ĠMin ist
Ġdirec ciÃ³n
iem bre
Ġin cre
Ġmar zo
ab lo
ur as
Ġtrabaj adores
aliz aciÃ³n
Ġsu p
Ġall Ã¡
ĠF e
k a
Ġpre par
Ġca ÃŃ
fici ente
Ġman os
ĠPar lam
Ġmanten er
Ġ '
ĠG arcÃŃa
ĠFran cia
Ġforma ciÃ³n
Ġrecu per
br ero
ri z
Ġsab e
Ġin icia
3 0
Ġconf ir
Ġre par
Ġgru pos
am eric
ĠS on
Ġcar go
uev es
Ġnov iembre
Qu Ã©
Ġ19 8
Ġam bos
Ġinter ven
ech a
Ġpalab ras
Ã ł
ens o
Ġafir ma
Ġmues tra
Ġampli ar
Ġest amos
Ġpre cio
Ġcons ig
Ġan im
ĠÃºn ica
Ġpas a
ec ta
Ġpar e
t id
Ġ1 00
Ġres pe
Ġpro mo
Ġas p
Ã© rez
Ġcab eza
Ġcam po
ie go
ĠpÃºbl icos
Ġ /
Ġgra cias
j es
ĠMan uel
Ġam or
Ġesp era
z an
Ġcal idad
Ġrecuer da
es tiv
Ġ uso
Ġter ror
pe z
gra m
gu ien
Ġmo der
Ġay uda
Ġpr ensa
Ġsab er
Ġver dad
Ġde ten
Ġnatur al
Ġestudi o
Ġdic ho
n et
en d
Ġelector al
Ġconf lic
es a
es ta
Ġinter pre
ar ra
Ġex tre
Ġhi jo
Ġresul tados
Ġde mas
l ad
ĠP Ã©rez
p ital
Ġpel ig
ĠC am
ic ado
k o
Ġg ri
ch es
c ados
Ġleg is
Ġrespons able
Ġnor te
ĠlÃŃn ea
ar r
al u
Ġdest ac
Ġliber tad
Ġentr en
d id
i an
Ġsecre tario
p an
Ġrespon sa
Ġs ens
Ġde termin
i anza
Ġd ie
v ieron
Ġalcal de
Ġemple o
i miento
Ġa tenciÃ³n
Ġin stru
Ġkil Ã³
Ġapro b
Ġen erg
c Ã³
Ġvis it
Ġviol encia
% ,
Ġres ta
ic al
c oles
Ġde tal
Ãº tbol
Ġa mpl
Ġdifer entes
Ġju di
Ġal to
Ġentre v
Ġque da
ig os
ri tÃ¡n
Ġfon do
graf ÃŃa
b el
Ġs ir
Ġsal ir
Ġdesarrol lo
Ġizquier da
Ġprop ie
Ġcon cre
ĠS a
Ġmej ores
Ġb e
Â ¿
al e
ic e
Ġmo do
Ġes f
Ġv iernes
Ġconv oc
Ġcos a
ci ente
âĢĶ ,
Ġal im
Ãº a
Ã©r coles
Ġparti cip
m Ã¡n
ĠÂ ¡
Ġcol abor
201 7
l ante
Ġcomun idad
av ier
Ġutil iz
Ã³n ica
Ġap ren
Ã³ pez
ĠT rump
Ġhom bres
ig n
l in
Ġimp ues
T A
Ġmit ad
un cia
Ġth at
Ġma teri
Ġ200 9
ĠG on
man ia
ten cia
Ġl unes
se o
Ġin vers
ĠL Ã³pez
ÃŃst ica
Ġhab la
n er
di entes
Ã¡ bado
ĠB a
Ġres puesta
de ro
p ec
Ġposi bilidad
Ġfund am
ĠB er
til la
Ġex cl
Ġgo bern
Ġ2 7
bil idades
Ġprincip io
Ġl iter
Ġde mos
Ġv ista
Ġpad res
ĠN ueva
Ġpes e
ĠY ork
Ġpres encia
Ġfuer za
Ġprop uesta
ĠfÃ¡ cil
l ig
gen es
it ario
m io
ĠMar tÃŃn
ĠB r
ru c
Ġcor respon
Ġb ritÃ¡n
Ġcent ral
Ġorgan izaciÃ³n
aliz ar
Ġvol un
Ġm ÃŃ
i ro
Ġfr on
ĠCon greso
teri ores
Ġcan did
Ġpre cis
Ġescen ario
Ġactiv idad
Ġje fe
ci ma
ĠeconÃ³m ico
ĠAd minist
Ġt it
ĠaÃ± ade
Ġconoc er
as a
es iÃ³n
Ġun ivers
Ġinter Ã©s
i ados
Ġconver tir
tur al
Ġneces ita
Ġprincip ales
x ic
Ġc ivil
ue lo
ĠseÃ± ala
Ġbas e
Ġab ril
m entos
ĠEs o
Ġrecur sos
ĠComun idad
C u
Ġmuch a
ĠP ed
ĠJ or
Ġ19 7
Ġden unci
Ġpre cios
Ġpro tes
ĠGon z
ci na
Ġal guien
e as
m or
Ġsol ici
Ġdis pon
Ġtele visiÃ³n
Ġi ba
pues tos
Ġsal ida
gos to
Ġper s
Ġabs olu
i el
ĠFran cis
Ġpla zo
i b
Ġdemoc racia
Ġpue da
ĠConse jo
Ġg lo
Ġno ti
Ġ200 8
Ã³ vil
Ġh ici
Ġl en
ren o
Ġc lub
Ġes ca
Ġcul tura
Ġaband on
Ã© di
ĠP ablo
Ġsig ui
Ġab og
ĠkilÃ³ metros
le z
Ġnor m
ĠPo demos
ĠS us
Ġver ano
Ġfe brero
Ġco in
ĠU E
Ġf Ãºtbol
Ġli bre
Ġsupon e
Ġnues tros
Ġcor rupciÃ³n
ĠF ue
ul os
ĠF er
it ado
r Ã¡n
Ġ201 6
ech o
tiv amente
Ġcatal Ã¡n
ĠC rist
Ġexper iencia
Ġm ÃŃn
Ġa gosto
ber t
Ġlle ga
ri os
ol e
on as
Ġdis f
Ã©n d
tor no
ĠM ig
g ada
Ġ2 6
n gel
Ġcons erv
Ġllev ar
Ġdef ensa
Ġex tran
t adas
Ġmen or
ĠÃ©p oca
Ġen or
ĠAle mania
rimon io
Ġsocial ista
ĠJ a
Ġtiemp os
Ġe mo
Ġal ta
Ġfin ales
Ġpla za
es tr
Ġneces idad
ĠvÃŃcti mas
S e
Ġcontr ario
Ġdi vers
Ġd uda
1 0
i x
Ġfuer te
Ġl ista
Ġpar lam
Ġr Ã¡p
5 0
Ġdomin go
Ġcu estiÃ³n
jer os
Ã¡m ara
in ar
b able
Ġtrabaj ar
Ġnego cio
Ġveci nos
g re
Ġbar rio
Ġs uel
Ġestra teg
Ġcandida to
Ġp id
tar se
estiv al
Ġofici al
Ġp ris
ĠQ ue
ĠT ribunal
if icaciÃ³n
Ġac ceso
Ġinver siÃ³n
Ġpo dÃŃa
Ġal um
Ġprov in
qui tec
Ġg es
Ã³ l
Ġap lic
Ġingres os
Ġv ie
Ġfamil ias
ĠB en
Ġejer ci
Ġcon st
ĠD av
esti on
Ġgan ar
Ġle van
Ġespecial mente
v iv
2 0
ĠTo do
den te
ic ular
ĠS er
Ġdej Ã³
v ech
Ġpoc os
Ġesf uer
Ġactu alidad
Ġautor idades
gue z
Ã §
Ã¡ st
Ġest aban
ac to
ion ales
Ġreg res
ber to
Ġtrad i
ĠN av
ĠE jecu
ir se
Ġcon tar
ĠG o
cier to
Ġlu z
i ente
Ġreci ente
z Ã³n
Ġestadouniden se
re o
Ġmay ores
Ġest ruc
por tes
Ġdeb en
Ġviv ir
Ġhubi era
Ġrecl am
ĠFrancis co
ran tes
Ġj ueves
Ġdis curso
Ã© tico
Ġdes c
Ġcent ros
Ġ2 8
Ġte ma
Ġj orn
Ġpe or
Ġop iniÃ³n
Ġmar tes
ĠMig uel
g Ã³
ĠM Ã¡s
Ġb lo
ĠMinist erio
ĠA t
ĠFern Ã¡ndez
di eron
duc ciÃ³n
Ġme xic
Ġc at
ĠY a
ĠMun dial
il lo
ie do
k i
ĠR es
Ġencontr ar
Ġimp osi
Ġcu entas
Ġcaus a
ĠÃģ ngel
di endo
Ġv iene
ĠP res
Ġcre e
Ġlleg ado
Ġespe ci
ĠPed ro
al o
Ġconj unto
Ġproduc tos
Ġ6 0
l ÃŃ
p ara
Ġ ital
ici dad
P or
Ġi m
r ados
S i
ch as
Ġentr ada
x im
m iso
Ġde v
Ġpermi te
Ġv ir
Ġvuel ta
Ġsign ifica
Ġag entes
Ġmar ca
Ġcol eg
Ġe ducaciÃ³n
Ġen cima
Ġcuer po
Ġcre ar
Ġli bros
ol ver
ĠD iego
Ġcons ecu
i la
ami entos
ĠH asta
Ġv ent
Ġdi ario
or ÃŃa
Ġo fer
duci do
i te
tiv idad
Ġre des
Ġasegur Ã³
de res
ĠT h
an cias
ĠJ ust
ĠOp iniÃ³n
Ġconver tido
Ġp Ã¡g
Ġre ac
Ġdere cha
Ġcambi ar
l la
on al
Ġha ciendo
Ġsocial istas
Ġen se
Ã© tica
ĠUn iÃ³n
sta gram
ĠT er
iz Ã¡
Ġinstitu ciones
Ġencuent ra
de o
ancia ciÃ³n
Ġt ir
Ġpregun ta
ĠCh ina
ĠRe y
h n
Ġac t
ĠM ari
uda des
Ġcu anto
Ġproduc ciÃ³n
Ġe dad
in al
ĠIn stagram
ĠU r
Ġt el
Ġv in
Ġconte mp
ĠIg les
Ġper mit
Ã¡ lez
Ġdemos tr
era ciones
Ġcla ve
Ġencuent ro
Ġf el
Ġpart icular
Ġreg iÃ³n
Ġju z
ĠL i
Ġma g
Ġte atro
Ġhacer lo
gent ina
Ã³ s
Ġauton Ã³m
ĠGonz Ã¡lez
Ġdifer encia
de dor
Ġmi Ã©rcoles
Ġreun iÃ³n
Ġorig en
ar do
Ġdeber ÃŃa
Ġraz Ã³n
Ġf ru
Ġfa cil
ĠEurope a
Ġl im
Ġsu puesto
Ġb or
l ado
ĠB ras
ĠEjecu tivo
ĠC os
Ġap unta
Ġrec om
an t
Ġlu cha
201 6
Ġdemas iado
Ġj ur
Ġconsegu ir
Ġt Ã©r
Ġam igos
Ġanti gu
om as
f f
Ġex iste
ĠT ra
ent Ã³
Ġap un
Ġac aba
eci do
Ġproy ectos
Ġju gar
me dia
ĠpÃºbl icas
u de
Ġposi ciÃ³n
ar dia
Ġci udades
Ġvo z
ul tura
Ġas um
ĠdÃ©c adas
Ġalter na
d icos
Ġcom Ãºn
u mo
ĠP as
Ġaquel los
Â º
Ġneces ario
ĠH ol
iden cia
Ã¡n dose
ent aciÃ³n
Ġfon dos
Ġf ies
it an
por te
Ġdemoc r
lo go
Ġman da
Ġapro vech
v illa
ĠRe al
ĠCom isiÃ³n
Ġre pu
par ta
iv os
Ġob ten
Ġs Ã©
Ġas o
ĠE con
Ġd an
ad amente
Ġnuev e
for ma
on os
Ġcab o
ig ue
ci to
Ġdepor tivo
ĠFern ando
Ġcons ul
Ġef ec
Ġdi fic
Ġs il
ier te
Ġt ro
qu is
an ÃŃa
ĠÃºlti mas
Ġar quitec
ent ÃŃf
Ġper der
Ġb ol
Ġqui Ã©n
Ġca den
ti tud
tel l
Ã© f
ti a
Ġin dic
bl ic
ir tiÃ³
Ġmom entos
Ġac to
cion ado
Ġcon cent
Ġen s
ĠIn stitu
Ġdefin i
Ġconstru cciÃ³n
Ġmun dial
Ġse an
ĠParlam ento
Ġtendr Ã¡
ec ÃŃa
Ġsu m
Ġocas iones
ĠD el
Ġinst al
Ġs Ã¡bado
Ġhist or
ĠG re
Ġf ÃŃs
ir Ã¡
Ġfin anciaciÃ³n
p ol
Ġbus car
i ana
Ġcom b
Ġde ja
Ġtom ar
Ġhabr ÃŃa
ĠMi entras
ri que
c Ã©s
Ġre le
Ġm iedo
Ġcre o
1 2
ti ciÃ³n
Ġpo demos
Ġlo cales
Ġcambi os
im en
Ġfig ura
Ġdesa par
Ġp udi
Ġdis co
y Ã³
Ġcomun idades
ĠAn dal
Ġex ten
ĠH ab
ĠBras il
iz ado
ĠtÃ©r min
ĠJ avier
Ġder ro
Ġvia je
Ġap lica
ĠF u
Ġa do
Ġdie z
Ġcomun icaciÃ³n
ĠN i
Ġfal le
Ġjug adores
Ġquier en
Ġob st
Ġgol pe
Ġsorp ren
on g
Ġgra ve
ri le
Ġsu ficiente
Ġdis par
j ado
tu vo
ĠAm Ã©rica
Ġcom ien
ĠB e
Ġhabr Ã¡
ill as
Ġvo tos
Ġv ÃŃa
cion ar
Ġarti sta
r ada
Ġent ender
Ġm Ã³vil
j Ã³
ĠInter net
Ġdes car
Ġbus ca
Ã ¨
Ġnor ma
ĠR os
ĠBan co
es te
Ġclas e
p le
ÃŃ guez
ÃŃst ico
Ġab rir
Ġsent encia
Ġdis p
it y
Ã©g imen
ic k
Ġcu yo
Ġestrateg ia
Ġv el
Ġgran de
Ġle jos
m is
Ġdisf ru
Ġv ac
cep ciÃ³n
Ġd u
Ġcu ya
Ġp ier
Ġp ien
ent ales
v ia
cul os
Ġpro te
Ġcons um
Ġb el
in es
it ales
Ġhech os
qu iv
Ġpeque Ã±o
Ġpens ar
ĠDav id
Ġin cor
Ġedifici o
m er
Ġro mp
Ġef ecto
Ġmil es
Ġprofes or
dr ÃŃguez
c ra
as h
Ġinter ior
Ġjust icia
Ġter cer
Ġac tor
Ġdise Ã±
id ores
Ġlabor al
Ġal re
ĠS olo
ĠN or
ĠF or
ris mo
Ġsi quiera
ĠR us
ÃŃ r
Ġc Ã¡r
Ġbaj a
ĠprÃ³xi mos
Ã¡t icos
Ġdem Ã¡s
ĠRo drÃŃguez
Ġpuer ta
ĠB lan
Ġpas Ã³
Ġp Ã©r
Ġt re
Ġre tir
t icas
itar ia
Ġcomer cial
Ġ8 0
ÃŃ m
Ġresul ta
da p
g al
Ġdej ado
Ġnove la
Ġsig uen
Ã¡n d
Ġel abor
Ġhos pital
Ġjudi cial
ĠPar ÃŃs
Ġre lig
ciden te
la z
p l
j ud
ĠS ol
ĠR am
Ġcl Ã¡s
Ġban da
ĠL ond
Ġv oc
Ġel im
Ġimpor tantes
Ġmunicip al
Ġre ducir
Ġins ist
Ġ200 7
it as
Ġt esti
Ġad v
an s
ĠG ar
Ġconf ianza
Ġve h
Ġsin dica
m bi
ĠH er
Ġv enta
ier e
I I
tal ia
t t
Ġtras lad
ter as
Ġten go
Ġinm ig
Ġexplic Ã³
Ġac udi
Ġah or
estr uc
Ġn ie
Ġaum ento
ĠDes puÃ©s
ĠPar tido
Ġgust a
Ġresponsa bilidad
Ġd ra
Ġa just
Ġpas ada
ĠCas a
ÃŃcul as
l er
Ġmad rile
ĠÃ¡ rea
Ġent idad
u ri
1 1
ĠOb ama
Ġimp u
on ia
ĠC ivil
Ġci entÃŃf
ĠT en
Ġel em
Ġd om
Ġdecl ara
Ġju icio
Ġconse jero
tar ios
L as
Ġcre aciÃ³n
Ġval enci
Ġa dap
uen cias
Ġpe dir
Ġc rim
ĠH o
gl Ã©s
Ġhu bo
ĠA gu
Ġtri un
Ġsos ten
Ġpro bable
Ġse de
uc ÃŃa
Ġmovi miento
Ġman tiene
Ġop eraciÃ³n
Ġ ido
Ġac ciÃ³n
Ġt ierra
Ġsigui ente
d ra
p s
Ġ2 9
r in
ĠtÃŃt ulo
Ġf amos
Ġdo ble
Ġmens aje
âĢ ľ
Ġr Ã©gimen
on te
ĠdÃ© fici
in ado
Ġrela ciones
Ġver siÃ³n
Ã¡ genes
Ġdef ien
Ġexper tos
Ġindust ria
Ġprincip ios
ĠmÃ¡xi mo
Ġfuer zas
Ġrefer encia
Ġz onas
Ġte xto
Ġ19 6
Ġa ire
Ġe p
t Ã³n
ÃŃ os
im e
di miento
ĠcaÃŃ da
Ġconta c
ĠA c
Ġso ber
Ġado p
ĠSe villa
Ġdeman da
Ġa trÃ¡s
Ġenfer me
Ã©n ero
Ġpla ta
Ġmis mos
Ġestu vo
Ġentr ar
ĠV en
at u
v aciÃ³n
ĠD urante
ĠAdminist raciÃ³n
ces iÃ³n
Ġdeci siones
Ġqued Ã³
Ġpro pon
cia ciones
Ġ7 0
ĠdÃ©c ada
baj o
Ġvic toria
Ġexp osiciÃ³n
o ta
Ġ Ã³r
Ġas unto
Ġper dido
Ãºbl ica
obier nos
Ã¡ logo
ĠD an
Ã³n de
ÃŃcul os
des a
ĠP la
Ġ it
Ġconflic to
Ġpro me
Ġviv e
ar e
tis mo
Ġmer cados
Ġoportun idad
Ġcom e
ĠAndal ucÃŃa
ĠDe portes
Ġi leg
Ġb om
u do
Ġinteres es
Ġest ad
b ur
Ġenor me
Ġref ug
Ġper ten
Ġcif ra
Ġd ura
an es
L o
ĠV ic
ic ciÃ³n
e ar
Ġima gin
Ġpar tes
Ġim Ã¡genes
Ġcal les
ĠB ol
Ġinicia tiva
Ġen torno
M e
Ġgas to
Ġenfr ent
Ġestudi os
Ġdescu b
Ġperio do
ra c
Ġpermi tir
Ġr eno
Ġho tel
Ġimp uls
ie za
ĠI talia
m ano
i bles
Ġarti stas
Ġma ter
ĠH oy
Ġcom is
d ar
ĠcÃ¡r cel
Ġcons umo
ĠSo cial
parta mento
is mos
Ġpl eno
Ġhabi tantes
on so
Ġindepen den
arr ador
den tes
Ġinfor ma
Ġa z
Ġcos te
ĠdÃ©fici t
t ina
Ġsu stitu
Ġo per
Ġcan tidad
Ġin media
Ġni Ã±o
ĠJo hn
Ġac og
Ġpres ente
Ġcre a
Ġhum anos
ĠLond res
Ġd ol
ĠInter na
ep res
om o
Ġa ten
der al
Ġvis ita
Ġin d
Ġver da
om e
Ġban cos
Ġent idades
Ġcomp ra
Ġpare ja
Ġfir ma
ti sta
iv as
j an
ĠP al
Ġf er
Ġp un
is is
Ġejerci cio
cion ados
Ġn um
Ġel ev
Ġpr os
Ġp is
ti endo
r y
tar Ã¡
cen as
Ġimpor tan
ĠF in
Ġtit ular
Ġpu do
I B
Ġpartici paciÃ³n
Ġsal a
ĠPor que
us a
Ġempez Ã³
tu m
Ġperson ajes
ra ciones
ter ÃŃa
Ġpro teg
Ġpa tr
Ġme m
ĠB il
Ġofre ce
Ġeurope os
Ġfran ces
Ġco che
Ġme z
ĠL at
ĠE se
Ġescri tor
Ġpar o
Ġ id
Ġcoin ci
Ġcur so
it h
H ay
Ġfran cÃ©s
Ġrespons ables
Ġp uso
Ġ201 7
Ġper iÃ³
er te
Ġpro ces
Ġa gr
tel ig
ĠAl gun
ci enda
Ġcapa z
ĠRa fa
A l
le cciÃ³n
Ġindi vid
Ġentrev ista
er va
Ġindepen dencia
g ados
Ġpalab ra
Ġprue ba
Ġmo di
d Ã³
Ġaquel la
Ġus u
Ġcir c
Ġest ilo
Ġsolu ciÃ³n
Ġpo ten
Ġcli entes
u iÃ³
Ġsub ra
Ġprecis amente
Ġactiv idades
ĠUn ido
Ġprimer as
Ġmen ores
Ġne ga
Ġar ran
Ġlegis la
ĠEst o
Ġsom os
Ġcr Ã©di
ÃŃst icas
Ġhi ja
Ġau di
Ġf re
E R
Ġmon ta
qu Ã©
Ġw eb
g encia
Ġar ri
Ġac ciones
Ġtrans for
ĠSan ta
ĠO N
fer encia
b amos
Ġreci bir
Ã¡l isis
Ġcol oc
ci entes
b ran
Ġl ig
aj as
Ġcul tural
Ġvo to
Ġsi mple
Ġb ur
ĠEs a
2 00
Ġac um
Ġcu adr
Ġpresiden ta
Ġcon cep
id ar
Ġsue lo
ador as
Ġpon e
Ġjorn ada
Ġtor no
Ġpeque Ã±a
Ġin glÃ©s
ĠConstitu ciÃ³n
Ġcon duc
c ter
ĠRe ino
t icos
Ġcomp lic
Ġre pe
Ġf echa
ĠL iga
Ġrepres enta
Ġespect Ã¡
Ġpres iÃ³n
Ġqu in
Ġdes pe
Ġdic en
Ġf ab
Ġdel eg
Ġ3 5
Ġdef en
Ġllam a
Ġrecu p
Ġeurope a
Ġen vi
Ġimposi ble
ing ton
Ġpol ici
Ġpan tal
t y
ĠtÃ©cn ico
Ġimp acto
Ġinte gr
D e
Ġpue dan
h u
Ġpo bre
w w
Ġ ÃŃn
Ġabier to
de l
Ġanunci Ã³
Ġar ro
h an
ĠVal enci
ĠM ad
Ġb Ã¡s
Ġcontra to
ĠU no
Ġter cera
uer to
ĠD ÃŃa
Ġm ec
Ġinterna cionales
j u
Ġest Ã©
ĠAr gentina
p res
Ġse lecciÃ³n
m enta
Ġcon ci
t ino
Ġcomun icado
re as
ti zar
Ġsu erte
Ġha cÃŃa
ĠH e
Ġri t
Ġofer ta
Ġescri to
ĠN arrador
ĠA b
in s
ĠV er
tor ial
Ġfun ciÃ³n
Ġcu b
y e
olÃ³g ico
ĠA udi
Ġres ist
Ġe quiv
Ġcara cter
ar o
Ġval ores
d ÃŃan
ĠO s
Ġense Ã±
Ġa gra
fr ica
Ġpes o
ĠM os
Ġh uel
Ġade lante
Ġpris iÃ³n
ĠZ a
Ġef ectos
5 00
Ġdis c
Ġmes a
ĠJust icia
Ġdeci diÃ³
ĠB al
Ġcirc un
Ġbus c
di os
Ġbuen o
ra el
dr Ã¡
ti g
Ġem b
Ã© l
Ġpa go
Ġli mp
Ġcompro me
Ġtel Ã©f
y os
ĠHa cienda
Ġten ÃŃan
Ġprofes ionales
Ġci ta
i ares
Ġso y
ĠCiudad anos
Ġsos p
ĠInstitu to
Ġterri torio
r er
C E
Ġpel ÃŃculas
Ġsu st
ĠX X
ĠÃ ī
Ġlleg ada
Ġmo vil
Ġre ca
Ġmedi ante
Ġacab ar
Ġpa z
z ada
Ġbas tante
Ġide as
Ġnues tras
Ġser Ã¡n
a te
Ġconce j
ĠE m
ay a
Ġperiodi sta
Ġrecib ido
ar la
Ġrep ro
Ġh on
qu er
Ġvic epres
Ã¡c ter
Ġpresu puesto
Ġllev Ã³
ĠAn d
Ġcaden a
) ;
st er
Ġpre mio
Ġconoci do
Ġcom isiÃ³n
Ġocas iÃ³n
Ġimpues tos
Ġ ust
Ġalre dedor
Ġcumpl ir
Ġad mi
cul ar
Ġse par
Ġb atal
Ġcomen zÃ³
Ġexper im
ĠLe y
Ã³ p
Ġmejor ar
ens iÃ³n
Ġden uncia
Ġindust ri
Ġaut Ã³n
Ġcif ras
Ġam ar
Ġinten s
Ġata que
ĠF el
tien en
Ġr enta
Ġol vid
ica ciones
ĠM al
Ġ ras
Ġa gres
rib e
Ġh as
Ġcar Ã¡cter
Ġen tra
Ġpro hi
Ġprop uestas
ÃŃs imo
Ġpac to
Ġ9 0
Ġc ic
Ġand alu
Ġrecor tes
ĠAl f
ĠÃ¡ mbi
Ġdeclar aciÃ³n
Ġte mas
Ġsuper ior
Ġp s
Ġmar gen
que z
Ġqu erÃŃa
Ġe ta
Ġc e
Ġin tenciÃ³n
Ġglo bal
Ġpol Ã©m
Ġa us
ĠCent ro
Ġco ordin
ĠJ unta
Ġcer c
ĠMari ano
Ġvivien da
ri to
ec uencias
Ġpri or
il es
Ġpas e
Ġur ban
Ġg Ã©nero
ĠA na
Ġincor por
Ġhabi tual
br ar
Ġpres entar
ul l
at oria
Ġmem oria
Ġin telig
âĢ ĵ
it or
Ġcatal ana
Ġalum nos
Ã§ a
Ã© st
Ġperson aje
us os
Ġpro por
Ġgen eraciÃ³n
ĠGal icia
ÃŃ do
Ġrepu blic
C on
ra g
Ġsil en
Ġprop ios
ĠAl berto
ĠH ace
Ġesc ena
Ġcuar to
Ġhici eron
Ġdi bu
Ġcons ecuencias
Ġpodr ÃŃan
Ġac ce
id or
qu ÃŃa
at or
com o
Ġade lan
t ÃŃa
Ġsen cil
ĠcompaÃ± eros
Ġmo da
st e
C Ã³mo
t ales
iv in
in aciÃ³n
Ġin tro
Ġbien es
Ġprue bas
unda ciÃ³n
Ġex terior
Ġpo p
Ġinterven ciÃ³n
s es
Ġre ma
ĠPa ÃŃs
Ġpues tos
Ġprev isto
ĠP ala
le o
Ġacab Ã³
Ġactu aciÃ³n
Ġdeclara ciones
Ġllam ado
Ġjur ÃŃ
201 8
Ġde trÃ¡s
ĠP rim
Ġinfor m
Ġban co
Ġcompro miso
U n
ri eron
at orio
ec ciÃ³n
Ġde cÃŃa
Ġdeb ido
ĠG uerra
ci ar
Ġrecon oc
Ġdel ante
er se
Ġimportan cia
Ġrecon oce
de raciÃ³n
Ġem erg
Ġfamil iar
ĠTo dos
Ġmon e
Ġor g
Ġinf ra
ĠM ich
ti f
Ġin au
tr Ã³
ĠG a
1 5
Ġa v
it Ã³
Ġfra cas
Ġv amos
Ã¡t icas
ĠM es
Ġlugar es
Ġequi pos
o od
Ġde ri
Ġpid iÃ³
Ġcon oce
Ġcri tic
Ġop ciÃ³n
en se
Ġm ala
ĠMartÃŃn ez
g ran
r ad
Ġten ga
ific ar
Ġam igo
ĠR ec
Ġemple ados
bil i
it arios
ĠF is
w n
Ġap re
ĠO l
ĠRafa el
ad al
us k
Ġincl uye
ĠB el
Ġeurope o
Ġmunicip ales
Ġde sta
ĠS ÃŃ
Ġcar gos
Ġtr Ã¡fico
Ġdi v
t ida
Ġraz ones
Ġdef ens
Ġpeque Ã±os
Ġest oy
Ġesc uela
or ta
Ġsegu ro
Ġpron to
Ġal er
ca pa
Ġtra tar
Ġfin almente
Ġan o
ia ciÃ³n
it Ã©
an da
Ġd ue
Ġdeci dir
Ġprofes ional
os os
Ġcu Ã¡n
Ġde cre
Ġf estival
y as
Ġin con
Ġleg al
Ġllam ada
ĠP IB
Ġparlam ent
aj o
Ġde tec
Ġdel ito
Ġvolun tad
am ble
Ġno ta
ĠA z
Ġenerg ÃŃa
ri endo
p ado
um e
ĠSeg uridad
Ġpodr Ã¡
Ġre ivin
ĠlÃŃ deres
Ġofre cer
Ġesfuer zo
Ġade cu
Ġma es
br ado
Â ¡
j Ã©r
r ue
man os
tic amente
ri ente
Ġneg ro
Ġcar ta
h am
aliz ado
Ġ3 1
Ġb re
Ġo jos
Ġdis pu
bi o
du ca
Ġprote cciÃ³n
Ġay udas
ĠJ es
Ġ200 6
Ġcent en
p lic
Ġt es
Ġobs erv
ic es
Ġde stru
Ġreg ional
d ado
ĠRus ia
i bilidad
ĠP en
Ġsac ar
Ġ |
Ġnum eros
Ġconstru ir
Ġw ith
ĠD er
Ġlogr ar
Ġdistin tos
p es
A R
ul as
Ġo cul
Ġal ma
Ġn ar
ĠBr us
Ã©c tr
Ġa gen
ĠT ele
Ġgal le
Ġdef ender
ien en
Ġint entar
Ġcam pe
iv er
ĠG ra
tis f
Ġrit mo
Ġaf ron
Ġa ero
rib uy
Ġre tra
ĠCol om
Ġecon om
Ġesc ol
j era
ĠR om
tu ales
Ġt ren
Ġb ro
ĠInterna cional
Ġconsegu ido
ĠC amp
Ġf ras
ash ington
Ġexp lo
ĠSu pre
i pe
la ciones
Ġqu izÃ¡
Ġc ora
te les
Ġfamil iares
Ġdefien de
ĠS te
Ġin icio
ĠE ra
Ġsos tiene
Ġlar ga
Ġcor re
Ġa vis
Ġalcan zar
Ġrecup eraciÃ³n
Ġpo dido
Ġdi m
en cial
Ġpre ci
Ġpar que
Ġf as
olÃ³g ica
te ca
g Ã¼
tia go
c ol
Ġvivien das
ti eron
ĠS igue
ay o
Ġjust o
Ġdistin tas
ĠVen ez
at es
Ġdeci dido
Ġp ena
er an
Ġin gen
Ġrecuper ar
Ġter reno
Ġal ar
Ġjug ador
e or
Ġreci biÃ³
ĠBrus elas
E S
Ġdocum ento
Ġiden tific
ar di
Ġro de
i era
ĠD os
Ġpelig ros
le y
Ġw h
Ġb ra
Ġpre mi
ĠDi pu
Ġtecn ologÃŃa
Ġpreten de
Ġpresent Ã³
ĠA u
Ġafir mÃ³
di z
Ġimp on
eci nos
Ġcol or
rist as
Ġv es
Ġtrabaj os
Ġrefle x
Ġrefor mas
Ġp ul
ĠW ashington
ab el
tien de
A S
Ġfies ta
Ġesp ec
c la
Ġan Ã¡lisis
Ġinf lu
Ġd Ã³nde
ĠprÃ¡c tica
p h
Ġp ide
Ġrealiz ar
Ġcas as
ĠH u
Ġprogra mas
ĠC ru
Ġsim ilar
tar ÃŃa
Ġespeci e
Ġvel oci
Ġsal v
Ġblo que
Ã³r m
ĠcompaÃ± ÃŃas
Ġdipu tados
r ÃŃa
Ġdirig entes
Ġgas tos
Ġdes en
ĠF undaciÃ³n
jÃ©r cito
Ġincl uy
ĠS il
0 6
Ġ3 00
Ġperiodi stas
n idad
Ġpor cent
h t
Ġqued ado
ĠE r
ci dos
de d
Ġproduc to
Ġfu tbol
Ġur b
Ġreco g
Ġmo tivo
ĠSu per
Ġextra ordin
Ġesper ar
ĠVenez uela
Ġespa cios
res a
f in
en os
ĠcrÃŃt icas
Ġpuer tas
Ġblan co
te d
Ġd ro
Ġexcl us
Ã©nd um
Ġelec tr
Ġv io
c tor
ĠP at
Ġd or
v el
ĠEcon omÃŃa
ĠSan tiago
mple o
Ġre ducciÃ³n
ĠAt l
Ġmag ist
Ġpopular es
ĠM il
Ġb eb
s an
ĠE TA
ues tra
ĠV ecinos
Ġf en
Ġdifer ente
Ġf an
ĠvÃŃ deo
ac k
Ġen ter
Ġconsecu encia
um en
l las
Ġin mo
Ġe duca
Ġcolec tivo
ĠJ un
Ġvia jes
Ġis la
Ġdirec to
Ġpri ma
ulta des
Ġtradi cional
Ġpresiden cia
te dr
Ġcontra tos
Ġan teriores
ĠEn rique
Ġimp lic
Ġmiem bro
Ġre baj
Ġar mas
is h
Ġamena za
ed ores
ues to
on da
Ġdist ribu
ci da
Ġvol viÃ³
Ġrefer Ã©ndum
ra mos
Ġdirec tamente
Ġcircun st
Ġinf an
Ġr ue
Ġllev ado
an zas
Ġhum an
Ġdipu tado
p Ã³
Ġcar re
ie dad
d idos
Ġdel itos
Ġt asa
on do
Ġpre fer
Ġiden tidad
ĠB or
Ġal quil
Ġm ent
Ġam bas
ific ado
Ġan al
Ġint ent
Ġs es
Ġabog ado
Ġse lec
z aron
ĠPol icÃŃa
i for
Ġdest ino
Ġpres enta
Ġlogr Ã³
Ġex pe
Ġlogr ado
4 0
ig ual
Ġmater ia
f as
l var
Ġconv irtiÃ³
ĠDi rec
ĠPo pular
ĠD u
Ġcent r
Ġcom ida
Ġbenefici os
Ġambi ente
d on
e tas
Ġobje tivos
aliz a
ĠespaÃ±ol as
e ga
Ġbal Ã³n
Ġfre cu
ur al
iz ada
Ġg ig
Ġa vent
Ġpro gres
f ÃŃa
1 8
ĠE mp
Ġfundam ental
Ġcomp rar
s u
ĠBar Ã§a
ad i
Ġsec tores
Ġd ur
Ġplan es
Ġb ru
Ġpriv ado
- ,
dr ÃŃa
Ġllev an
ĠT ur
cion a
ĠAn tes
s en
Ġb ras
V A
Ã³m ez
Ġlen gu
ĠPa tio
Ġencon tra
Ġocur re
Ġcora zÃ³n
Ġsu fr
Ġgan Ã³
Ġmul ti
Ġpelig ro
Ġaplica ciÃ³n
k er
Ġtan tos
Ġ za
ĠE R
ca te
Ġempez ar
Ġw as
Ġsindica tos
e la
Ġv entas
Ġexplic ar
em en
ĠPu ig
ĠGu ardia
Ġsu ma
Ġayud ar
ari al
ĠL le
Ġap os
Ġnoti cia
Ġcons ol
ĠespectÃ¡ culo
Ġd udas
Ġprotagon ista
e dades
ĠA so
ro m
Ġdi Ã¡logo
reg ular
Ġinstitu ciÃ³n
pi raciÃ³n
ĠJor ge
Ġde c
mi tir
ĠD a
ĠDÃŃa z
ĠÃģ lvar
Ġar m
Ġact riz
oles c
ĠJ e
Ġmateri al
Ġdirector a
Ġqued an
ti stas
Ġobst ante
Ã³n ico
Ġen v
Ġcier re
Ġb y
Ġfinanci era
Ġescu ch
Ã©n dose
ĠSupre mo
Cu ando
ĠSo bre
vi era
Ġel Ã©ctr
Ġin no
ĠC ab
Ġeta pa
Ġcu esti
Ġmu seo
Ġac tores
Ġcele bra
Ġap uesta
Ġencuent ran
ue las
Ġvin cul
ĠRe p
Ġentren ador
Ġsue le
us iones
Ġveloci dad
Ġrespe to
Ġpartici par
Ġemp ren
Ġex cep
I S
Ġestudi antes
Ġrepresent antes
ul ado
Ġbatal la
Ġpie zas
k s
iv e
Ġfis cales
ĠÃ¡ r
Ġsex ual
or Ã¡n
Ġcatal anes
Ġh is
Ġposi bles
ĠH ar
Ġres olver
Ġsa tisf
ĠmÃŃn imo
Ġrev ista
du ce
Ġre tras
ĠhistÃ³r ico
Ġad jud
Ġsens aciÃ³n
ĠS ch
ĠtelÃ©f ono
Ġcier ta
Ġt rim
Ġinici al
Ġpregun tas
iz Ã¡s
Ġcompe ti
ad Ã¡
Ġgan ado
Ġvis iÃ³n
Ġcri ter
t ri
Ġfue go
Ã³lo go
Ġ4 5
Ġven der
ĠT a
Ġaero p
on t
Ġvuel ve
Ġinvesti ga
ĠT ran
Ġho gar
ĠC Ã¡mara
Ġnego cios
Ġhacer se
ci mientos
u se
Ġcambi ado
ĠC ada
ĠJ am
Ġpoc as
ĠColom bia
Ġf ren
Ġm ig
Ġde p
ĠB ro
Ġust ed
ĠP ese
ĠIn terior
Ġdol or
ĠS oci
ĠV ill
ĠM at
Ġrelig ios
ar ca
Ġf Ã³rm
Ġre gu
Ġ bil
1 4
Ġescri bir
Ġv ari
Ġresp al
ĠmÃ© dico
vers aciÃ³n
Ġespect adores
Ġempres arios
ĠJo an
Ġmilitar es
ĠMan cera
Ġj a
Ġir regular
Ġcolabor aciÃ³n
Ġital iano
Ġnego ciaciÃ³n
amble a
V E
ill os
ĠG Ã³mez
ĠP lan
Ġtran quil
an g
Y o
Ġentre ga
Ġin dica
Ġcan tante
Ġale mÃ¡n
Ġfen Ã³m
ÃŃt ica
ĠpÃ¡g inas
Ġcon for
Ġti pos
ĠIgles ias
Ġinvers iones
Ġg estion
ter os
Ġer ror
2 5
i ales
Ġaso ciaciÃ³n
D E
Ġsilen cio
ber g
la ter
Ġesc as
Ġ5 00
Ġrev el
Ġl ic
ĠZa pa
Ġliter atura
f es
Ġte m
Ġpriv ada
d Ã³n
ĠS en
Ġusu arios
Ġbras ile
Ġhum ano
i ento
qu ina
ĠT om
Ġv ul
ĠB uen
N V
p ir
n i
Ġli dera
ĠaÃ±ad iÃ³
Ġmis mas
Ġop eraciones
tur ales
ĠM c
Ġr os
ĠT u
Ġdes pa
Ġtrans porte
Ġg ana
Ġsi tio
Ġfinanci ero
Ġinfra estruc
Ġef ica
Ġes con
T o
Ġhab ido
Ġprovin cia
ĠtÃ©rmin os
Ġex hi
Ġent en
Ġest ren
Ġhi po
ien cias
Ġc rist
Ġnatural eza
Ġcandid atos
Ġme tro
Ġconvertir se
Ġmar co
ĠAudi encia
jer ÃŃa
ĠPS C
Ġad ver
ĠcrÃ©di to
Ġantigu o
Ġdest in
ĠMu seo
ĠValenci ana
Ġf ase
Ã³ st
Ġmill Ã³n
ĠFis cal
Ġmus ical
Ġcompe tencia
ti za
v in
Ġad olesc
ĠT ampoco
l ÃŃn
Ġcondi ciÃ³n
Ġpublic ado
lan d
Ġen can
er e
c r
Ġesc al
Ġnorm al
Ġcor rec
man es
Ġconoci miento
Ġsal e
Ġexist encia
Ġt ribunal
Ġfuncion arios
Ġposi bilidades
Ġinmig rantes
Ġar ch
am e
ĠJor di
Ġsal iÃ³
Ġpe dido
Ġnivel es
ĠRep Ãºblica
Ġviv en
Ġfor mas
c Ã©
Ġaz ul
Ġestre lla
ĠN ic
Ġca tedr
pi ra
Ġmar c
Ġconside ran
Ġman e
Ġtra y
men es
Ġfun da
es tre
Ġ19 5
ĠD o
Ġbuen os
Ġgener ales
ĠÃģ frica
Ġb on
Ġap er
Ġpe ticiÃ³n
Ġer r
Ġdeclar Ã³
Ġar gent
ĠÃ¡mbi to
Ġcon curso
Ġre to
Ġexp or
Ġtrad u
ĠAlgun os
n ia
Ġexist en
entar ia
b ras
Ġdesa f
Ġestruc tura
Ġcer rar
Ġau tores
Ġam eric
Ġtrans par
Ġd uro
Ġt on
Ġpresent ado
vis iones
Ġdi ver
ĠR iv
Ġdific ultades
Ġvuel to
Ġprodu ce
Ġcons ulta
Ġten dencia
Ġal tura
Ġdes igual
ĠB u
z z
Ġe quil
Ġimp lica
p ero
Ġu b
ĠseÃ±al Ã³
ĠvÃŃcti ma
Ġle er
Ġsol a
Ġabier ta
Ġint ento
ĠA p
Ġca teg
Ġfo tos
ĠcrÃŃt ica
Ġnom bres
Ġher mano
Ġre y
Ġdesta ca
Ġenferme dad
Ġesp osa
Ã¡n dal
Ġacuer dos
Ġhay an
ari ciÃ³n
ba o
ĠB ern
r Ã¡
ĠM ac
es per
ĠJes Ãºs
Ġexpres idente
Ġcont ribu
el la
Ġdi pl
Ġqui ero
cl uso
ĠEs paÃ±ol
jer on
Ġprof un
Ġfe deral
u ta
Ġinmo bili
A N
i anos
ĠlÃŃn eas
Ġcan ciones
Ġmanda to
Ġac os
Ġco cina
ac er
de os
Ġ ul
Ġhum or
Ġan ual
Ġco op
Ġres erv
Ġcon cierto
ĠF o
Ġresta urante
Ġsosp ech
l ie
Ġcos ta
mit es
all er
Ġquer emos
Ġorganiz aciones
ti les
ven ciÃ³n
Ġre almente
Ġb ril
Ġpresent aciÃ³n
4 5
ĠprÃ³xi ma
Ġcomp r
to do
ĠJos ep
Ġley es
u f
Ġcon tes
Ġag encia
Ġpron unci
om os
1 3
ĠbritÃ¡n ico
Ġv ino
Ġsur g
Ġpar ecÃŃa
ĠeconÃ³m icos
Ġin e
Ġ3 6
Ġplata forma
Ġdise Ã±o
Ġcomp orta
an ce
Ġ200 5
Ġtra ma
Ġep iso
ĠGre cia
Ġco al
Ġconv iv
Ġpobre za
ĠE ducaciÃ³n
ĠD omin
ĠFel ipe
Ġun idad
Ġmil it
ier an
ir ÃŃa
ĠprÃ¡c ticamente
ĠpÃ©r dida
ĠM Ã¡
ĠperiÃ³ dico
ĠB os
Ġen f
t Ã¡
Ġre por
Ġlocal idad
Ġdist ancia
at ar
Ġlen gua
v era
an e
ĠN os
Ġri val
Ġe ch
cri p
in t
Ġac tivos
Ġcap ÃŃt
Ġsu ces
Ġtom a
ĠEst os
m ir
Ġdesarrol l
Ġelec ciÃ³n
Ġv oy
Ġpue do
Ġden omin
ĠEurope o
Ġconcep to
Ġpar ecen
Ġar ras
Ġde bajo
Ġex cel
Ġdis cre
g es
m ina
Ġsab en
1 6
ĠL or
Ġdig ital
ĠP NV
l lo
ĠDe f
Ġac titud
ĠC ultura
Ġdi ri
la ga
Ġinf l
Ġc Ã³
Ġexpres iÃ³n
ri tu
ĠAso ciaciÃ³n
r ente
Ġpro l
I C
Ġsoci os
Ġac ord
Ġmar ido
t ador
Ġperf il
Ġelem entos
ue gos
Ġev idente
n or
ĠPor tu
Ġpos terior
Ġa re
Ġper ci
Ġre bo
Ġna ciÃ³
ol ina
Ġcor to
Ġempres ario
ed or
Ġrad io
ru po
Ġlle gan
Ġafec tados
Ġres oluciÃ³n
Ġh al
Ġl Ã³g
Ġfac tura
Ġmo tivos
Ġsue Ã±o
ĠSe bas
Ġco ches
ĠS ur
Ġres cate
Ġe t
Ġhom en
as co
ĠeconÃ³m icas
Ġalterna tiva
Ġorgan ismo
Ġconte xto
le ta
Ġconten ido
ten a
ter rÃ¡n
Ġtrabaj ando
Ġcolec ciÃ³n
uc le
Ġ3 2
ĠB re
ĠTran s
ĠF a
Ġmuer tos
ĠZapa tero
Ġtrabaj a
Ġor i
Ġllegar on
Ġg uer
ĠâĢľ Â¿
ti mo
Ġac re
s as
Ġfab ric
Ġps ic
ĠrÃ¡p ido
Ġpen al
Ġinte lec
Ġsus pen
Ãºs que
Ġcl ara
Ġrealiz ado
Ġnorte americ
Ġapar ece
i entes
Ġf ich
Ġrecord ar
Ġpropie dad
Ġar re
Ġac tos
ter s
Ġpa is
Ġha ga
Ġpodr Ã¡n
ĠJ ul
onal d
Ġmej ora
Ġanim ales
iv amente
ĠR ed
ĠAl lÃŃ
Ġemp ieza
Ġmanif ies
Ġcas ti
ton ces
Ġlan z
Ġest arÃ¡
Ã©r pre
Ġev oluciÃ³n
Ġcom ent
Ġpl ena
Ġconse jo
Ġh arÃ¡
Ġmir ada
Ġfron tera
ala ciones
Ġtu rismo
ĠSebas ti
T en
Ġor o
Ġir re
Ġindepen diente
ti ble
Ġmec an
f Ã©
Ġt ab
c aba
Ġfun ciones
Ġcer e
ĠG as
ĠBil bao
Ġb Ãºsque
Ġrecor rido
ĠCi U
Ġap la
ĠCo pa
Ġdetal les
ÃŃ p
Ġre quier
Ġ Ã¡n
Ġdes f
Ġbuen as
Ġaum entar
Ġp ilo
Ġeurope as
on ÃŃa
Ġal tos
Ġpas ando
ec re
Ġabsolu ta
1 7
Ġcomp ren
Ġesc Ã¡ndal
Ġren unci
2 2
ĠG obiernos
Ġclas es
Ġatra c
uev e
or o
ĠCos ta
k el
Ġsoci edades
ente mente
ĠE usk
Ġveh ÃŃculos
un o
ĠmÃ© dicos
Ġcir cu
Ġtrad iciÃ³n
ĠS erg
Ġinstitu cional
Ġma gn
st o
ĠseÃ± or
Ġ3 3
itu d
Ġinvers ores
Ġac lar
ĠP an
Ġrela to
Ġrecur so
Ġesper anza
qu ie
Ġil ust
Ġab or
Ġcre en
Ġedifici os
ĠtÃŃt ulos
Ġsom e
Ġsu bir
ba tir
Ġc Ã¡mara
Ġf ar
i ti
Ġimpues to
it ados
re mos
Ġg a
Ġplan ta
ĠConstitu cional
Ġa go
ari amente
Ġpat rimonio
ier no
Ġpers pec
Ġsuper ar
Ġcli ente
Ġin com
ent en
Ġv ar
Ġg oles
ĠS h
Ġvas co
Ġgra b
Ġin fer
Ġcontac to
Ġab ord
Ġcontemp orÃ¡n
Ġcuesti ones
U na
cier tos
Ġestadouniden ses
Ġra ÃŃ
ĠMe di
Ġconcej al
Ġorig inal
Ġhistor ias
Ġdes per
P ero
Ġj am
Ġobten er
Ġorg ul
Ġtrata miento
Ġprop ias
Ã± ado
Ġres iden
ĠM en
w e
Ġc Ã¡n
Ġde cenas
ĠH ern
Ġresp ec
Ã¡ bamos
Ġjue ces
Ġn av
Ġmovi mientos
Ġanunci ado
Ġresta ur
o j
Ġanti gua
Ãº an
Ġcre ado
Ġaf i
v ante
ir re
Ġ200 4
il io
Ġaus encia
Ġjuz gado
ĠLe Ã³n
Ġcan ciÃ³n
Ġmuer to
Ġqu iso
Ġmunicip io
Ġcu esta
Ġofici ales
ic ante
ĠCrist ina
ĠJ im
Ġpantal la
je ta
b es
de ras
z go
ĠF al
Ġsab emos
ÃŃf ico
pues tas
ĠpolÃ©m ica
ĠO tro
Ġasegur an
Ġincre mento
Ġest im
Ġfoto graf
o z
Ġo tor
Ġpues ta
ĠÃī l
ĠS am
ĠB ur
t idos
Ġte x
ĠH um
Ġaut Ã©n
ne y
ĠA f
Ġprodu jo
Ġof rec
Ġcomer cio
Ġadminist raciÃ³n
Ġdes can
Ġprotes ta
Ġa st
Ġpresu pues
ĠLat ina
k ing
Ġvo tar
Ġreconoci miento
tor ios
Ġtendr Ã¡n
id ado
Ġp rac
Ġ4 00
ĠNor te
Ġha ve
Ġpro ducir
Ġpol ic
Ġve in
ĠM ay
ĠI U
Ġt us
un cio
Ġprobable mente
Ġten gan
Ġfir m
Ġj untos
Ġna cionales
w s
Ġt ribun
Ġa bre
Ġfor mar
Ġtrim estre
ĠAn te
ĠpÃ¡g ina
0 9
k y
om bi
g ro
in c
in i
Ġr ÃŃo
Ġac cidente
Ġca u
Ġalcal desa
Ġa j
ĠFu entes
Ġporcent aje
Ġcomun ic
Ġac el
Ġcoleg io
i ores
Ġs it
ĠSal ud
ĠIg na
Ġactu ales
Ġg er
ÃŃ es
Ġ201 8
ĠB us
Ġre vis
il ares
Ġnoti cias
Ġgen era
Ġca er
ĠtÃ©cn ica
um bre
Ġ19 3
ĠmÃ¡xi ma
Ġconst ante
Ġvig il
ĠB as
Ġcomp on
Ġc iencia
Ġgaran tizar
Ġab st
Ġafec ta
w ood
Ġcoal iciÃ³n
Ġasp ir
Ġin cen
ĠMes si
Ġplan eta
0 5
ĠCru z
Ġfun dad
ĠfenÃ³m eno
ra mi
Ġinst alaciones
Ġdocum ental
Ġactu ar
Ġutil izar
ĠG ol
Ġdra ma
k et
it ada
fici entes
Ġcos tes
Ġpro ducido
i res
ĠbÃºsque da
Ġmat rimonio
Ġso cio
tu des
Ġd ando
ĠG ab
Ġalgun o
Ġtu vieron
Ġt ribu
ĠX unta
l en
Ġa tre
ĠBlan ca
Ġhomen aje
ĠCh ile
Ġas untos
Ġex ces
Ġpro cl
Ġextran jeros
Ġpart ida
Ġsir ve
Ġop ciones
c ero
Ġva ca
Ġesp al
Ġm ic
Ġrev oluciÃ³n
Ġrefug iados
Ġesp ÃŃ
ĠSan t
ĠAl onso
Ġacer ca
ĠDan iel
Ġh el
b ido
Ġneces idades
Ġcul pa
Ġper diÃ³
bi endo
Ġocur rido
Ġeleg ir
Ġdeten ido
Ġcandid atura
Ġde partamento
Ġin c
Ã¡f ica
Ġmad ru
Ġinvestig adores
ĠCas tell
Ġin quie
Ã± ar
Ġro pa
s ion
es o
ĠC ap
Ġescu char
ĠIgles ia
Ġtien das
Ġher manos
ĠEn tonces
ĠAn dr
ĠIgna cio
Ġop tim
Ġconv ierte
ĠM ur
Ġcam is
ÃŃs ima
v ill
Ġconstitu cional
Ġvicepres idente
ĠG i
Ġn u
Ġsub ida
Ġpas os
% )
ĠE jÃ©rcito
Ġdifer encias
Ġpre f
Ġadminist ra
e e
Ġcomple to
te o
ĠG er
dem ia
p les
Ġfrances a
Ġdeb ÃŃa
ech os
Ġher rami
ĠA ust
ĠCan al
Ġintens idad
Ġeleg ido
Ġre bel
Ġpeque Ã±as
ĠEst Ã¡
Ġreci Ã©n
Ġcre cer
Ġmexic ano
tiz aciÃ³n
ti ma
Ġciudad anÃŃa
ĠH an
Ġza pa
Ġf emen
Ġcu estion
Ġpe le
ĠW ill
Ġconta min
ĠCu ba
Ġd ia
c ambi
Ġsan gre
Ġcu entan
Ġres tr
ĠS pa
ĠPortu gal
I n
Ġdis cu
G T
Ġigual dad
xim as
Ġen em
Ġcons ist
ĠO tra
ac ciÃ³n
Ġf le
Ġan uncio
ĠV an
Ġt ama
Ġas oci
ĠCent ral
ĠM el
Ġsobre viv
Ġpart id
ĠacompaÃ± ado
uel ta
u os
ĠA ma
Ġllev aba
ĠIn cluso
ĠAtl Ã©tico
ĠG eor
' '
ĠF ab
ĠMÃ¡ laga
Ġesta bilidad
Ġpla ya
ĠtÃ©cn icos
ĠT al
ĠTor res
Ġdi eron
Ġhuel ga
Ġarri ba
Ġobje to
Ġfras e
ĠFiscal ÃŃa
Ġaper tura
olog ÃŃas
Ġre in
es ÃŃa
bier to
Ġf rom
M I
Ġplan tilla
ĠL uego
Ġg ira
ĠMe dio
Ġtal ento
at as
Ġre ve
Ġa di
Ġem is
ten cias
Ġpar ecer
Ġex ac
Ġpolici al
Ġescri biÃ³
ris a
Ġri g
Ġrela cion
Ġimp ro
Ġcele b
Ġsab ÃŃa
ĠR eg
Ġrepresent aciÃ³n
y en
Ġcon versaciÃ³n
ĠC Ã¡
ci en
ĠAl icante
Ġemp e
Ġconcre to
Ġab riÃ³
Ġin cu
Ġcomple jo
Ġ &
ĠD is
Ġcu an
Ġdepor te
Ġcom pa
Ġf icciÃ³n
ar te
Ġnego ciaciones
Ġpolic ÃŃas
ĠP i
Ġ200 3
Ġas i
Ġc Ã¡l
Ġsuel en
Ġgra ves
am o
ĠA quÃŃ
t Ã©g
Ġrespon de
O N
Ġexig e
Ġm ara
cin di
Ġcon cur
Ġpres tig
f t
Ġcontin Ãºa
ri go
Ġt ono
Ġre per
Ġocur riÃ³
Ġn ucle
ien da
Ġp ista
os as
Ã± ez
Ġalquil er
Ġsuper fici
am ento
Ġcaus as
Ġdes em
Ġrecord Ã³
atur as
Ġacep tar
Ġad mite
Ġtele vis
Ġries gos
Ġcircunst ancias
Ġc aja
Ġt um
oso tros
ĠO c
ĠIs rael
Ġestre llas
Ġop era
Ġro ck
Ġdocum entos
Ġcu ad
U P
Ġquer ido
Ġaut om
Ġaerop uerto
Ġfu ente
Ġinau gur
Ġmor al
Ġpa cientes
Ġencontr ado
Ġdefini tiva
Ġprofes ores
Ġb ec
el es
Ġexp ecta
Ġli der
Ġcapa ces
Ġdisfru tar
Ġcu ales
der os
Ġindustri al
Ġderro ta
Ġins pir
Ġtien da
Ġv aya
Ġterror ismo
Ġdecre to
Ġre da
b ul
Ġsitu aciones
Ġf lu
ĠA st
ĠI I
Ġdescon oci
Ġlegisla tura
Ġmostr Ã³
el os
Ġsiste mas
Ġc Ã¡
Ġnor mas
ĠfÃ³rm ula
ĠespÃŃ ritu
Ġni Ã±a
Ġasum ir
ap Ã³n
ĠCas tro
Ġocu p
ĠT im
A C
ill er
Ġasp ectos
Ġtu ristas
Ġpie za
d ados
Ġsi mp
u re
Ġ3 4
O S
Ġenc ab
r eras
ĠJam es
Ã³s ito
Ġes co
0 7
Ġdesarrol lar
Ġcu mple
Ġ +
Ġpoten cial
Ġinflu encia
aliz ada
y n
p ora
ĠlÃŃ mite
Ġrefle ja
Ġconsig uiÃ³
/ /
osi ciones
Ġconcl uye
Ġactu aciones
ific Ã³
h ol
tro l
Ġsi ente
oy a
Ġprev Ã©
Ġprotagon istas
Ġsufr ido
ta ban
Ġtriun fo
ĠI r
Ġrecuer do
ad Ã©m
Ġsorp resa
Ġpre ce
Ġh ol
iz Ã³
Ġbenefici o
un ya
Ġfuncion a
Ġcom et
h ora
Ġel e
Ġg rado
Ġban c
Ġfan tas
: //
ĠRiv era
Ġsegu ra
Ġsal vo
Ġacce der
Ġco cin
Ġla ment
ĠSebasti Ã¡n
ĠEst as
gr ÃŃa
me tro
Ġh ar
bier on
ĠCons ell
ĠA gencia
Ġexp an
n ar
Ġileg al
ig u
am Ã©rica
Ġcom enta
ue los
Ġpo bres
Ġem baj
ĠSi ria
mÃ³ cra
Ġcol ombi
Ġe c
Ġoportun idades
Ġcon ciertos
Ġpens iones
Ġten siÃ³n
Ġin ci
Ġt as
Ġfor tal
ĠCar men
Ġs esiÃ³n
Ġh am
Ġdes eo
ic ales
Ġdesp laz
Ġmadru gada
Ġa is
Ġexp los
ĠTe atro
D es
Ġagen da
ĠRu iz
Ġpor tu
Ġreno v
ĠH ist
Ġmens ajes
ur an
Ġt rist
ĠC er
b en
ar le
ĠEusk adi
2 1
ril lo
Ġag re
Ġru m
Ġin capa
Ġargu mento
Ġcont ribuy
Ġasegur ado
Ġcar tel
Ġasp ecto
Ġacus ado
me di
Ġgra tu
ĠV ÃŃ
Ġprof und
Ġtendr ÃŃa
ĠT anto
Ġser io
Ã©n ez
Ġata ques
Ġ3 7
Ã¡ z
y s
bl os
ĠIs abel
Ġtan tas
Ġ7 5
ent ados
i k
Ġmen udo
Ġreci be
Ġdeber ÃŃan
Ġli mi
Ġrecha zo
Ġ3 8
Ġrespon der
t ing
bi os
Ã©c ord
Ġmunicip ios
Ġtar ea
ĠCatal unya
Ġdic tad
til lo
ara to
Ġacer c
Ġdis min
Ġvo tantes
Ġcomplic ado
Ġelector ales
Ġp iel
ĠX V
Ġcar ga
Ġases in
gra ciÃ³n
ĠF lor
Ġagra de
Ġp iso
Ġproces os
ĠOr gan
ez ol
Ġac adÃ©m
Ġfoto grafÃŃa
sa ciones
v ido
Ġerr ores
Ġtien es
Ġ2 000
Ġci entos
Ġmode los
Ġgu ard
ion ado
ul tad
og le
Ġll en
b la
Ġru ta
Ġve ter
Ġad ul
Ġsecre to
Ġlu jo
Ġme ta
Ġc ens
ĠDipu taciÃ³n
Ġlengu aje
Ġse t
pe cial
Ġfel iz
Ġcual quiera
Ġin just
Ġ15 0
c at
Ġpremi os
tr al
Ġdirec ta
Ġreg ular
w a
ĠnÃºm eros
Ġprotes tas
ay s
Ġlec tura
Ã¡z quez
Ġvent aja
vi leg
Ġev alu
Ġciudad ano
g ando
Ġtama Ã±o
Ġj ard
Ġpla zas
ĠBer lÃŃn
Ġtriun f
Ġceleb raciÃ³n
Ġpuer to
A n
or ÃŃas
ĠD ios
and ro
ÃŃst icos
Ġpres id
Ġvie jo
Ġqued ar
Ġver de
0 8
Ġpri va
Ġdepen de
Ġpropon e
ri sta
Ġv ide
ch i
Ġadv ierte
Ġven ezol
Ġb oca
ĠhistÃ³r ica
Ġneces aria
v as
bl io
0 4
ĠS ar
Ġreconoc er
Ġt aller
ci c
b Ã³
gar on
Ġdiri ge
ĠL es
Ġins pec
Ġmi ra
ĠD on
m Ã¡s
Ġfuer tes
Ġpres os
ĠPa ul
Ġextran jero
Ġpien sa
Ġcuadr ados
Ġdipl om
s al
ĠV ia
Ġsan idad
ĠON U
Ġr Ã©cord
Ġconcl uy
Ġcam p
2 3
ĠQ ui
in ta
ĠS ab
Ġcomer ciales
Ġmodi fic
m Ã¡tico
ic ciones
Ġfiscal ÃŃa
Ġorig in
Ġdivers os
Ġdisp osiciÃ³n
Ġprac tic
ide z
Ġ19 4
Ġun iversidad
n al
t Ã©
Ã¡ rez
Ġac u
Ġpre vi
th er
Ġin g
ĠG rupo
Ġenc uestas
Ġins piraciÃ³n
Ġsegu idores
Ġsec und
ĠBan k
Ġar tes
Ġvol umen
Ġperf ec
Ġh tt
ĠclÃ¡s ico
ran o
Ġningun o
ib rio
ĠC re
Ġtan ta
ĠM ario
ĠCas tilla
Ġcons enso
Ġreciente mente
ĠB la
v ez
ĠS erv
ol er
Ġfuncion amiento
f Ã³nica
Ġre t
Ġti ro
Ġdes as
Ġpri vileg
Ġin vi
ĠMu chos
olÃ³g icos
Ġcrim en
Ġfra ude
Ġemp u
Ġhon or
Ġgu ion
Ġfran qu
ĠRam Ã³n
2 4
ĠM ir
Ġpue des
ĠA ra
l Ã³
ĠSal v
Ġconci encia
ci eron
Ġsu yo
Ġagu as
Ġauto b
ĠK a
ĠV asco
Ġd aba
ĠAle x
Ġp ala
Ġl lu
ĠF estival
Ġderi v
tu almente
Ġconden a
Ġrepar to
j Ã³n
Ġa val
Ġapren der
ĠFran co
Ġmostr ar
g ip
se gu
ar re
ta mos
Ġfracas o
Ġases ina
Ġestable cer
ĠV illa
Ġjue ga
ĠN ie
ri miento
trÃ³ leo
Ġcab al
Ġo ch
Ġargent ino
mar as
Ġlo c
Ġno t
t z
Ġreco ge
Ġdirig ente
P ara
Ġencontr Ã³
me j
Ġn arra
Ġc Ãº
Ġav iÃ³n
d ro
ĠE du
ĠtÃ©rmin o
Ġdemocr Ã¡tica
di go
Ġactu almente
Ġre ducido
ĠprÃ³ ximas
Ġvalenci ano
ĠGo ogle
Ġmu riÃ³
Ġacos tum
Ġs ÃŃn
id amente
Ġcom itÃ©
Ġraz on
Ġperman ente
tÃ³ graf
or e
Ġafron tar
Ġi ban
qu en
ĠlÃŃ mites
Ġsom et
Ġesper an
Ġv ÃŃas
Ġsegu ido
ios o
c ro
ĠT iene
ĠF uer
Ġpreocu paciÃ³n
qu ia
Ġid i
ĠT ri
Ġpublic Ã³
tor ias
Ġestra tÃ©g
Ġcu m
Ġinfor mes
ĠprÃ¡c ticas
s in
Ġaquel lo
m Ã¡tica
Ġrec al
Ġsuce de
ĠI mp
Ġban ca
x o
Ġinfan til
Ġop in
Ġjam Ã¡s
Ġdesc enso
Ġdes ap
br al
v ic
Ġen tiende
Ġtr Ã¡
Ġvoc es
Ġre ce
N os
ues tro
Ġsimple mente
ĠEspaÃ±ol a
Ġinter cambi
ĠUn ivers
Ġpresu puestos
Ġmar cas
Ġmar ch
Ġconver saciones
g ica
Ġest atal
Ġsus p
Ġre tro
us ieron
Ġdeleg ado
Ġpubl icidad
g ia
Ġdel an
ĠI ra
Ġestad io
p ia
ĠJ apÃ³n
Ġgener ar
P S
Ġimpres cindi
olu cion
ĠsÃŃ m
Ġcas tell
Ġminu to
Ġpel o
Ġpa gos
ci les
ĠIn t
Ġre a
M i
Ġig nor
Ġcon ex
mpli miento
Ġtribun ales
Ġten iendo
Ġabandon ar
Ġcontro lar
ĠDomin go
cis mo
Ġmues tran
Ġtemp er
Ġtrabaj an
Ġgu ar
Ġaplic ar
Ġminist erio
Ġest aciÃ³n
u mi
m un
Ġex ter
Ġverda dera
Ġautor idad
ĠAle j
ĠÃģngel es
Ġperson ales
Ġfunda ciÃ³n
Ġte a
f icaciÃ³n
Ġnego ci
ha bil
2 6
ier en
ded ores
pues tamente
Ġp ec
tion al
Ã¡m ica
Ġen ga
Ġse m
im as
e mp
Ġcontr ad
Ġig les
Ġpapel es
Ġla tino
Ġrebo tes
a el
Ġpo d
Ġ4 8
ĠAgu irre
Ġsolu ciones
Ġintelig encia
Ġneces itan
l ine
Ġas om
Ġproy ec
Ġto car
Ġpe trÃ³leo
Ġrepresent ante
ĠAm bi
ĠDe partamento
Ġtray ec
Ġv idas
ĠR oma
Ġpue blos
Ġsober an
Ġimp e
ru m
Ġdivers as
Ġpro mes
Ġalcan ce
Ġm ol
Ġfac tor
Ġpreocu pa
Ġpan or
tr on
d s
Ġinteres ante
Ġcivil es
ĠS iempre
Ġconoci da
ĠbritÃ¡n ica
Ġprim arias
Ġsal ido
Ġocu pa
Ġres id
Ġaquel las
ĠV iv
Ġpen diente
Ġ Ã³p
Ġin teg
ĠcompaÃ± ero
Ġdis puesto
Ġf ol
Ġan uales
Ġases or
ĠfÃ¡ br
ĠS im
Ġcer rado
2 8
ĠÃ¡ l
Ã© ro
Ġas ign
Ġtesti mon
Ġalim entos
Ġperio d
Ġcompar tir
ĠR ic
ĠSen ado
Ġdeci s
Ġasesina to
i am
ĠIn f
ĠÃ¡ ra
ĠC reo
Ġest Ã©n
Ġ6 5
y endo
j ada
Ġsent ir
d is
Ġestudi ar
Ġconvoc atoria
iz ados
Ġri v
Ġmez cla
Ġvaca ciones
Ġent us
Ġll eno
Ġcic lo
u ma
Ġhos p
Ġges to
Ġb os
Ġcomporta miento
ĠN adal
2 7
g ano
Ġdar le
Ġviv ido
Ġins iste
Ġargu ment
Ġvig or
an ta
Ġpar al
Ġvo taciÃ³n
Ġac onte
Ġda Ã±o
Ġcarre tera
l le
Ġqu izÃ¡s
m u
it arias
Ġimp ul
p p
Ġcomp ens
Ġaprob Ã³
Ġrequier e
z ando
Ġcu yos
Ġsex o
Ġcon qu
Ġparlament ario
Ġveci no
ĠAs amblea
Ã¨ n
Ġproteg er
Ġcons ciente
ĠX I
Ġre mo
Ġf lo
mis os
ĠFab ra
ven ida
Ġsub s
er ÃŃas
Ġrecl ama
ĠO tros
Ġbas es
Ġesc ala
qu ÃŃn
cer tid
Ġhum ana
Ġpas an
Ġoc ciden
ar t
ĠCons ist
Ġplante a
ĠpÃ©r didas
Ġcompe tencias
Ġal co
Ġoch enta
Ġtermin ar
Ġab ra
A L
ist Ã¡n
ĠSe gun
Ġdeber Ã¡
Ġcelebr ar
. âĢĿ
ĠV I
ĠSan idad
ad ura
Ġus ar
ĠB Ã¡r
Ġacel er
Ġpas iÃ³n
Ġproce dimiento
Ġoblig ado
Ġgust o
Ġexplic an
fici al
Ġis lam
Ġmadrile Ã±o
ĠSerg io
ul d
ĠcÃ¡n cer
Ġex am
Ġneg ra
Ġm ist
Ġcon ec
Ġpo dÃŃan
Ġher e
Ġ0 3
Ġimp er
Ġdoc tor
Ġpermit ido
Ġdictad ura
Ġre ales
Ġextre mo
le za
Ã¡st ico
ici l
Ġesc uelas
Ġaf ric
l ores
ĠsÃŃm bol
bur go
ĠSpa in
Ġportu gu
Ġinicia tivas
Ġconf es
Ġg obiernos
Ã £
Ġest ima
ĠJ er
Ġf res
Ġapro bado
Ġexper to
Ġreconoci Ã³
Ġpop ul
Ġres tos
Ġcan al
Ġesfuer zos
Ġcon greso
Ġn aciÃ³n
Ġesp ecta
ĠSan tos
Ġveh ÃŃculo
in ho
Ġdes n
cios o
Ġpar ecido
z ados
Ġsin g
Ġplan tas
car ia
ĠN ada
Ġinfraestruc turas
gu st
Ġposi tivo
Ġnorma tiva
m entar
ĠP ues
ĠJo a
cu ra
H a
Ġdemostr ar
Ġgu itar
Ġdedic ado
h ad
Ġs ho
Ġcre ciente
t ente
ÃŃ na
Ġsegun dos
Ġdis cip
Ġres uel
ĠD onald
Ġemb ara
ĠMich ael
Ġc ajas
Ġcab e
Ġsu puestamente
Ġreg al
ĠN adie
Ġlu ch
Ġaf ect
ĠB CE
ĠER C
201 5
Ġconcl u
Ġest atu
Ġvisit antes
Ġcateg orÃŃa
Ġofici na
Ġcontin ente
Ġpel ota
ĠB ra
ĠIn g
ciden tes
Ġmis iÃ³n
Ġencar gado
ĠAl go
Ġreac ciÃ³n
Ġch av
ĠF il
im ismo
Ġc ero
, âĢĿ
Ġbi o
ĠG ri
Ġlidera zgo
Ġconv ir
tion s
ol as
Ġin certid
ent ro
Ġtradi cionales
Ġminist ra
tr ado
Ġrepe tir
Ġtranspar encia
Ġale mana
ly wood
ĠcrÃŃt ico
A M
ci pe
ĠG ir
Ġ4 3
gen cias
Ġpubl icaciÃ³n
Ġbre ve
ĠAy er
Ġaso ciaciones
Ġjudi ciales
t ÃŃ
I N
L e
te ga
ĠDef ensa
Ġde mÃ³cra
Ġdif un
olÃ³g icas
Ġv ienen
Ġposi ciones
Ġfra g
Ġcli ma
ĠAndr Ã©s
Ġtrayec toria
Ġfron teras
Ġunivers idades
Ġexpecta tivas
ĠF rente
Ġcul turales
in to
ĠÃ¡r bol
cion istas
Ġvis itar
ĠHern Ã¡ndez
Ġindi gn
2 9
gar se
Ã³m ico
Ġpreocu p
ĠB B
Ġdese mpleo
Ġfo tÃ³graf
ĠN unca
Ġdeb emos
Ġinclu ido
Ġas al
F E
Ġfir mas
Ġabog ados
Ġpro to
Ġempres arial
Ġcap it
Ġentr Ã³
Ġrue da
0 3
i ada
in ter
Ġdeclar ado
Ġad qui
ĠMar tin
ol l
c ran
Ġ5 5
tes is
ĠJ uegos
Ġgan as
Ġa Ã©
ĠC lin
Ġfor man
Ġsub ven
Ġcol ores
Ġar res
ĠRo d
Q ui
Ġsuper viv
Ġt Ãº
ĠescÃ¡ndal o
g ente
Ġreg las
Ġcons iste
Ġes encial
Ġargu mentos
Ġfamos o
Ġfac tores
Ġtermin Ã³
Ġdej an
Ġglo b
Ġal ber
om ento
Ġimpor ta
ver n
x a
Ġev ento
ĠAr tur
Ġhabl ando
ĠcÃ¡ maras
oso fÃŃa
Ġdisp osi
Ġaprob aciÃ³n
ĠE d
Ġac on
Ġli br
ĠP R
Ġg r
Ġro bo
Ġru p
Ġban dera
Ġw ww
Ġfru st
ĠfÃŃs ico
Ġtom ado
iz aciones
Ġ200 1
Ġab ajo
Ġpas aj
Ġconden ado
quil lo
Ġcuar ta
Ġhaber se
Ġrad ical
ĠC el
Ġasist encia
ĠIn v
ĠON G
Ġnar co
Ġejecu tivo
ĠTor re
Ġpo eta
Ġtotal mente
Ġconcent raciÃ³n
Ġind is
ĠEl la
Â Ń
Ġ0 4
b um
ĠVic ente
f al
ĠA ca
Ġmus ul
Ġbienes tar
b y
u p
pu la
Ġre me
terrÃ¡n eo
ĠP on
Ġda to
Ã£ o
Ġresist encia
is e
ĠConsist orio
Ġau st
Ġp eg
t idades
Ġdesigual dad
Ġcre er
Ġh Ã¡
Ġajust e
Ġh un
Ġ3 9
Ġofrec en
ti mos
bi ciÃ³n
âĢĶ .
ĠT res
que za
Ġmon um
Ġandalu z
Ġa un
Ġpa de
l ara
ĠCh rist
Ġma qu
Ġinterpre taciÃ³n
Ġmir ar
Ġdeten idos
0 2
m ada
Ġfies tas
ĠCh ar
Ġ ran
Ġrespon diÃ³
ĠHol lywood
ĠAl bert
Ġcentr ales
Ġres idencia
Ġdistribu ciÃ³n
Ġoblig a
ĠF re
Ġtor n
ĠAlej andro
v oc
ĠfÃŃs ica
it en
Ġsuf riÃ³
Ġcenten ar
ĠMor eno
Ġdirig ido
Ġre quis
Ġex cepciÃ³n
Ġprocl am
Ġromp er
el le
dem ont
Ġpr Ã©st
ĠcientÃŃf icos
Ġm Ãºlti
Ġdistin to
Ġman tienen
Ġnov enta
un g
Ġf lam
Ġcer can
Ġsig u
Ġsim ilares
Ġmanifes taciÃ³n
en das
ĠParlam ent
on i
Ġconsider ado
ĠC la
Ġab o
ĠC C
ĠW e
Ġpas eo
Ġman tuvo
ĠÃ¡ reas
Ġw ho
Ġqued arse
Ġsal as
g aciÃ³n
later ra
at us
Ġto ca
Ġ Ãº
Ġampl io
Ġca fÃ©
ing Ã¼
Ġarquitec tura
Ġviv o
ter al
Ġna cido
Ġobje tos
Ġpudi era
Ġcu Ã¡l
ran do
ĠK o
Ã©rpre tes
gu en
ol i
Ġllam ar
Ġreun iones
Ġahor ro
Ġfinanci eros
Ġorganiz ado
ĠJim Ã©nez
Ġacudi r
ĠSuper ior
Ġinfor mado
Ġdisc rim
Ġcomien za
ug h
ita ciÃ³n
Ġampl ia
Ġexp lor
ĠW al
ura ciÃ³n
Ġprovoc ado
ĠR ÃŃo
ĠEs c
Ġexplic ado
Ġ ic
mp e
Ġsom bra
Ġexp on
ĠcapÃŃt ulo
d ÃŃ
Ġas c
ĠS ala
Ġsecre taria
ĠEdu ardo
Ġmostr ado
ĠÃģlvar ez
que ta
Ġocu par
en z
Ġregist ro
tim idad
Ġest reno
Ġ200 2
ĠAm bos
Ġd il
ĠH os
Ġfir me
ĠN aciones
Ġedi torial
ĠPre mio
ĠPuig demont
Ġint entÃ³
Ġbus can
Ġ6 00
ti os
dic e
idar idad
Ġdocum entaciÃ³n
Ġmedi ados
Ġcorrespon de
Ġc el
e go
Ġsin dic
Ġconflic tos
Ġcomple ta
Ġequiv oc
Ġsu g
ĠaÃ±ad ido
ĠC lar
lan de
Ġ0 2
Ġinte graciÃ³n
Ġre iter
ar los
Ġextre ma
Ġseguir Ã¡
Ġint enta
Ġinm ue
Ġp ies
3 4
ÃŃ be
Ġcompro bar
Ġa pa
Ġcerc ano
Ġso f
Q ue
Ġimp lan
Ġinmedia to
ĠI rÃ¡n
Ġsig los
Ġescol ar
Ġpl ano
re do
Ġmar cado
Ġcl im
ual idad
x e
Ġtas as
ĠA quel
Ġsu minist
Ġrecor te
ĠGran ada
ĠConse jerÃŃa
Ġbaj os
Ġenferme dades
Ġparlam entaria
ĠV i
Ġelim in
Ġdespa cho
ĠIn dia
Ġw ill
c lo
ĠH or
ĠA ires
Ġasegur ar
Ġllam Ã³
ios a
Ġdi visiÃ³n
Ġcar ne
Ġpermi tiÃ³
Ġf ech
Ġreconoci do
Ġa mp
Ġch il
B A
% ),
Ġcon tun
Ġpon en
Ġel ig
ĠPre gun
ci r
un cias
Ġimpe dir
Ġlegis laciÃ³n
Ġa ter
uri as
Ġl istas
Ġde tenciÃ³n
Ġcor te
Ġpolici ales
Ġau ster
Ġest r
ĠVal le
ĠMad uro
Ġcon tras
Ġpa ga
Ġop ina
Ġcoop eraciÃ³n
ÃŃn cipe
ĠPres u
Ġg ala
Ġju d
3 5
j ol
er vi
ĠGeor ge
Ġsu ici
ona to
t res
Ġfotograf ÃŃas
z adas
Ġbaj as
ĠH en
Ġbar rios
Ġlatino americ
Ġll ena
ĠAlf onso
Ġpar ado
E N
Ġte orÃŃa
Ġher mana
ril la
ĠG Ã¼
Ġinv est
Ġh in
Ġg e
el lo
er do
ĠEx teriores
Ġolvid ar
e da
ĠP ri
Ġperspec tiva
Ġref iere
ĠEst udi
Ġtra ge
ĠmÃ³vil es
Ġbel leza
Ġton el
Ġapro bar
Ġpriv ados
Ġ4 6
Ġaten der
ĠWill iam
d icaciÃ³n
aliz Ã³
Ġcu rios
Ġpier de
ĠR osa
c ÃŃan
v os
ĠÃ¡l bum
Ġval e
Ġrecom end
Ġdemocr Ã¡tico
id aciÃ³n
Ġex c
la ba
ÃŃ ble
Ġofici nas
Ġcam pos
Ġtom Ã³
Ġpanor ama
Ġ4 2
Ġinvestiga ciones
ĠAmbi ente
Ã³st ico
ĠTur quÃŃa
ĠP h
Ġtras cen
Ġdro gas
i had
Ġestable ce
g amos
ĠautonÃ³m icas
og r
ic ultura
Ġconsider ar
Ġinf ancia
Ġqu ita
Ġhabi taciÃ³n
Ġdi vid
Ã³m ica
Ġsuf rir
Ġc he
Ġencab ez
iver so
Ġmo tiv
Ġdescub rir
ig h
ier ten
Ġrestaur antes
ĠI VA
Ġfuer an
Ġam ist
ix a
ĠOrgan izaciÃ³n
ĠIng laterra
c ada
ien es
Ġfor tun
Ġad mit
ĠMer kel
Ġsal arios
Ġinf laciÃ³n
Ġhabl an
Ġarquitec to
ĠPer Ãº
Ġafi cionados
Ġma dera
Ġfacil itar
r ador
tar a
ĠZ ara
ic ada
Ġno table
Ġavan ce
Ġentus ias
Ġpo tencia
Ġr onda
Ġmateri ales
Ġdemostr ado
v io
der ÃŃa
Ġag ente
Ġfig uras
i que
ĠV ol
Ġanim al
Ġcon tÃ³
Ġa ma
Ġur nas
Ġpro ve
Ġab on
Ġaler ta
ĠmÃºs icos
i mientos
or cio
Ġconstru c
ĠcaÃŃ do
Ġimp ar
ifor nia
Ġnacional istas
til las
Est amos
tu ario
Ġco tid
Ġri queza
Ġverda dero
Ġinfer ior
Ġch o
Ġgust arÃŃa
Ġacus aciones
Ġnumeros os
Ġca yÃ³
am or
ĠSu Ã¡rez
O R
ver g
Ġsuel do
Ġindependen tista
Ġre Ãºn
p era
Ġpermit en
Ġauster idad
Ġse mi
ĠBuen os
ĠDe moc
Ġcum bre
Ġreflex iÃ³n
ĠF ondo
Ġcatedr Ã¡tico
ĠÂ »
ĠT an
Ġgu i
r ero
Ġen m
le tas
Ġs Ã³l
di ciÃ³n
ion s
Ġprol on
b is
bal caba
Ġcor riente
ĠUn idas
Ġan ivers
Ġen de
ĠCar m
en n
Ġper pe
Ġapoy ar
Ġmexic ana
ri el
Ġpriv adas
Ġauton omÃŃa
ÃŃf ica
Ġaudi encia
stru cciÃ³n
ĠI C
% ).
ĠI gu
Ġre mon
Ġh ier
ĠGu ardi
I A
Ġg ar
Ġabsolu to
Ġcal end
Ġsu mar
Ġal tas
oc k
Ġaf il
ĠV Ã¡zquez
ion ar
t idas
ch er
Ġlec tores
Ġacum ul
Ġregres o
ĠP os
as o
Ġlan zÃ³
ĠClin ton
Ġv ital
Ġvi ento
Ġnego ciar
Ġm ales
Ġmal o
Ġinter ro
Ã¡n ica
ĠIn st
Ġf ues
Ġtes is
Ġpres entes
gu ay
Ġfalle cido
Ġsuperfici e
ĠBÃ¡r cenas
m erÃŃa
Ġtempor al
Ġpis os
Ġindivid ual
Ġcoin ciden
Ġdes cen
ig er
Ġleg ales
ir Ã¡n
Ġfor mado
Ġfir mado
Ġm el
Ġar reg
Ġob tuvo
Ã¡m ico
ĠFe deraciÃ³n
i mp
Ġper miso
Ġdem uestra
ĠDirec ciÃ³n
Ġvul ner
ez ca
Ġfinanci eras
ĠOs car
ĠIra k
ĠRu balcaba
ÃŃ menes
Ġme mor
tar ias
ect Ã¡
Ġinno vaciÃ³n
Ġev idencia
Ġexp uls
ĠOr tega
rib uye
ĠB ale
Ġin dem
id ura
Ġde terior
Ġcastell ano
Ġin oc
Ġch ino
Ġhistor i
Ġdes ign
Ġver se
am entos
den cias
Ġrealiz Ã³
e ma
Ġter ra
Ġcompe ticiÃ³n
Ġcomple tamente
Ġpen dientes
Ġmanten ido
Ġcal or
vis ible
Ġser ies
crip ciÃ³n
Ġterror ista
Ġsubra ya
Ġo pon
ĠB ara
Ġnucle ar
Ġpartici pa
is a
Ġide al
Ġfundad or
l d
on y
Ġine vi
Ġsal var
Ġoblig aciÃ³n
Ġas cen
ĠseÃ±al ado
Ġpo deres
Ġens ay
Ġpro pa
Ġacus aciÃ³n
Ġv est
tel la
Ġviv iÃ³
Ġpromo ciÃ³n
Ġcor rup
Ġvisit as
Ã¨n cia
ĠP r
Ġba ilar
z ca
Ġbal ance
dr Ã¡n
Ġdirec tivos
Ġconven io
Ġfle xi
Ġanivers ario
Ġ4 4
Ġminist ros
Ġat entado
Ġpie dra
Ġni Ã±as
ĠautÃ³n omas
Ã³lo gos
Ġdom icil
Ġsubra y
g adas
Ã¡n ico
Ġequil ibrio
ec a
cion ista
ĠMar c
ĠJ ack
P V
Ġdistin ta
Ġcontinu ar
Ġbar co
Ġgalle go
ĠW a
ĠEs per
Ġgen eraciones
ĠH om
Ġepiso dio
ĠL in
Ġpar cial
ĠQu izÃ¡
ĠÃ³r gano
Ġproduc tor
Ġlabor ales
Ġf ama
ti tu
ĠXI X
ĠV ir
Ġso por
Ġhor iz
Ġregu laciÃ³n
ĠRey es
Ġapar ecen
Ġun iÃ³n
Ġson ido
id al
mi tiÃ³
r aron
Ġme ter
Ġcon sta
Ġhace mos
Ġmo tor
Ġcap itales
Ġcu idado
Ġmer can
Ġsu ya
Ġhosp itales
Ġbusc ando
Ġincertid umbre
ĠBlan co
ent re
Ġg ir
Ġresponsa bilidades
Ã³n icas
Ġperf ecto
Ġn ervi
Ġci elo
ĠCom p
Ġr uso
Ġpres unta
Ġ4 7
Ġcom batir
Ġinici Ã³
di rec
Ġsit Ãºa
Ġsu ficientes
du jo
Est e
Ġmo ver
f ica
ÃŃr culo
Ġa for
Ġconten idos
Ġmadrile Ã±a
Ġcompe tir
er ra
Ġmor ir
ĠCor tes
w ard
Ġapro xim
Ġlu char
Ġmaes tro
Ġriv ales
F A
ĠraÃŃ z
ĠPala cio
Ġve o
Ġcub rir
Ġcaracter ÃŃsticas
ĠC N
Ġexpe diente
Ġli bres
Ġcer rÃ³
Ġdetal le
ĠO ri
Ġbi blio
Ġe ter
Ġedi tor
' .
Ġlec tor
it es
com un
Ġterror istas
Ġper jud
Ġrela ta
ĠW ar
Ġdist rito
ĠDer echo
Ã± e
tre et
Ġsing ular
r ica
Ġadv irtiÃ³
Ã© is
Ġsal to
E L
ic ul
Ġsan ciones
Ġavent ura
de ll
Ġalcan za
t ÃŃas
ĠJe an
Ġvia jar
Ġre quer
Ġesc ribe
ĠTo da
Ġcampe Ã³n
Ġcriter ios
Ġpar ar
in cu
Ġintelec tual
Ġac ces
Ġest an
Ġelem ento
Ġor ques
Ġescri tores
arrol lo
Ġlo gra
ari ales
Ġte j
Ġh all
ĠS ta
em ent
Ġtrans iciÃ³n
adÃ¡ ver
Ġan alizar
iden ta
Ġtrata ba
ĠEs p
Ġmar car
Ġalco hol
Ġmanifes taciones
Ġter cero
li te
ĠQ uer
Ġprof unda
Ġneg Ã³
Ġperfec tamente
Ġacab ado
Ġfer ia
Ġrepublic anos
z aba
ĠseÃ±al an
Ġescen arios
Ġfin es
br Ã³
Ġa vi
Ġ( âĢľ
Ġr icos
Ġsindica to
Ġimpu tado
Ġad vers
Ġm oles
ĠS or
ĠS ud
ĠS p
Ġgig antes
ch ada
d in
Ġcompar ec
vent ud
P P
e os
v ida
Ġcre Ã³
Ġinvest idura
ĠR ich
Ġprincip almente
Ġev iden
Ġda Ã±os
Ġconviv encia
M adrid
ar y
am Ã¡
Ġy ihad
ĠRo bert
ĠAr te
Ġun iverso
Ġrespec tivamente
ĠEst amos
Ġmulti plic
Ġarri es
ĠC UP
Ġse l
Ġcalend ario
Ġimprescindi ble
Ġcre di
? âĢĿ,
h at
Ġsi ento
ĠS pan
Ġc adÃ¡ver
den es
Ġmanifies to
Ġd uelo
ĠPe Ã±a
- -
se os
Ġsol dados
Ġdis cur
Ġay unta
Ġconven cer
te cas
Ġinsist iÃ³
Ġtonel adas
Ġcom icios
Ġpais aje
Ġclar amente
Ġinver tir
uev o
Ġtecn ologÃŃas
Ġthe y
Ġpar eci
ĠX a
Ġalcan zado
Ġequiv al
Ġm ando
Ġqui era
Ġh ue
ĠD ol
Ġtor os
Ġdefen diÃ³
ĠM us
an i
duci endo
3 6
Ġven ido
tif icaciÃ³n
u laciÃ³n
Ġch oc
Ġf om
R e
ier to
ĠJ ulio
ĠSalv ador
Ġsu man
Ġreg iones
Ġvia j
Ġo ut
Ġin ex
Ġdes gra
Ġinfor mÃ³
Ġtrabaj ado
Ġsitu ado
de re
Ġcolec tivos
ĠH am
Ġprop Ã³sito
ĠmÃºlti ples
Ġcul p
ĠCu atro
Ġsu je
Ġconsum idores
ĠC at
Ġcon ferencia
Ġreivin dic
Ġre cesiÃ³n
Ġamena zas
Ġc ari
Ġth is
Ġho teles
Ġfal lo
Ġins ul
Ġretir ada
Ġofici o
Ġp oca
rue cos
Ġzapa tos
Ġindem n
Ġnega tiva
Ġp iden
Ġcere bro
Ġest ric
Ġis rael
ĠPue de
ĠXX I
Ġcambi Ã³
ĠPu jol
ĠR i
Ġart ÃŃculos
Ġapun tan
Ġc Ã©
ist os
Ġpin tura
ec on
ĠD om
ĠMar ruecos
ĠA ir
Ġcl ÃŃn
z on
en co
Ã³ cra
Ġher idos
p lica
ĠC ul
Ġt ari
ĠUn os
ĠK ar
Ġexplo taciÃ³n
ĠâĢľ Â¡
Ġinv ierno
Ġmanten imiento
Ġmul titud
Ġre ina
fici encia
Ġden uncias
g io
Ġcos tum
Ġd igo
ĠCrist iano
Ġcome dia
Ġset enta
' ,
ĠtÃ©cn icas
H emos
ĠTim es
Ġdej aron
Ġem ig
Ġsup era
Ġimpu tados
Ġest all
Ġelev ado
ma to
Ġunivers al
Ġfe min
to Ã±o
Ġcoleg ios
Ġtur no
Ġigles ia
Ġac aban
Ġac tivo
Ġa ver
Ġdesapar eci
Ġch icos
Ġsac ri
Ġbaj ar
Ġe char
Ġneces arios
paÃ± as
Ġvac ÃŃo
ĠS ue
Ġrup tura
Ġp ic
Ġbas ura
Ġrespal do
Ġforma to
ĠT ar
ĠNav arro
Ã ²
Ġpatr onal
Ġdev olver
Ġqued aron
Ġgig ante
Ġcriter io
Ġtra tado
Ġad quis
Ġins u
ĠV igo
Ġdirig ida
Ġsencil lo
Ġsig uiÃ³
Ġul tra
Ġprima vera
Ġenfr enta
Ġemerg encia
Ġfar ma
Ġaum ent
Ġg rados
Ġregist rado
Ġl ech
ĠO n
Ġfil me
Ġtrage dia
os itor
Ã³ lica
Ġh ectÃ¡
Ġab usos
it ores
Ġponer se
l ada
Ġhum il
Ġlevan tar
e y
Ġcuer pos
Ġcon ces
ti zado
Ġsuf re
Ġlan zar
Ġblan ca
Ġcuad ro
ĠrÃ¡p ida
Ġch ica
Ġejer cer
ĠAca demia
ĠPrim ero
Ġllam an
S on
Ġcomien zo
Ġenc uesta
Ġap e
ĠCon cierto
Ġllam adas
Ġadmi tiÃ³
Ġan s
r ida
for d
Ġcer em
Ġgas tron
Ġexpan siÃ³n
ine te
der Ã¡
ĠPa z
Ġon line
Ġesca Ã±os
Ġqu is
Ġperson alidad
Ġdestac Ã³
âĢĻ .
Ġac e
Ġdismin u
Ġpilo to
ĠV ie
qu ir
ĠCal ifornia
Ġtransfor maciÃ³n
Ġme t
Ġconven cido
in er
Ġespect ador
19 9
rad u
Ġnatur ales
Ġsal en
Ġc uel
ĠV ar
Ġfr ÃŃo
se gur
bier an
Ġesper aba
Ġentr adas
Ġprior idad
ĠhÃ¡ bi
Ġsol idaridad
tan der
Ġexplica ciones
Ġamar illa
3 7
âĢĻ ,
Ġreci n
ĠDes arrollo
Ġco brar
Ġpar ad
Ġconoci dos
ĠNav idad
ĠMos sos
Ġcre cido
Ġb asta
Ġcomun es
Ġtra mo
Ġfrances es
ĠCom er
Ġt ap
or ld
udi cial
ĠCor ea
Ġprovoc Ã³
Ġnumeros as
ĠCamp s
Ġsex uales
ĠS ha
ĠD al
ad io
Ġha gan
ĠIn dust
go za
ar me
Ġro jo
ĠCas i
cion Ã³
Ġso bres
Ġmas cul
Ġaprovech ar
Ã³n icos
Ġma pa
Ġban quillo
Ġacre di
vi de
te m
Ġdue Ã±o
Ġmal os
Ġasist entes
Ġmic ro
ĠNie to
ĠTen emos
Ġco ber
Ġrecur rir
ĠP ra
d y
Ġalcan zÃ³
Ġven ir
Ġcar tas
ut ri
d ing
i jÃ³
Ġemis iones
Ġdesaf ÃŃo
ĠAdminist raciones
ic ano
ĠRa Ãºl
Ġpo esÃŃa
ĠCal der
' s
ier ta
Ġsuce dido
fer encias
Ġkil os
Ġalterna tivas
Ġmilit antes
Ġd ud
Ġcic l
Ġsu po
Ġper segu
ĠCor uÃ±a
Ġmer ece
ĠautonÃ³m ico
ide l
Ġv uelo
ĠA la
ec ÃŃan
di mos
Ġen cu
ĠÃ¡n imo
w ay
Ġpasaj eros
Ġdeclar ar
Ġh Ã©ro
Ġcolec tiva
Ġempez ado
Ġexac tamente
Ġb arcel
Ġejemp los
Ġale manes
Ġfas cin
Ġros tro
ĠC e
Ġof ens
a unque
Ġar ma
Ġfrecu encia
Ġter mina
cri to
Ġvie ja
de pen
Ġma ch
man n
Ġdescan so
Ġasist encias
ĠautonÃ³m ica
ĠcrÃŃt icos
Ġla menta
Ġelectr Ã³nico
Ġhuman idad
Ġemple os
Ġimpor te
Ġreci entes
Ġbe en
Ġclim Ã¡tico
Ġy ear
ĠSegun da
Ġampl iaciÃ³n
Ġde cor
Ġdes at
ud ÃŃ
Ġag ru
Ġacus ados
Ġses enta
ri tos
Ġrepublic ano
to dos
ÃŃt ico
Ġpre para
Ġelim inar
Ġ #
cion ada
iz an
Ġpresiden cial
Ġcomen zar
m uy
ca den
Ġsal ario
ĠAh ÃŃ
ĠdifÃŃ ciles
Ġcu ota
Ġpens ando
t witter
ÃŃ mp
Ġres puestas
Ġil usiÃ³n
Ġtorn eo
Ġter cio
ĠAp ple
Ġban das
Ġencontra ba
Ġh id
ĠBank ia
Ġquin to
Ġat ribu
Ġespecta cular
ijÃ³ o
Ġcontinu idad
Ġm ente
ig ht
Ġcu yas
Ġurb ano
Ġinstitu to
ĠH emos
Ġcal cula
Ġdes pre
Ã ¶
S u
ĠC E
Ġs ensa
da je
Ġserv ir
Ġcur sos
3 8
Ġham bre
ci ta
ĠB i
ĠEn cuent
ĠU P
ĠMar ia
Ġdim isiÃ³n
Ġsu puesta
ĠPla za
Ġwh ich
Ġb ut
ĠMa g
Ġme dic
Ġconsig ue
Ġing les
Ã³r do
Ġres ume
Ġespe ciales
Ġsu yos
able mente
Ġna cimiento
Ġanal istas
Ġin cent
Ġpa ciente
Ġempez aron
tiv e
r adas
m isiÃ³n
Ġnie ga
Ġtra to
ist ar
? âĢĿ.
ĠB on
Ġhubi ese
Ġdiscip l
Ġmez cl
Ġpubl ici
Ġconex iÃ³n
Ġman io
Ġantigu os
ĠFe der
Ġt ier
Ġdesap ariciÃ³n
Ġp ales
Ġo toÃ±o
Ġtar jeta
Ġtor o
Ġfil osofÃŃa
Ġinevi table
Ġparticip antes
ĠBol sa
t ul
Ġhabl Ã³
Ġcar b
gr Ã¡fica
Ġcre ce
ad illa
ĠCh Ã¡
Ġorgul los
ĠfÃ¡br ica
Ġcam paÃ±as
Ġmone da
Ġconse jera
ĠM ed
Ġru ido
ĠAs ia
ĠLat ino
ÃŃ gen
Ġb en
Ġfru to
ĠInv esti
) :
Ġindependen tistas
ĠF omento
Ġprofes iÃ³n
ĠFe ijÃ³o
Ġpresiden tes
ĠAz nar
ĠSoci edad
ĠÃģlvar o
o t
Ġt echo
ur s
Ġavan ces
ĠGu in
Ġl it
Ġl lor
Ġinmig raciÃ³n
Ġespal da
a g
Ġexplica ciÃ³n
Ġreno vaciÃ³n
ĠU GT
Ġex tin
ĠHist oria
ĠA T
Ġsusp ensiÃ³n
ĠO ro
Ġbi cic
z co
Ġcontra taciÃ³n
c Ãº
Ġcu mplimiento
Ġcor rer
Ġv istas
m al
ar quÃŃa
U T
Ġp le
ĠJ unto
Ġan aliz
Ġdirec tores
Ġconcl usiÃ³n
ĠmÃ© todo
Ġital iana
Ġhom os
Ã±o z
Ġe ti
ĠM Ã¡r
Ġu p
Ġfundam entales
Ġgal ard
ĠPa u
M A
Ġlleg ue
tu vieron
Ġcul min
ĠC erv
i ri
Ġhomos ex
Ġdis cos
Ġinstru mento
ven ir
ĠlÃ³g ica
ĠC ity
or ca
Ġcon cesiÃ³n
Ġsol v
br ada
Ġdef ine
Ġpa que
Ġterri torial
Ġpu ente
ran te
ĠRic ardo
iste ma
3 9
cional idad
ĠPresu puestos
Ġpre visiones
ent ada
d icas
Ġch ico
Ġve ÃŃa
Ġfi j
Ġextre m
tran s
Ġsosten ible
Ġ12 0
Ġofre ciÃ³
Ġ8 00
ĠB ri
Ġcambi a
z ona
ĠC ambi
Ġfortun a
Ġhogar es
Ã³rdo ba
ĠW il
Ġdific ultad
Ġpala cio
Ġpregun tÃ³
k es
y eron
ar las
Ġs ta
Ġrecib en
ĠM is
Ġrum bo
or i
ĠFran ces
ĠmÃºs ico
Ġnov elas
Ġdi jeron
Ġejecu ciÃ³n
Ġeconom ÃŃas
Ġter ren
Ġimpres ion
Ġconcl usiones
it oria
Ġpens amiento
ĠPala u
Ġsubven ciones
ĠP oco
Ġpermi ta
Ġreco ger
ĠG il
Ġinteres a
Ġmonta Ã±a
Ġimpul so
ĠRo berto
Ġg esti
arc os
Ġquer er
Ġ8 5
A hora
it ando
li x
Ġprov oca
ĠCor te
Ġtele f
t n
Ġpro vis
Ġ4 1
Ġsab ido
gu es
Ġc ien
Ġse mej
Ġdej ando
ar nos
Ġg or
ĠSan tander
Ġsegura mente
ta miento
Ġadul tos
Ġthe ir
Ġllev aron
Ġavan zar
ic en
la ce
Ġbil le
Ġcol on
Ã³l ico
ones a
Ġre visiÃ³n
Ġpe ores
Ġproce dentes
gan os
ĠFe deral
ÃŃ e
s er
Ġex ceso
ĠCan adÃ¡
Ġneces arias
Ġac or
l um
ĠhectÃ¡ reas
Ġde dica
Ġestar ÃŃa
ĠAst urias
ez as
ĠBil du
Ġtermin ado
Ġinstal aciÃ³n
ĠChÃ¡ vez
r tel
Ġale j
ĠS Ã¡
bern am
Ġjorn adas
Ġrelig iÃ³n
ĠA g
te la
ĠCalder Ã³n
Ġ4 9
ĠVal l
Ġaum entado
Ġutil iza
v ado
Ġconta ba
Ġabord ar
Ġfren ar
Ġizquier das
Ġtesti go
g ido
ĠRe v
Ġrepresent an
Ġcelebr ado
Ġdispon e
ab e
ral ia
Ġtex tos
Ġno ches
ci encia
ĠV uelta
Ġna z
ĠB ru
Ġobst Ã¡
Ġesc rib
gra ma
Ġmul tina
Ġev ent
Ġelec tri
Ġlimp ieza
Ġ25 0
ĠIn di
ĠMo ur
ĠN et
Ġa er
Ġsent imiento
Ġcomet ido
Ġac tiva
Ġres al
Ġh ad
Ġtar eas
ĠMu Ã±oz
Ġmecan ismos
Ġfech as
Ġra p
Ġdisc usiÃ³n
ĠvÃŃ deos
Ġ199 9
ab ora
Ġgestion ar
Â ª
en zo
Ġv iendo
ĠO riente
ĠNo bel
ĠSu iza
Ġdomicil io
j al
c tur
Ġpropie tarios
Ġfues e
Ġgobern ador
Ġresul tÃ³
ro ga
Ġextra Ã±o
ĠT ierra
Ġch a
ĠEs quer
Ġdura ciÃ³n
oc os
ĠC lub
uer ta
Ġinf in
Ġfutbol istas
. ,
w er
ĠI ber
Ġinvesti gar
ĠGÃ¼ rtel
te mp
ĠN Ãº
Ġex al
Ġemp ie
Ġgan ador
Ġconsider Ã³
Ġbur bu
Ġf lor
l ando
Ġdese mpe
Ġinclu ir
r us
an ca
ig ma
Ġdenunci Ã³
Ġllu via
ĠAd ri
3 00
u a
gan da
Ġcol a
ĠÃºn icamente
i amente
Ġnom bra
Ġc en
Ġefec tivo
Ġli qu
Ġmoder n
Ġser es
ĠL unes
Ġco h
ur ado
Ġar tic
Ġacudi Ã³
ic s
ĠE mpleo
Ġinter no
Ġcelebr Ã³
Ġev entos
Ġclas ificaciÃ³n
3 3
ĠmÃŃn ima
Ġcon cer
ĠMi ami
ta men
Ġgobern ar
Ġin esper
ĠÃ ĵ
Ġil um
Ġalma cen
Ġinstru mentos
Ġp ura
Ġdeci de
Ġp atro
tar Ã¡n
R O
4 7
ic ar
Ġorgan ismos
Ġcol um
Ġbru tal
ĠSpan ish
Ġap arc
Ġexper iencias
Ġrecuer dan
lan da
ĠJoa quÃŃn
Ġdis puestos
x it
Ġprev io
que o
ĠLe on
ĠMon t
ĠCÃ¡ diz
Ġre habil
Ġefica z
ĠB ay
Ġencuent ros
Ġalcal des
Ġdedic ada
ĠclÃ¡s icos
ĠE di
Ġpe trol
clo a
le x
Ġadolesc entes
Ġreg ul
ĠW est
oc as
Ġexpor taciones
ĠB ill
Ġocu paciÃ³n
Ġale grÃŃa
Ġrefor zar
c Ã³n
Ġem it
eg as
ĠAlf redo
Ġha cÃŃan
ĠAr tes
Ġrela cionados
Ġpropie tario
Ġocur rir
Qui Ã©n
ch ado
Ġcens ura
un os
Y a
Ġcober tura
Ġin n
Ġsec ues
Ã¡ les
ur ar
Ġreca uda
ĠZara goza
Ġjust ific
ĠO O
ĠenseÃ± anza
de a
Ġfi ja
Ġdom Ã©st
] ,
Ġhabi tuales
Ġ5 2
Ġsuper iores
Ġson risa
Ġconserv ador
Ġbrasile Ã±o
Ġabsolu tamente
as iÃ³n
Ġrecom enda
Ġexcel ente
ĠMur cia
Ġexig ir
Ġincre ment
Ġnacional ista
Ġparticular es
p la
Ġviv iendo
ĠR amos
Ġgaran tÃŃas
Ġse cu
ĠMon cloa
Ġsorpren dente
Ġja zz
Ġprofund idad
ĠPa co
ĠMar cel
u o
Ġte mor
Ġtras pas
Ġqu ÃŃm
Ġsol itario
ĠJ on
s ula
di mientos
Ġto que
5 5
le tic
ĠMour inho
Ġsan itario
Ġju ventud
Ġat entados
ĠsÃŃmbol o
Ġleg ado
Ġmar cÃ³
Ġileg ales
Ġcor ta
Ġreivin dica
Ġabier tas
Ġejecu tiva
Ġemo cional
Ġj unta
Ġher idas
qu inas
Ġhtt ps
Ġcumpl ido
ĠB ut
Ġap ariciÃ³n
th letic
ĠHab ÃŃa
Ġro ja
Ġe duc
ĠCom itÃ©
ĠcuÃ¡n do
Ġprogra maciÃ³n
Ġprev ia
ĠcrÃ©di tos
Ġcoment arios
H e
Ġal iv
tin os
Ġrele vante
Ġvia jeros
Ġapor ta
Ġano che
ĠAl ba
Ġpudi eron
n ing
Ġsan itaria
Ġdesp ren
Ġfac turas
ti to
Ġleg alidad
amp ions
Ġmad res
Ġtrist e
C A
II I
ĠIn for
ĠCar les
y an
ĠG lo
Ġpublic ar
Ġfutbol ista
Ġrecin to
Ġcrim in
ĠÃ³r denes
ĠVÃŃ ctor
Ġmonta je
ĠD or
Ġqu ie
Ġprev ista
ĠPal ma
Ġtrans cur
ĠMar ta
Ġdipu tada
Ġdi arios
Ġ" Â¿
h en
Ġv ay
Ġmill on
umi Ã³
cran ia
Ġan ci
] .
ĠjurÃŃ dica
al ista
ĠS treet
Ġ ,
Ġinv olu
Ġdestac ado
Ġcan tidades
Ġem ble
ĠC ara
Ġg obier
ĠV il
Ġ5 6
Ġingen ier
Ġacon se
Ġd arse
ĠC ola
Ġconcluy Ã³
Ġhis p
ĠcÃº pula
Ġcu bier
Ġcar reras
vi mos
Ġch icas
Ġconduc tor
ĠS Ã¡bado
Ġcandida ta
Ġrepor ta
4 8
Ġvein te
Ġenor mes
Ġcu ri
Ġconfir mado
Ġar bi
m y
Ġm ueve
ĠAyunta mientos
ĠbritÃ¡n icos
as t
Ġpar ados
Ġp unta
Ġimpuls ar
Ġdel incu
ĠSil va
Ġpre cip
... )
Ġreda c
Ġw ere
ĠMe tro
ĠDer echos
Ġdes vel
Ġconfir ma
Ġd ul
ĠM ic
iz adas
i ero
am ar
Ã³n imo
Ġesc ul
tr ar
Ġcomp ras
an cial
ĠJ ueves
ĠV iernes
ĠCastell Ã³n
Ġdia gn
Ġens ayo
or as
Ġmu ro
v ol
Ġdefini tivo
ĠMun icip
Ġdelan tero
Ġciudad ana
A r
Ġcontemp la
Ġest il
ĠGu iller
S A
Ġc es
Ġv emos
ĠcientÃŃf ico
Ġt ÃŃp
Ġcor reo
Ġconse jeros
ut h
Ġmexic anos
Ġle tras
Ten emos
ĠBara ck
Ġab und
ĠEl ena
qui dez
Ġimpres iÃ³n
Ġcomparec encia
Ġun idades
Ġman i
Ġsig las
ĠSus ana
Ġmedi as
Ġsig a
Ġterri torios
ĠC Ã³rdoba
E sta
Ġj er
ĠMos cÃº
ĠPu tin
Ġal za
ĠN eg
ĠL eg
Ġas pira
ĠP rin
Ġconj unta
k ÃŃn
ad ra
di ales
Ġco bra
Ġpreci sa
cien de
t ones
ro quÃŃ
ĠD E
tien den
Ġcapit Ã¡n
l Ã¡mico
Ġextraordin ario
Ġeduca tivo
Ġconstru ido
Ġcier tos
Ġperten ece
Ġenfrent amiento
Ġirregular idades
Ġmara vill
P A
Ġser ÃŃan
Ġpun tu
Ġelabor ado
ĠLo u
Ġpos e
Ġap arato
ol Ã¡s
Ġsuf ren
Ġconoc en
Ġjue gos
Ġparlament arios
Ġt ru
Ġmagist rado
ĠMe j
Ġpa gan
Ġdenunci ar
Ġemerg entes
Ġreg lam
Ġsec ciÃ³n
ĠHos pital
Ġsi enten
Ġsuper vis
ĠMÃ¡r quez
Ġsigui entes
Ġcompro misos
ĠM all
ĠP Ãºbl
ĠÃ© x
4 6
Ġsu mÃ³
Ġan ima
Ġren dimiento
ĠP uerto
an ia
l oria
ĠUn ida
ĠIr landa
Ġm ental
ĠPa pa
Ġsal Ã³n
ĠAnd re
Ġcontinu aciÃ³n
ĠI zquier
Ġreve la
us se
ca u
Ġincen dio
Ġ ÃŃ
ĠL an
Ġpre visible
Ġentre gar
Ġanti cip
in aria
Ġest Ã¡s
Ġle j
Ġfil as
Ġmecan ismo
Ġv ÃŃn
o o
Ġpro bar
Ġfer ro
ĠRich ard
Ġ .
Ġv eg
ab ell
Ġdes h
pe d
ĠX avier
Ġinclu idos
ĠPrim era
Ġcerc ana
Ġves tuario
ĠV e
der s
Ġso br
ĠFin almente
Ġprestig io
? ,
Est o
Ġtesti gos
Ġpatro cin
Ġju ven
Ġcine mato
Ġclub es
ien se
Ġt oler
Ġnacional ismo
Ġsep ara
Ġrev olucion
Ġespeci es
ÃŃ v
Ġre tos
ĠAust ralia
ĠGir ona
Ġinvestig ador
ĠPen al
ec o
ĠD ar
bil izar
Ġpin tor
Ġpare des
ĠHol anda
oc al
Ġterren os
Ã© ramos
ĠMer ce
Ġapun tÃ³
s ar
Ġcu idad
ing s
Ġ5 7
Ġv ieron
Ġentr ado
Ġcomis ario
ĠI b
Ġol ÃŃmp
ĠMar tes
Ġorden ador
ĠcientÃŃf ica
Ġimpon er
ci das
ĠbÃ¡s icos
Ġd r
Des de
â Ĥ
Ġhu bieran
Ġ0 5
Ġimp ac
ĠnÃº c
Ġsu puestos
Ġre lo
ĠG uer
Ġdetermin ar
Ġart ÃŃstico
Ġ5 4
Ġen g
Ġdi ciendo
âĤ ¬
Ġsuper ado
Ġmovil idad
Ġ om
Ġley enda
ĠPe kÃŃn
Ġpresiden ciales
Ġagu an
n y
Ġmedio ambi
Ġcer v
ĠCh ampions
te cciÃ³n
ĠVia jero
ĠV a
ĠAr m
Ġsober anÃŃa
Ġma tr
Ġro mÃ¡n
ĠTo das
Ġenem igo
ir ch
con s
Ġf ri
Ġal iento
Ġconf ies
Ġcine asta
Ġutiliz ado
ĠA Ãºn
Ġjur ado
Ġimpro vis
Ġdeb ates
Ġapar te
Ġinfl uy
Ġgener ado
Ġna ve
ĠsÃŃn t
ĠÃ¡ra be
Ġsir ven
Ġpo bl
gÃ¼ en
Ġfir mar
cr ÃŃbe
z ale
Ġdes esper
Ġju bil
Ġcomis iones
6 00
Ã¡t icamente
b s
ĠH ill
Ġpregun tar
Ġaprob ada
crÃŃbe te
ĠM ol
Ġcu ento
4 00
I D
Ġp ion
Ġforma ciones
Ġbra zos
Ġidi oma
Ġrad ic
ĠaÃ±ad ir
Ġ x
ĠEsquer ra
ĠL is
Ġimp ide
Ġvigil ancia
Ġpref iere
R A
Ġconcej ales
ĠC D
Ġyo u
Ġlic encia
Ġe res
id iÃ³
Ġap ell
Ġcar as
ĠGab riel
Ġherrami enta
ĠGuiller mo
Ġpor tero
Ġconoci Ã³
Ġren uncia
Ġadap taciÃ³n
ĠS ecre
Ġprotagon ismo
Ġfu ga
Ġsir viÃ³
Ġpermitir Ã¡
ist ado
Ġesca par
Ġint entado
Ġ0 9
Ġcla ves
z y
Ġbol s
Ġjust ificar
Ġun e
Ġpla tos
Ġcredi bilidad
re d
Ġad quir
Ġpos tura
Ġafec tado
her e
Ġperiod ismo
Ġdefin iciÃ³n
AR C
b ida
Ġrealiz a
Ġpos esiÃ³n
Ġvie jos
Ġres erva
Ġba ile
H ace
Ġh im
Ġ7 00
di era
Ġm Ã¡r
Ġal ianza
gr Ã¡fico
ĠRes puesta
Ġa den
ber os
Ġdesc ribe
p al
Ã³s itos
om ÃŃas
Ġefica cia
ist encia
Ġopin iones
Ġretra to
p ens
Ġfamos a
Ġ6 8
tra ciÃ³n
Ġsecre tos
Ġvig ente
Ġcomb ust
Ġcer tific
Ġretras o
ĠT VE
Ġestar Ã¡n
or ro
Ġtier ras
Ġapoy os
Ġar ena
Ġsu ger
Ġg iro
ĠMedi terrÃ¡neo
if e
Ġm ari
ĠNo u
Ġregres ar
Ġlech e
ĠEncuent ra
Ġaf iciÃ³n
ĠÃ© ste
ĠR en
Ġmanifes tantes
Ġor e
Ġur gencia
ĠAl cal
Ġne u
Ġdesp lie
Ġparticip ado
c Ã¡n
Ġbra zo
ĠInt Ã©rpretes
Ġfal l
Ġdivers idad
Ġo dio
Ġseg uros
Ġjuz gados
E E
Ġfe deraciÃ³n
Ġrenta bilidad
Ġar que
Ġrefer ente
pan y
Ġque ja
Ġcor pora
Ġcr ÃŃmenes
Ġmat ar
g aba
ĠInst ra
ies ta
ĠInstra gram
qu ero
Ġan tic
Ġcoinci de
Ġsoberan ista
ĠMi Ã©rcoles
ĠLor enzo
Ġinstru cciÃ³n
Ġ 01
Ġorganiz a
verg Ã¨ncia
Ġme te
Ġmi la
Ġdesas tre
it z
Ġliber al
Ġhabi taciones
f era
Ġherrami entas
ĠD ec
Ġneg ros
ĠGuardi ola
Ġcaden as
ĠA ut
Ġdeber Ã¡n
gip to
Ġdesapar ecido
Ġc Ã³m
ĠC aja
Ġprepar ado
Ġepiso dios
un ciÃ³n
Ġapor taciÃ³n
Ġ5 1
Ġbas ado
Ġsus crÃŃbete
Ġpres unto
ĠTer esa
es es
Ġf ur
Ġf usiÃ³n
ĠÃº til
ĠFran k
to p
Ġfir mÃ³
ĠÃ³p era
Ġr usa
Ġw e
gran a
Ġconfir mÃ³
Ġmar roquÃŃ
Ġorgan izar
re za
ĠRe pu
Ġcomen zaron
ĠNic olÃ¡s
ĠP ilar
Ġac ud
Ġos cu
Ġger ente
ĠPe ter
ĠmÃ¡ quina
ri as
ĠPol ÃŃtica
Ġblan cos
Ġest Ã©tica
L AS
Ġcar tera
Ġdro ga
Ġmu seos
Ġinterven ciones
Ġbas ada
Ġsuce diÃ³
Ġproduc en
ĠE cu
Ġtu viera
Ġserv ido
Ġbeb Ã©
T E
Ġcam a
Ġba u
Ġorgul lo
it s
Ġdes m
Ġimp a
Ġjard ÃŃn
Ġavi ones
Ġnega tivo
N E
Ġexp osiciones
Ġcontamin aciÃ³n
Ġproduc tores
Ġesper ando
ĠAlgun as
Ġcor on
Ġcon oz
Ġvas ca
ĠMon te
Ġs h
un idad
Ġsupon en
Ġvicepres identa
l us
Ġv uelos
Ġb onos
Ġapor tar
Ġrecor rer
Ġmoder na
Ġcontac tos
Ġcre ciendo
Ġdic ha
Ġs ays
Ġin y
Ã¡nd ole
ĠLatino amÃ©rica
Ġautob Ãºs
Q uer
cil ler
Ġrenunci ar
ĠcÃ© le
Ġpla cer
Ġal oj
Ġz an
Ġli b
Ġcier tas
Ġhi p
Ġau dio
Ġgu bernam
Ġrequis itos
Ġme dal
Ġprofun do
ĠCola u
Ġa tro
c am
v ieran
Ġac a
ĠA thletic
ĠV ila
Ġmo to
ta bles
it ana
Ġdes ay
Ġart ÃŃstica
re mo
T V
ti ciones
it adas
ĠPregun ta
Ġincluy en
un as
Ġha go
us es
ĠCh a
Ġpros titu
Ġpeligros o
irch ner
ĠU crania
Ġcre ador
Ġpresent an
ĠYo u
Ġes que
Ġpromo ver
Ġre ti
Ġinmedia ta
Ġabst en
Ġl in
Ġdi vis
Ġcan ta
ci ado
Ġgu ÃŃa
ĠCa ixa
Ġper cepciÃ³n
Ġprop ici
Ġtri ple
ĠEst atu
Ġofer tas
Ġt Ã¡c
enci ales
Ġmoder no
Ġpare jas
Ġreserv as
ga ciones
Ġexcep cional
ĠMerce des
Ġdesarrol lado
Ġcircu ito
4 9
Ġposi tiva
Ġemple ado
7 5
Ġmuer tes
Ġves tido
3 2
Ġafir mado
Ġur gente
Ġende ud
Ġvalenci ana
Ġespecial ista
Ġhi pÃ³
gr ado
ĠK e
Ġindic Ã³
Ġpre ju
ĠhistÃ³r icos
Ġnorm alidad
ĠrÃ¡p idamente
Ġcuadr os
v iendo
os ten
Ġmal as
Ġacus a
Ġdi je
k ers
ÃŃ dos
ĠdÃ© ci
Ġen amor
ĠM ora
Ġpas aron
Ġes quina
Ġon ce
Ġgrave dad
Ġr ural
Ġplan e
ri les
19 8
u b
f il
Ġno ctur
Ġcompar aciÃ³n
Ġentrev istas
Ġt era
Ġdig nidad
Ġcoordin ador
an der
uer tos
Ġv esti
ta des
Ġcal cul
ĠÃºn icos
ĠC in
ĠI ma
Ġcons cientes
Ġp las
Ġprovoc ar
Ġbor de
Ġac oso
Ġin Ã©di
Ġaum enta
Ġacus Ã³
cin co
Ġdescu bierto
h ay
ros o
Ġhabl ado
Ġh arÃŃa
Ġle ma
8 00
e qui
ĠBre xit
Ġamist ad
Ġrealiz ada
Ġincre ÃŃble
gu i
ĠCor rea
Ġempie zan
Ġgaran tiz
Ġ6 6
Ġdestru cciÃ³n
Ġsup uso
ĠJa ime
ĠCon vergÃ¨ncia
T he
m ig
Ġco p
Ġviv a
Ġref uer
Ġinici ar
ĠAs untos
for mas
Ġtur ÃŃstico
Ġusu ario
Ġcom bate
ĠT V
Ġcompar te
Ġcrim inal
ĠC O
Ġpar eciÃ³
ĠjurÃŃ dico
Ġjug Ã³
ĠmÃŃn imos
Ġten ÃŃamos
ĠM ara
Ġreg ionales
Ġprovin cias
ĠMan cha
ww w
Ġa bert
Ġtra mp
ĠpÃºbl icamente
Ġ5 8
Ġenvi ado
ĠER E
Ġcompren der
ĠE gipto
Ġrev Ã©s
Ġcho que
Ġo jo
Ġquin ta
M u
Ġintro ducir
Ġdestac an
Ġhabla ba
Ġvir us
ĠTra baj
ĠA D
uel to
Ġdenunci ado
ĠF ar
Ġesp ecu
ĠPar ece
Ġ199 8
t he
H ab
To do
Ġli quidez
ci sta
re y
Ġcre ciÃ³
Ġatrac tivo
ĠDemoc r
g ona
olu ciones
Ġperf ecta
Ġvolver Ã¡
Ġdes ac
ĠMar k
e des
Ġdesa hu
ĠcontemporÃ¡n eo
ĠI l
Ġameric ano
ĠA gr
is co
ĠF MI
Ġ6 7
Ġrebaj a
Ġde ca
Ġj ap
Ġresiden tes
ĠMar ina
Ġal iados
at h
Ġoc ta
ĠD en
Ġmo ciÃ³n
Ġje fes
Ġbril lante
Ġf us
Ġpl en
ste in
Ġpara ÃŃs
ol d
ĠA ran
Ġp i
Ġimp re
Ġcarre teras
Ġdesem b
bi tro
F ue
Ġp uro
Ġgaran tÃŃa
Ġconfir m
Ġcerem onia
res as
ĠPer e
Ġven de
Ġenc aj
Ġcomen zado
ĠComer cio
Ġres cat
Ġnacional idad
Ġtempor adas
Ġe cu
Ġde udas
ĠCh ica
ĠL lu
gan istÃ¡n
Ġconv iene
Ġinmobili aria
Ġmas a
y D
Ġdis capa
h asta
Ġpre de
Ġun ifor
Cu Ã¡n
Ġdesp la
c Ã³mo
ĠL am
Ġch ina
Ġch inos
ĠN osotros
Ġdeci dieron
Ġprofes ora
ĠS tar
duci da
Ġfamos os
Ġexclus ivamente
ĠelÃ©ctr ica
Ġs ist
Ġco pa
Ġemo ciÃ³n
Ġestruc turas
Ġdim ensiÃ³n
ĠÃ¡rbol es
Ġn omin
iv idad
Ġhoriz onte
Ġjug ando
Ġlu ces
pres iÃ³n
Ġreca ud
lo w
Ġro tun
Ġtrans por
Ġcompar ten
Ġe cos
ul ada
Ġintelig ente
c olo
Ġr ent
g i
Ġa ro
P F
re e
ĠJ udicial
Ġmig ra
ĠMall orca
Ġafec tan
Ġbom bar
Ġviv ÃŃa
Ġis las
ens iones
ĠC Ã©s
Ġrefer encias
Ġdor mir
Ġsent imientos
Ġrecuer dos
Ġmu tu
Ġperman ecer
ti bles
Ġfinanci ar
Ġprovin cial
Ġdefini tivamente
Ġcamis eta
on s
Ġ9 5
Ġresid uos
Ġespecial istas
Ġobs erva
Ġinclu ida
ĠVic toria
u tas
ist en
Ġsu ena
ol ÃŃn
Ġg ro
9 9
Ġpres ide
Ġpas aba
Ġtro pas
Ġses iones
ific ados
Ġfel icidad
ĠTra bajo
Ġles iÃ³n
Ġrema te
Ġp usieron
Ġre ver
Ã ģ
ĠÃ³r ganos
Ġ199 5
l im
p osiciÃ³n
Ġse man
Ġobs es
ĠperiÃ³ dicos
Ġaconte cimientos
ĠRe ina
Ġon e
Ġterri ble
Ã± Ã³n
Ġllegar Ã¡
ĠNav arra
tr ices
Ġdirig ir
Ġdomin io
Ġcontro les
Ġexig encia
Ġ20 20
Ġemo ciones
Ġpa gado
Ġsegu imiento
ĠK im
Es paÃ±a
l ados
ĠGra cias
B arcelona
C omo
ĠtrÃ¡ mite
Ġcre ada
Ġsent irse
Ġjug ada
Ġapren diz
Ġb ron
ĠBe at
Ġocciden tal
Ġb rin
Ġro daje
Ġfu i
Ġven ÃŃa
Ġf oco
Ġr entas
ust o
Ġmal tra
Ġdeman das
Ã©n dez
3 1
Ġextraordin aria
Ġautor a
Ġindepen dientes
Ġap as
M S
ĠN atur
Ġban caria
ge la
ĠRo b
ĠreÃºn e
Ġvalor aciÃ³n
Ġprece dentes
Ġpla zos
Ġsac Ã³
Ġde bil
Ġpo tente
Ġlabor atorio
Ġmul ta
ĠRu b
ter ÃŃas
ĠE lec
ri e
Ġentre ten
N G
Ġcon tado
ĠD ur
Ġquer ÃŃan
ĠGas ol
Ġcor e
Ġgu ardia
ĠMay or
Ġpar ada
Ġalcal dÃŃa
Ġmues tras
Ġburbu ja
Ġp ene
tor o
ĠAf ganistÃ¡n
ĠM olina
ĠB ien
ĠB las
Ġac lara
Ġr inc
ÃŃ timo
Ġtrabaj ador
Ġadolesc ente
Ġmales tar
Ġnove dad
Ġter remo
Ġdefin ir
ĠÃŃn dice
Ġelectri cidad
m s
Ġpa ta
L L
Ġleg i
Ġin greso
ĠHab ana
Ġcompeti tividad
1 00
Ġen cer
Ġsome ter
Ġg eo
ĠS ara
cu enta
Ġapar ecer
Ġidentific ar
ĠP rado
Ġindi cios
Ġsosp echa
Ġejemp lares
Ġcan ales
Ġparticip Ã³
ator ios
ĠcuÃ¡n to
Ġcoleg as
Ġembaj ador
Ġp ru
Ġlan zado
Ġsin ies
Ġhom ici
ĠIgu al
F P
aliz ados
Ġc ena
Ġ199 6
op ol
Ġportugu Ã©s
f ir
Ġabor to
ĠfotÃ³graf o
C h
Ġde stitu
Ġcor reg
Ġimagin ar
Ġvoc aciÃ³n
f u
Ġencontra mos
Ġcuar tos
Ġrelacion adas
jer as
Ġpro greso
Ġt Ãºn
Ġma cro
Ġatra ves
Ġpros per
ĠF ra
Ġnov ia
Ġvan gu
ĠCÃ©s ar
ĠSan z
mi taciÃ³n
Ġfi el
Ġpublic ada
Ġestu vieron
Ġadecu ado
st atus
ic ados
ĠB lo
ÃŃn sula
Ġen viÃ³
u to
Ġgol pes
ad y
rim ir
Ġsan itarios
Ġtre inta
Ġem isiÃ³n
ĠÃ©x itos
Ġh em
et ty
a ve
Ġmar gin
Ġconserv adores
ĠDirec tor
i maciÃ³n
Ġcon lle
ĠIn s
ÃŃs imos
Ġhi jas
Ġatra vi
Ġar gentina
Ġpe da
Ġatra er
Ġcre adores
i adas
Ġconf un
Ġenerg Ã©tica
Ġeuro zona
Ġacum ula
P o
Ġinv itados
ĠCon ferencia
Ġdes in
Ġmin or
Ġfil ial
Ġvuel ven
Ã¨ s
p ul
tra je
ĠEs co
Ġvent ajas
Ġgratu ita
Ġentusias mo
Ġcor ri
B I
Ġreclam ar
t le
Ġre duce
Ġnecesita mos
ĠH el
ĠGu ti
Ġpien san
Ã©l gica
Ġp istas
qu illa
ole do
Ġdiagn Ã³stico
ĠA un
Ġcapa ci
Ġauton omÃŃas
op le
ĠMun do
Ġde bilidad
ĠCan arias
Ġeconom ista
ĠC ine
Ġexclus iva
ĠAm eric
Ġt ales
Ġ5 3
Ġ7 8
ĠTu rismo
ĠCerv antes
Ġen cen
Ġca e
Ġinv ent
Ġabier tos
c y
Ġmor tal
Ġbar es
4 4
ti enda
Ġdes alo
lan dia
Ġnorteameric ano
ĠC he
ent almente
Ġ199 0
Ġas amblea
k in
Ġgo vern
ĠHu go
ĠC Ã³
Ġtir os
Ġmus icales
Ġlanz amiento
ĠE S
Ġinfraestruc tura
Ġcan ciller
segur idad
Ġac cionistas
Ġe vi
Ġab ur
cÃ© tera
lam iento
Ġtar d
Ġh uy
Ġse llo
Ġcoop era
ĠT el
ris as
Ġigual mente
Ġos cur
ĠE FE
ĠP in
Ġexp ul
Ġadminist raciones
Ġno tas
Ġpres taciones
Ġde je
Ġsi tios
Ġasc enso
Ġrecha zÃ³
Ġc ro
Ġvic torias
Ġc ÃŃrculo
Ġta x
ĠLi ber
ĠPas tor
ĠGre en
Ġconfies a
i ka
es en
ĠS ac
ĠP ac
Ġasist ir
Ġpul so
ĠR io
Ġrecauda ciÃ³n
Ġin to
dan gar
ĠG E
Ã© ticos
Ġdiscrim inaciÃ³n
ĠS tan
Ġanunci ar
mit h
Ġsue Ã±os
Ġcelebr arÃ¡
Ġam iga
Ġsa id
Ã¡st ica
gÃ¼en za
Ġapar ta
Ġtaller es
voc es
Ġi P
Ġ ola
Ġconstitu ye
Ġviv imos
Ġadqui rir
mi ta
Ġavis o
ĠÃ į
ĠGar zÃ³n
ĠRepu blic
Ġ( @
Ġestudi ante
Ġp ira
Ġle tra
ĠTh omas
ĠEm ilio
Ġinter nos
Ġenfrent arse
c ciones
Ġedi l
Ġargu menta
Ġsuperviv encia
lo cu
Ġes encia
Ġcan tar
ĠHum anos
Ġparal elo
Ġdirec tiva
Ġabert zale
Ġrele v
er ios
Ġw ork
Ġexig encias
enda k
ĠV itoria
Ġit s
Ġdibu jos
ĠRom ero
Ġl anza
Ġcumpl en
Ġprop uso
Ġpe ticiones
Ġfavor able
ĠT es
Ġdispon ible
v Ã¡n
ur ales
Ġinmedia tamente
Ġd arÃ¡
ĠJ an
Ġentren amiento
ĠA par
Ġmo d
Ġhici era
Ġmone taria
o per
Ġra tific
til l
Ġafir m
g Ã³n
Ġintent ando
ici as
Ġpos ee
Ġtotal idad
in Ã³
Ġpres erv
ĠO lÃŃ
Ġimagin aciÃ³n
Ġbas a
Ġinm ensa
en ce
Ġ199 2
Ġn atal
ĠautÃ©n tico
ch Ã³
Ġencontr aron
Ġmin orÃŃa
Ġconse jos
ĠTom Ã¡s
ĠMo ham
ĠOlÃŃ mp
j idad
Ġinten ciones
ĠServ icio
Ġp enas
Ġet cÃ©tera
e ada
Ã ī
ĠEsper anza
Ġsan ciÃ³n
Ġtemper atura
Ġher encia
Ġju bi
Ġmis er
Ġdepen dencia
f icaciones
Ġabs ur
Ġpens aba
Ġc itado
arra gona
Ġqu itar
Ġco un
ches ter
Ġvas cos
ite d
Ġcircu laciÃ³n
Ġselec cion
es c
ÃŃ fic
Ġad mir
Ġ6 4
all ero
Ġguar da
Ġd anza
Ġro to
Ġacog ida
Ġpec ul
Ġvis ible
Ġestable cido
ĠdÃ© bil
ir as
Ġindependen tismo
ĠPS E
Ġutiliz an
Ġ7 2
ĠJa ume
ÃŃ g
la va
qu eros
Ġdes ierto
ĠOc cidente
Ġdeterior o
br ados
ĠIndust ria
Ġinten sa
p r
Ġma f
Ġmadrile Ã±os
ĠUr dangar
Ġdiscipl ina
g entes
Ġe mitir
Ġan uncia
ĠO tras
Ġr aro
an im
rag Ã³n
Ġsho w
Ġpens ado
Ġregist ros
A E
Ġdoc ena
Ġadecu ada
Ġf um
Ġhor ario
Ġrep ite
Ġba Ã±o
ĠPh il
Ġin cur
Ġinter rump
Ġdirig iÃ³
Ġmanda tario
Ġpromes a
e f
g ico
iv ia
Ġ199 7
e di
onces to
ĠS y
b ados
ĠR E
Ġmedio dÃŃa
Ġin tu
Ġtitular es
Ġf ant
ĠBale ares
Ġpe ople
Ġapar tado
Ġsobreviv ir
Ġproduc tividad
Ġcar teles
Ġcal ificÃ³
ĠprÃ©st amos
Ġ @
Ġd irÃŃa
ur t
ĠR oc
Ġcin cuenta
gu Ã©
Ġc Ã©n
Ġtren es
ĠO C
Ġhistori ador
h endak
Ġj oy
Ġsupon er
Ġvay an
ĠcapÃŃt ulos
Ġfactura ciÃ³n
Ġre duc
Ġcat Ã¡logo
ĠChica go
Ġpa tio
ra ba
Ġdest ro
Ġcier ra
ĠcÃ¡l culos
Ġcolombi ano
Ġcos tÃ³
Ġdisposi tivo
te z
Ġf estiv
Ġcan s
ĠPo der
Ġencar cel
Ġequival ente
Ġtrabaj Ã³
Ġblo g
Ġ6 2
Ġtra je
Ġobten ido
Ġjust ifica
Ã©r ico
Ġimplic ados
Ġfuncion ario
Ġsent ado
Ġfras es
Ġdes b
os idad
por t
por que
ta g
Ġalim entaciÃ³n
Ġbom ba
Ġplata formas
ĠT r
b ano
or den
os itores
Ġescri tora
oc ada
ĠEcu ador
ĠD am
ĠPro vin
7 00
Ġret ribu
ĠM esa
Ġsal ieron
Ġagen cias
Ġun ila
ĠCom pro
Ġcomprome tido
Ġh ero
Ġpre visiÃ³n
Ġw o
ĠPla ta
Ġen rique
Ġaband ono
ĠIzquier da
Ġazul grana
Ġacre edores
Ġde pos
Ġhabr ÃŃan
Ġinmobili ario
bo a
lan tes
Ġguer ras
te a
ĠC ur
c ola
ti zÃ³
Ġdest inado
Ġfemen ino
Ġmor e
Ġob is
Ġgra tis
ĠA ren
Ġsubra yÃ³
Ġpas arÃ¡
bl an
Ġqued aba
Ġinterpre ta
Ġtrans mitir
ĠMu chas
ĠUP yD
ĠC S
qu eras
Ġdistin gu
ĠSer Ã¡
Ġmagist rados
rue ba
Ġintercambi o
ab Ã©
Ġprop uesto
ork a
van cia
ĠRo ja
Ġrazon able
Ġestad ÃŃsticas
Ġoscu ro
ĠS Ã³lo
it ano
ĠG an
Ġper u
Ġesc enas
Ġcom entÃ³
Ġcenten ares
ĠG or
Ġal so
ĠTele fÃ³nica
Ġsigu iendo
Ġmodi ficaciÃ³n
ĠCambi o
Ġpro tec
ĠL l
Ã³lo ga
Ġre tÃ³
ĠEstatu to
b us
Ġir se
estruc tura
in d
us as
Ġ199 4
Ġdem ues
Ġambi ental
Ġcampe onato
Ġadop tar
Ġe cl
cios a
Ġc oca
gu raciÃ³n
Ġten siones
Ġejerci cios
ĠJul i
Ãº r
Ġmes as
Ġles iones
Ġima g
Ġdescub riÃ³
iz ca
til idad
Ġra to
Ġcomp ara
ĠM Ãºs
Ġco her
ĠOp eraciÃ³n
Ġderi va
ĠsÃ© p
Ġ0 7
pon er
ĠPres idencia
Ġdefen dido
Ġabs or
Ġresul tar
Ġimp one
Ġaplica ciones
Ġvuel va
Ġprove edores
Ġgra cia
Ġdic h
w o
Ġre m
ce d
Ġab us
Ġesc asa
Ã± igo
Ġescri tura
Ġpre fi
Ġre mit
Ġsent im
Ġhech a
ER S
5 8
Ġrealiz adas
ĠclÃ¡s ica
g ÃŃa
Ġsencil la
ĠM uy
ues tos
Ġesta ciones
Ġpl Ã¡stico
ĠPan amÃ¡
ĠespectÃ¡ culos
ĠC iencias
Ġcon me
ol os
Ġalim ent
E ra
ĠMich el
u z
- ;
ĠH un
5 6
r arse
Ġautom Ã³vil
ĠMunicip al
at ÃŃa
Ġpla to
fi anza
ĠLi bia
ĠJu z
Ġc ement
de la
Ġtraslad ado
Ġde mo
Ġs at
Ġimp uso
Ġcam inos
Ġconvoc ar
ed ido
Ġinteg rantes
T u
Ġp ist
Ġper dÃ³n
Ġho ja
ĠseÃ± ora
n ado
da y
Ġmu rieron
Ġcabal lo
m ala
as tas
ĠP Ãºblica
se a
Ġrepres iÃ³n
j i
Ġinici ado
Ġposterior mente
ĠBla ck
Ġd ona
Ġpresent arse
Ġ5 9
Ġautor izaciÃ³n
Ã³ so
Ġel og
ĠP icas
Ġprohi biciÃ³n
Ġto cado
Ã¡n tico
Ġcomple ja
Ġvalenci anos
b ores
Ġgu ardi
Ġinten so
v ada
Ġpro ba
Ġto c
Ġreg la
Ġconoc ÃŃa
ĠI II
Ġsab or
Ã±a ki
Ġcer rada
direc tor
r Ã³n
ĠB Ã©lgica
ĠMon toro
Ġconsig u
ĠV el
cl ar
Ġinici almente
ĠUrdangar in
Ġreci bieron
Ġdedic Ã³
Ġarch ivo
Ġap o
ĠPu bl
Ġcon ducir
Ġr id
ĠLle ida
Ġvein tena
Ġth ere
Ġmaes tros
Est oy
Ġinterpre tar
ol id
Ġemp ate
ĠAs imismo
Ġex minist
Ġrep ente
Ġorques ta
Ġdiscur sos
ator ias
f un
ue de
Ġgal erÃŃa
Ġcoloc ar
Ġe co
ĠMar cos
tre m
Ġf la
gr Ã¡f
Ġenvi ar
Ġgovern ment
ĠAma zon
Ġca os
Ġace ite
ic to
Ġre torno
Ġex con
Ġpier nas
ĠÃ¡mbi tos
Ġlogr aron
Ġsolici tar
Ġpreci so
g ol
Ġmin im
di lla
ĠN BA
Ġbar ro
ĠEn erg
Ġejemp lar
Ġdemoc ra
Ġcomb inaciÃ³n
Ġurb ana
Ġcontun dente
Ġmi to
oc ar
Ġjuven il
hendak ari
Ġcons a
Cu Ã¡l
ĠautÃ³n oma
ĠPe pe
Ġexplos iÃ³n
cis amente
ĠmÃ¡ quinas
gr ada
Ġher mos
Ġsuel dos
P ar
Ġsol amente
mar ÃŃa
s elo
ĠseÃ± ales
Ġestu viera
Ġmas iva
Ġrele vo
Ġven dido
Ġregist rÃ³
Ġal f
Ġcar o
Ġcerv eza
Ġtra tan
Ġproy ecciÃ³n
ĠMu jer
Ġfalle ciÃ³
Ġtrabaj aba
Ã©r rez
m ados
or s
Ġcele bran
Ġinno v
Ġafect adas
Ġdis cul
M ar
americ ano
Ġrefug io
Ġsen ador
Ġform al
ĠTen ÃŃa
Ġfranqu ismo
equi po
a ger
ĠW all
Ġrecord ado
il an
Ġayunta mientos
Ġ Ã³
Ġtu ve
Ġjug ado
ĠG orka
ĠS em
Ġ0 6
Ġdesp l
Ġsent enci
Ġvolun tarios
Ġwo uld
Ġtranquil idad
z arÃ¡
al lar
Ġsustitu ir
Ġf este
per s
Ġmateri as
ta t
fici o
Ġreg ala
Ġcritic Ã³
Ġsegu ÃŃa
ĠW orld
Ġindic an
Ġexplic aba
Ġse mes
Ġtra tÃ³
Ġche f
ÃŃ metros
ĠV o
Ġbre cha
Ġin cidente
Ġsolici tado
Ġque de
Ãº car
Ġefec tu
ĠP ine
Ġabandon Ã³
Ġc oy
ĠG oya
v ie
Ġapoy a
Ġenfer mos
ket ing
Ġconoci mientos
Ġbo de
Ġagres iÃ³n
Ġr in
Ġconsum idor
ĠMor ales
ĠAlcal Ã¡
Ã± Ã¡n
Ġexcl usiÃ³n
Ġ7 7
Ġsa cu
Ġestable cimiento
Ġinau guraciÃ³n
Ġcrist al
er Ã¡
Ġgri tos
Ġmodific ar
ĠEsc uela
ĠGuti Ã©rrez
Ġe jÃ©rcito
ĠC le
Ġcaus ado
Ġpromes as
R E
Ġesc la
Ġfal so
ĠseÃ±al ar
Ġcru zar
! âĢĿ.
a ta
Ġa gar
ĠOr tiz
ĠNÃº Ã±ez
h is
gar Ã¡
ĠWilliam s
ĠS ierra
ĠG reg
Ġarran ca
Ġempres ariales
Ġdig itales
ĠLu la
ĠlÃ³g ico
Ġv ÃŃs
ĠBern abÃ©
T O
Ġg ris
Ġact Ãºa
Ġelabor aciÃ³n
ano va
Ġofici almente
Ġe ficiencia
ĠpolÃŃt icamente
Ġsuficiente mente
Ġan g
om en
Ġauto de
vi as
Ġfel ici
Ġexten siÃ³n
Ġdos is
Ġig uales
Ġpon iendo
Ġflam enco
Ġpudi eran
Ġmedi r
Ġfu tura
dem Ã³cra
Ġelectr Ã³nica
Ġguitar ra
Ġreme dio
Ġmedic amentos
Ġint entos
Ġcon m
cul ares
Ġapren dido
Ġllam ados
Ġsos tienen
Ġsim ul
Ġajust es
Ġvul n
ĠPres s
ĠEl los
Ġfil Ã³so
Ġtraslad ar
ĠdemÃ³cra ta
Ġ201 9
ĠGu adal
Ġpr ÃŃncipe
Ġprim aria
Ġmuch ÃŃsimo
Ġjue gan
ĠPa ulo
Ġfuncion ar
Ġi ra
Ġle ÃŃdo
ĠEst oy
ĠAl merÃŃa
Ġo cio
Ã³r ico
Ġcons erva
C C
Ġisrael ÃŃ
in ada
ĠC ari
Ġfig uran
5 9
ĠN ingun
Ġcan ad
ic ho
Ġcu mp
ific ada
Ġconsidera ble
Ġtras lado
ĠelÃ©ctr ico
Ġhue co
ĠLa ura
ĠI Ã±aki
ĠPar que
ĠcÃ³ digo
Ġsol edad
ĠT oledo
Ġpro m
Ġcol ap
Ġoblig aciones
Ġfra c
es p
ĠR oca
Ġver siones
Ġsuper mer
Ġdetermin ados
ĠBro ok
n ist
Ġnie ve
ĠA ragÃ³n
Ġag reg
Ġca za
Ġfin ca
Ġaudio vis
h ab
Ġide ologÃŃa
Ã± Ã³
Ġven gan
Ġreun iÃ³
Ġaprendiz aje
Ġrecha za
ĠCÃ³ digo
Ġpor tada
5 7
cor e
Ġsol ar
t te
eces ita
qui la
Ġal ine
Ġau x
Ġtestimon io
Ġpresent aron
Ġbo da
Ġrevis ar
Ġpres iones
Ġlar gas
tif ica
Ġest ancia
ĠU ru
Ġelector ado
b ara
xi mo
Ġdesapar ecer
Ġandalu za
Ġpla yas
Ġconvoc ado
Ġaprovech Ã³
all y
Ġcur r
Est Ã¡
ĠT ribu
Ġprim as
Ġvuel tas
Ġclar as
Ġinc Ã³mo
Ġh ues
Ġsa que
ol fo
ĠA P
Ġpa gÃ³
Ġh arÃ¡n
Ġd ada
Ġe va
Ġrepres entar
Ġba terÃŃa
Ġdiv ul
ent ino
eci eron
Ġestable cimientos
Ġrecuper ado
Ġpartid arios
as te
Ġlo g
ĠD in
ĠS co
ĠL lor
ĠF amil
z ano
ĠUn ited
ĠRo usse
Ġcon gres
ĠhipÃ³ tesis
Ġexp lÃŃ
Ġcam ar
ĠVar gas
eta fe
Ġ %
al la
ĠLe e
ĠPicas so
g na
Ġpre venciÃ³n
Ġvis ual
Ġincu mpl
Ġcu Ã¡les
Ġaproxim adamente
que tas
ĠB ea
Ġfr ÃŃa
Ġm ue
Ġtre men
Ġinforma ciones
Ġdue Ã±os
ĠDipu tados
O O
co pa
Ġrespe tar
Ġdin Ã¡mica
Ġf lores
Ġvide oj
or rupciÃ³n
Ġquier an
Ġg re
Ġb arcos
Ġlim itado
Ġintelec tuales
Ġrig or
Ġs Ã¡
ĠAl len
ĠdiseÃ± ado
ĠP onte
Ġdese quil
Ġpis cina
Ġjud ÃŃos
ĠR og
Ġman eras
Ġ( ...)
Ã¡st ro
Ġd uras
Ġprepar aciÃ³n
ĠHu bo
Ġveter ano
Ġmovil izaciÃ³n
ĠMar co
p in
ĠV ÃŃa
Ġinter medi
Ġdepor tiva
ti go
Ġliter ario
ĠnÃºc leo
ĠC if
Ġir an
Ġconserv aciÃ³n
ĠV ega
C O
ces a
ĠSe gu
Ġaust ral
Ġ ida
Ġque jas
tr Ã¡fico
mÃ³ s
Ġdesp ro
ĠJuz gado
pu laciÃ³n
Ġfavor ito
Ġreconoc en
Ġo este
ĠM ill
Ġsal arial
Ġequil i
Ġsuf rimiento
Ġexc usa
g Ã©n
C reo
te ar
ĠUn idad
Ġpien so
Ġ7 6
ĠSo fÃŃa
Ġap el
Ġoblig ados
Ġnove dades
Ġconf ron
Ġreper c
Ġde biÃ³
ĠSue cia
des de
Ġmusul manes
Ġinterro g
Ġdes cal
i tivo
tor ÃŃa
Ġcos tado
Ġacab e
Ġanunci os
ĠO fici
Ġsitu ada
Ġsol id
por aciÃ³n
Ġdispu ta
Ġcuri oso
Ġavan zado
Ġbos que
Ġpecul iar
i anas
Ġal turas
Ġcoy un
ĠQu izÃ¡s
Ġtir ar
x ia
pi Ã©
Ġc aj
Ġr usos
Ġsign ificado
L A
qui to
ĠdemÃ³cra tas
it enci
Ġcu sto
Ġcontra tar
Ġtea tral
Ġ 00
arc as
al ismo
Ġes g
uel va
Ġvalor ar
Ġgrab aciÃ³n
I T
Ġab uelo
Ġus a
Ġcon gel
Ġinde fin
Ġclar idad
Ġde do
Ġest ÃŃm
Ġr ico
ĠMa ta
Ġsub e
Ã© p
Ġten dencias
ril l
ĠAgu st
Ġsepar aciÃ³n
Ġpaque te
at ales
Ġcoordin aciÃ³n
Ġprev ent
Ġvir tual
Ġdesconoci do
por tivo
Ġper ros
ĠmÃ© dica
ĠraÃŃ ces
Ġdeb u
Ġcorrespon diente
Ġproto colo
ĠAut Ã³n
ĠJohn son
ĠBB VA
Ġgust an
ĠIs lÃ¡mico
Ġproce dimientos
Ġrecon stru
TA N
Ġexam en
ĠCarm ena
ĠC av
Ġh ice
Ġvenezol ano
Ġprepar ar
Ġreper torio
ĠFo to
Ġpol it
ĠUn iÃ³
ĠPre cisamente
Ġmist erio
ĠR adio
Ġpre dic
Ġambi ciÃ³n
ĠAT LAS
Ġcla us
cÃ© ut
ĠFer ro
Ġfal tan
ĠLu cas
ĠAD N
Ġdeten er
Ġfa chada
r adores
Ġsens ibilidad
ĠA C
ce dentes
ĠtelÃ©f onos
m ÃŃs
ĠL una
Ġinv is
Ġin gre
Ġper ro
ĠRod rigo
Ġl ingÃ¼
Ġcomp osiciÃ³n
Ġjug ue
Ġat ribuy
Ġdetal la
ĠS mith
Ġinv itado
Ġ6 3
ĠRu bio
tr ina
ĠB ajo
Ġinstal ado
Ġpar ed
ĠP l
ĠG ro
ment aciÃ³n
ti era
Ġpor tal
ĠS aba
Ġco bran
Ġexpe dientes
Ġestr ena
Ġcom ba
Ġent ero
Ã¡r ma
Ġdefien den
Ġapar entemente
Ġacab aron
k u
el d
Ġsub ido
Ġt aba
ĠF ARC
Ġab uso
ĠBu ena
Ġg ab
Ġactiv istas
Ġcasti go
Ġcomple tar
Ġat mÃ³s
an tÃ¡n
Ġf ans
Ġsu biÃ³
Ã©rpre te
Ġsex to
o is
iden tes
Ġbanc ario
S iempre
Ġan gust
gu er
Ġbiblio teca
Ġsemej ante
Ġlig er
Ġabandon ado
Ġtranquil o
l ing
ta c
Ġpele a
Ġaclar ar
Ġ197 8
Ġd iga
Ġp echo
ve dra
Ġinfor mar
Ġimp le
Ġpes os
Ġcat Ã¡stro
Ġest ados
Ġavan za
ĠSer ra
Ġbom beros
Ġd uros
ĠA cu
Ġapar atos
Ġopera tivo
ur ense
Ġespe jo
Ġcri tica
Ġbicic leta
Ã¡ frica
tr ico
Ġha bil
ĠA ten
ĠL lo
Ġle hendakari
ac ciones
ĠCon tra
Ġanti ci
ev in
ĠCam po
Ġs eno
ĠPol onia
Ġconf ig
Ġreg alo
Ġoptim ismo
Ġrelev antes
6 8
d ras
tr ados
Ġver des
Ġcon mo
it aron
Ġcontro la
ĠautÃ©n tica
T e
ĠK ing
Ġdifer enci
Ġpr Ã³r
Ġau ge
Ġfortal eza
Ġcor ro
DE O
ic Ã³p
ĠMar s
Ã©c do
Ġcon tiene
Ġcam in
Ġru tas
Ġpers ecu
Ġfemen ina
er t
Ġconf ÃŃa
Ġcelebr ada
Ġh ilo
e de
americ ana
Ġbrasile Ã±a
d amente
Ġterra za
cion an
Ġprome te
Ġnarco trÃ¡fico
ĠTrans iciÃ³n
Ġindi rec
Ġcatal anas
dad as
Ġa venida
! !
Ġata car
u ters
pen as
Ġviol aciÃ³n
Ġconduc ta
Ġl ad
Ġas ent
ion istas
Ġdeb ÃŃan
ĠH it
Ġpreten den
ko a
je tas
Ġpe dÃŃa
Ġfacil idad
Ġelabor ar
Ġperpe tu
uer as
ĠCol eg
Ġdisf ra
ĠD ÃŃ
Ġhor ror
Ġne gar
Ġdim ensiones
Ġlegi timidad
Ġt ime
ĠV in
ig as
leg Ã³
4 2
Ã± al
Ġnombra miento
Ġdesp ido
Ġabo ut
Ġen ve
uev en
ĠÃ© tica
Ġdec ena
ĠN uevo
Ġla teral
Ġmanifes tÃ³
Ġdispon ibles
pany ol
Ġhabl amos
a co
ĠP ens
ĠO br
uel ve
Ġterremo to
s car
Ã± ada
Ġnav eg
ĠUru guay
âĢ¦ )
Ġautob uses
la ve
ĠB l
Ġimp erio
Ġafir man
ĠV idal
ĠK en
Ġ6 9
Ġpresent arÃ¡
Ġfom entar
Ġan aliza
Ġestrateg ias
Ġcan cha
ad u
Ġbor do
ĠMej or
Ġextra Ã±a
Ġacudi eron
i ciones
Ġf es
Ġo pa
Ġo ÃŃr
Ġenem igos
Ġex ilio
Ġinmue bles
ĠEstudi os
ec k
Ġfin anzas
Ġrecha zado
Ġven den
Ġoblig Ã³
Ġbro me
ĠcÃ©le bre
ĠMÃºs ica
ĠL A
et s
Ġespal das
Ġint Ã©rprete
Ġh ones
Ġmos tra
ĠPat rimonio
Ġpropa ganda
Ġneces ariamente
Ġexpres a
ab o
uev os
Ġsemes tre
O X
ue ga
ĠD oc
st ed
id i
Ġliter aria
Ġentrev ist
ver de
ens es
im nas
Ġincapa z
Ġpens iÃ³n
Ġplante ar
N unca
ÃŃgen as
Ġescri ta
Ġlar gos
ĠM em
Ġpos t
Ġinteres antes
id ge
pe dal
Ġmon tar
ĠAra bia
ol viÃ³
Ġinst ancia
ĠT arragona
Ġver gÃ¼enza
Ġnov el
Ġcompe tid
ĠBernabÃ© u
Ġco ger
den a
Ġdesgra cia
Ġrealiz an
Ġenfer m
Ġpreten dÃŃa
Ġretir ar
Ġs illa
cu al
y ecto
ten se
Ġneg ado
Ġt itu
cri tos
Ġpubl ica
Ġfi jar
Ġhel icÃ³p
C om
ĠTen go
Ġpreci siÃ³n
Ġbio grafÃŃa
Ġl um
ĠdiseÃ± ador
Ġcuel lo
p ados
Ġinter nas
ic ana
Ġmun diales
Ã¡ us
ch ill
tr ada
iz as
Ġsub asta
Ġutiliz ados
bral tar
Ġproce dente
ĠUr ban
Ġt in
Ġf Ã¡rma
Ġ9 9
ĠHer rera
Ġliber tades
ĠC ro
Ġcol abora
Ġdif usiÃ³n
Ġun ido
Ġbarcel on
Ġp iano
Ġcomp rÃ³
Ġpresent ada
Ġreligios a
Ġcontribu ir
Ġcom and
Ġtom an
Ġc lam
du re
Ġcircunst ancia
Ġperspec tivas
Ã³ f
ĠEs os
Ġna ciones
ĠHol lande
w are
ĠW ood
Ġser lo
mar t
Ġbal oncesto
E x
Ġse vill
ĠC ual
ĠS oy
Ġan Ã©cdo
et h
Ġconcep tos
Ġcuan tos
ĠUn as
Ġlocal idades
Ġprovis ional
Ġmon stru
Ġust edes
ĠDol ores
trem adura
n an
Ġcal ma
Ġnom brado
ĠTo ur
t za
Ġ6 1
Ġacep tÃ³
Ġefec tiva
ĠR oy
Ġfundam entalmente
Ġagr ÃŃ
Ġaf ter
Ġpoder oso
Ġrecog ida
ĠcontemporÃ¡n ea
Ġacerc arse
w in
cal de
Ġ198 0
Ġarquitec tos
Ġreporta je
t adores
Ġem er
Ġadjud icaciÃ³n
u entes
ĠâĢĶ âĢľ
Ġincluy endo
estructura ciÃ³n
ÃŃ genes
ĠP ier
no w
ĠÃ© lite
Ġorden Ã³
Ġ199 3
m ad
oc ado
Ġe gip
Ġelec tores
Ġbaj ada
Ġindivid uos
Ġdeleg aciÃ³n
Ġparticip an
o tas
ĠCon de
Ġemb arc
Ġhal laz
Ġcomp lica
ĠCent er
Ġges tos
PS OE
ĠK evin
m Ã¡ticos
s ki
t ti
Ġc itas
Ġdil ig
Ġsent encias
Ġital ianos
Ġrehabil itaciÃ³n
Ġb arato
Ġinst ante
Ġrue das
Ġbil l
ĠacadÃ©m ico
ĠT ro
ĠCam eron
us s
i riÃ³
To dos
ĠD entro
Ġescu cha
Ġapor taciones
Ġconden ados
Ġest er
Ġcul tiv
Ġat ribuye
Ġperman ece
Ġres ide
ios os
ĠMon e
âĢĵ ,
Ġe u
Ġas ust
Ġpid iendo
Ġinmue ble
fic ar
Ġcolabor adores
ĠBuen o
ve d
ĠMan chester
Ġexcel encia
Ġconse jerÃŃa
Ġinter locu
Ġ198 9
Ġ199 1
Ġlengu as
Ġsurg iÃ³
Ġgesti ona
eg em
Ġtr Ã¡g
Ġmig rantes
ĠP rÃ³
Ġna ce
ĠCos pedal
Ġcomplic ada
Ġempe Ã±o
Ġcercan as
Ġrele vancia
ĠD iv
Ġedi ciones
Ġqued arÃ¡
Ġcomien zos
Ġculp able
ĠPubl icidad
ĠSem ana
Ġsof ist
Ġnecesita ba
ĠCompro mÃŃs
Ġh ÃŃ
Ġacom paÃ±a
Ġgri ego
Ġingen iero
ĠOri ol
Ġac cidentes
Ġcrea tividad
Ġevalu aciÃ³n
Ġtor re
Ġdesarrol la
ĠRousse ff
gu as
gr ad
Ġconfir mar
ĠTribu taria
Ġata c
Ġcorrespon den
Ġregu la
Ġdecis ivo
Ġr ar
Ġagr icul
ĠJ ones
Ġir Ã¡
Ġdur Ã³
Ġga fas
Ġdes gas
Ġne oy
Ġgaran tiza
ĠMinist ros
Ġson deos
ĠSocial ista
Ġcomp ositor
qui ta
Ġab uela
Ġenfr entar
Ġparticip aron
Ġper diendo
ÃŃs imas
Ġn aran
Ġdiscu tir
Ġtemp lo
Ġrefle jo
Ġindivid uales
ĠB iz
Ġespecial izada
Ġescas os
E so
val u
ĠhÃ©ro e
s erv
tr y
Ġveci na
Ġpres tar
Ġvent ana
Ġarran cÃ³
Ġensay os
Ġpresunta mente
Ġcub ano
ĠJun queras
Ġsosten ibilidad
Ġfarma cÃ©ut
Ġn utri
Ġo ver
Ġsol os
ĠAn na
Ġdel i
Ġdo ce
Ġlim itar
g iÃ³
j am
Ġcent ra
Ġ8 6
ĠA cciÃ³n
tu oso
Ġtra tando
Ġdetermin ado
4 3
ĠH i
a der
r idos
Ġb uro
ĠÃ© sta
Ġval ora
ĠAu tor
ĠPine da
Ġint entan
Ġdescon fianza
Ġexcl u
Ġsum ario
Ġlib eraciÃ³n
Ġtar jetas
Ġcr uel
Ġsac erdo
Ġjuz gar
Ġplante ado
Ġsu cesiÃ³n
Ġcambi ando
ĠCh an
ĠS omos
ĠatmÃ³s fera
Ġc ese
ĠT radu
and Ã©s
ĠAn gel
d omin
Ã¡nd olo
vi amente
ĠmÃ© todos
Ġcap tur
Ġes pon
Ġsign ific
ĠCal le
Ġrad icales
Ġfal se
Ġman d
ĠEx tremadura
b at
vi miento
Ġelev ada
A D
Ġi b
Ġcar ece
s ÃŃ
Ġver te
Ġobserv ar
ĠB ull
4 1
Ġcatedr al
ĠBus h
ĠInvesti gaciÃ³n
Ġb lin
Ġgener an
f it
ĠJ ord
19 7
Ġlimi ta
Ġs he
pa is
Ġop tado
ĠMer cado
ul t
Ġcr Ã³nica
Ġexig en
ĠMi quel
ko zy
ĠSanta marÃŃa
Ġce der
Ġespec ÃŃf
Ġllev arÃ¡
Ġdemostr Ã³
ip s
Ġmens uales
Ġin seguridad
ĠAnton i
ĠFal ta
Ġexp one
Ġh egem
Ġres c
Ġsal idas
ĠMc C
Ġmanio bra
ĠF lores
Ġrec re
Ġasum e
Ġreg idor
ĠO TAN
Ġcal ifica
Ġincre mentar
! âĢĿ,
ĠGuer rero
Ġre ele
Ġesc and
Ġenfr entan
ĠL ara
ĠPor t
ĠSal am
Ġment ira
Ġt ÃŃo
Ġg loria
min ente
Ġ0 8
Ġfi eles
ar s
Ġmantener se
Ġalar ma
y er
ĠT ec
Ġar cas
Ġacab aba
ĠMa x
ĠClar o
ĠD ra
ĠautonÃ³m icos
pon e
Ġprior idades
ĠRec uer
ĠBro wn
Ġsist em
ber Ã¡
Ġahor rar
6 6
Ġver Ã¡
Ġtom ando
Ġpob laciones
Ġper ÃŃo
Ġtra mitaciÃ³n
ĠIn iesta
Ġarti ficial
ĠE u
Ġin cidentes
Ġb ac
Ġa tes
ĠT re
tor iales
Ġmag ia
Ġdic tador
gÃ¼ edad
Ġemp o
Ãį DEO
Ġinterven ir
ol f
Ġinf ec
ĠMoham ed
Ġinter v
Ġp abell
qu era
Ġper dieron
Ã¡n s
Ġsi mpl
Ġcor tes
Ġrecom ienda
ĠA de
Ġinvolu c
U U
Ã³ bal
Ġpar ques
Ġar mado
ĠCon fe
Ġcul to
Ġras tro
Ġexpul siÃ³n
ĠJ ane
Ġempez ando
d remos
Ġeduca tiva
Ġhier ro
Ġarran que
om bre
Ġth an
i ona
ĠC ir
Ġcan cel
Ġcomple jos
Ġrode ado
Ġindustri ales
Ġl ust
ur bios
gen d
Ġhtt p
Ġco tiz
Ġtes or
ĠCul tural
ver y
Ġrep lic
fin ales
Ġoptim ista
Ġconm igo
j unto
Ġin timidad
par se
Ã³ j
ĠN Ã³
Ġbol sa
Ġto p
Ġcontr aria
Ġagr icultura
Ġrela cionado
Ġs tar
ĠS ig
Ġhu ir
Ġromp iÃ³
Ġescas o
Ġfestiv ales
S an
Ġo ÃŃdo
ĠLa kers
Ġle e
Ġantigu as
f os
f ec
pu z
Ã³r ica
Ġsolici tud
9 0
Ġpres taciÃ³n
Ġdesplie gue
Ã± an
Ġtor menta
Ġimplica ciÃ³n
Ġindign aciÃ³n
Ġrecomenda ciones
Ġsalv aje
Ġcons ens
Ġdirec tivo
j aba
Ġca fe
Ġexist ÃŃa
ter na
Ġcl Ã¡us
Ġsatisf acciÃ³n
ĠCif uentes
Ġev olu
Ġcapital ismo
Ġfuncion an
ĠXa vi
Ġofens iva
A quÃŃ
Ġdel ic
h ara
Ġadi cional
ĠLlu ÃŃs
Ġher ed
Ġpat ria
Ġdej aba
Ġconv ierten
Ġafir mar
Ġen fo
ti er
ĠTe des
ĠGri Ã±Ã¡n
Ã³ tico
Ġvo tado
ĠNe y
Ġreclam Ã³
Ġcat Ã³lica
Ġrestr icciones
Ġdeb ut
Ġocciden tales
Ġper dida
Ġemp eor
rim as
Ġconf usiÃ³n
Ġbols illo
Ã ¤
Ġin esta
rigo yen
S in
Ġto cÃ³
Ġcin ta
Es pecial
om ina
ĠI S
Ġtor ero
Ġrepar tir
Ġcrea tivo
Ġdep Ã³sitos
der se
Ġ8 8
Ġavent uras
Ġform ada
Ġret om
? ",
ĠJack son
ĠFuer zas
ĠV era
Ġconcre tas
Ġro b
Ġch arla
Ġencar gada
ab al
ĠI rigoyen
Ġunivers itarios
Ġdetec tar
ĠTedes chi
r ich
arre al
ti tudes
Ġpresupues taria
Ġar ru
Ġgust aba
Ġorden adores
Ġpid ieron
Ġinm er
Ġcir cular
Ġ9 8
Ġactiv ista
ĠBol ivia
Ġbar ra
Ġcomple jidad
Ġresta uraciÃ³n
Ġreligios o
ĠAn tena
cil iaciÃ³n
Ã³l icos
as ter
a den
es co
ĠF I
S J
t us
Ġest atales
ĠF ron
Ġcre ando
Ġsent ÃŃa
C i
Ġreglam ento
Ġact Ãºan
ate mala
C ada
Ġvisit ante
Ġpatr Ã³n
ĠF ac
ĠCh i
Ġus an
Ġpac tos
Ġorigin ales
ĠProvin cial
Ġd aban
ÃŃt icas
er al
Ġagr ad
Ġdisposi tivos
Ġpantal las
osten ible
tu re
S ÃŃ
se d
Ġembara zo
Ġcent rado
ĠK i
Ġap res
Ġrev istas
ĠSar kozy
Ġindemn izaciÃ³n
ĠclÃŃn ica
ver siÃ³n
ĠAr t
Ġelim inaciÃ³n
ĠPR I
Ġde batir
ent imiento
Ġameric ana
t uros
Ġtur ÃŃstica
b ana
Ġcu otas
Ġch al
Ġcru cial
Ġefec tivos
de moc
Ġhi per
Ġdesen caden
Ġtestimon ios
qu adra
Ġle al
Ġcru do
ĠCari be
Ġre mun
ĠR ay
don de
ba ciones
Ġmagn itud
Ġind ÃŃgenas
ĠAtl Ã¡ntico
ĠMe dia
Ġconsul tas
t om
Ġch ar
ĠCor rado
Ġl ento
Ġ7 3
Ġcomp l
Ġvir tud
Ġquier es
Ġsens ible
tor nos
Ġcre ÃŃa
ĠFrances c
y ente
Ġsu mado
Ġimp unidad
ĠPS PV
B C
x ta
Ġcritic ado
ĠprÃ³r roga
ĠSan to
Ġneoy or
Ġas ilo
Ġvar iedad
I E
ĠO urense
li que
Ġgan ando
t rio
ĠCrist Ã³bal
ĠescÃ¡ndal os
Ġder rib
Ġaspir antes
Ġele var
Ġpa ciencia
Ġentre gÃ³
ĠmÃ© rito
Ġfron ter
Ġsuminist ro
Ġllev aban
Ġt able
ĠS erÃŃa
Ġentre gado
Ġrep i
ĠLis boa
ĠT ex
Ġad or
Ġmejor ado
r Ã©
os amente
Ġacep tado
ĠcÃ¡l culo
pon Ã©s
Ġextre mos
Ġcolabor ar
Ġten iente
ĠGonz alo
Ġrenov ables
Ġlec ciÃ³n
k ar
hi le
d am
Ġp ÃŃ
Ġa ga
Ġpro b
iz os
ĠGE OX
ĠAn tic
ĠFeder ico
in st
Ġsignifica tivo
j ando
Ġal u
gu era
Ġtecn olÃ³gico
Ġconsul tora
ĠEr nes
Ġec olog
puz koa
Ġ15 5
Ġdefens ores
ĠChar les
ĠAm bas
Ġnorteameric ana
k ul
ka ia
Ġidi omas
ĠV at
so bre
Ġofre cido
Ġtit ulado
br en
Ġlleg aba
Ġesper ado
ly n
Ġprevi amente
N osotros
ec Ã©
Ġpos teriores
Ġdispar o
ĠÃ¡r bitro
Ġnarra tiva
s el
- .
ĠA VE
ĠGal lar
Ġimpresion ante
a ch
tro p
ĠSa udÃŃ
Ġadver tido
Ġcostum bre
Ġreda cciÃ³n
Ġacog e
ĠOC DE
Ġdesb ord
ur Ã³
Ġdoc entes
UT ERS
ĠIn depen
Ġg imnas
Ġre di
ĠG etafe
Ġhu mo
Ġagre ga
A unque
ĠVal lad
Ġpopular idad
Ġahor ros
Ġhi elo
Ġdec ÃŃan
ĠNey mar
f ran
Ġo x
Ġdes vi
Ġcu id
Ġt Ã³
con i
Ġor ÃŃgenes
ĠÃĵ scar
ĠCara cas
di pu
Ġsal ga
Ġllam aba
Ġexist entes
Ġsorpren de
Ġcrimin ales
Ġcomp or
Ġrela tivamente
m ora
ĠEs pecial
Ġcos ech
ĠSe gura
Ġorganiz ada
Ġprohi bido
ĠC res
Ġsur ge
b ria
le to
ĠEste ban
Ġ13 0
ĠsÃŃnt omas
Ġfal sas
Ġapar iencia
Ġequi p
ĠMac ron
Ġabsten ciÃ³n
Ġe qu
Ġmedi oc
! ,
Ġdul ce
u k
Ġplante Ã³
tr ÃŃa
iz ando
Ġju ris
Ġprome dio
Ġmarc ador
os e
Ġle gend
Ġam bul
bol a
Ġestruc turales
ĠFlor ida
ĠInfor maciÃ³n
Ġbi later
nist ÃŃa
ti gu
Ġres umen
Ġra cional
Ġp Ã¡
Ġquie bra
ĠB at
Ġhor arios
Ġ âĤ¬
it arse
ĠSud Ã¡frica
ĠR ib
Ġgri to
Ġre cep
ab ar
Ġcompar tido
Ġconcre ta
Ġevent ual
Ġg ras
ici s
Ġconoci das
Ġrece ta
l is
ĠTar jeta
Ġapre ci
Ġja ponÃ©s
ĠcÃ³ mp
Ġsindic al
tar le
Ġfavor ecer
Ġcerc anos
Ġne w
Ġtempor ales
Ġsuces or
Ġdin am
Ġsupon drÃŃa
Ã ĵ
es ter
Ġeleg ante
Ġasesin atos
Ġneu tr
Ġre ten
Ġob ede
Ġcorrec to
ĠToda vÃŃa
Ġmedi cina
Ġconv icciÃ³n
Ġbaj ado
Ġencontr arse
Ġoblig ada
Ã©l ulas
Ġdi os
Ġendeud amiento
te x
ill on
vi la
Ġexpres ar
Ġdem ol
Ġreclam an
Ġasi Ã¡tico
gu ida
Ġsa ca
Ġtransfor mar
Ġol vido
ines s
ĠbÃ¡s ico
ĠE va
Ġesc Ã©n
Ġentr an
Ġincorpor aciÃ³n
Ġsemi finales
Ġsolv encia
Ġatravi esa
ĠGu atemala
Ġcompon entes
Ġaer olÃŃn
Ġs Ãº
ĠL ima
Ġobs esiÃ³n
et ero
Ġreno var
Ġescon de
Ġpat rimon
g or
dos o
Ġproce de
Ġex it
ĠMac ri
Ġgobier na
la h
ĠD ist
Ġcas co
Ġsal tar
Ġtecn olÃ³gica
j ados
r ing
Ġac aso
Ġtransfor m
Ġrefor m
Ġejer ce
Ġinfl uencias
Ġagru pa
Ġocul ta
Ġpor terÃŃa
ĠD uran
Ġ9 2
Ġcir cul
Ġrestr ing
Ġin sta
H asta
e mas
m Ã³n
Ġsi enta
Ġocu pado
Ġpin turas
ĠdÃ³ lar
Ġpromo tores
Ġestren Ã³
ch en
Ġpes cado
para te
d ada
Ġbloque o
Ġsal p
ĠCam pe
Ġse ces
Ġdirec tos
Ġcomer ci
Ġsentim ental
Ġpart idas
ĠQ a
Ġcu ra
Ġrefor mar
Ġpu Ã±ado
ĠSer rano
Ġcontemp lar
Ġfor o
Ġpas adas
or g
ĠO este
dir se
ĠmÃ¡xi mos
ĠLu go
Ġdetermin adas
Ġutiliz ando
Ġgalle ga
Ġrelo j
ĠparaÃŃs o
L le
t entes
ĠV ÃįDEO
Ġmedi Ã¡tico
ĠXV I
Ġde presiÃ³n
ĠMa uri
Ġaj eno
Ġconclu ir
Ġproduc tora
Ġocul tar
ing os
ĠprÃ©st amo
ĠM it
il le
Ġlleg ando
ecre tario
Ġpref ieren
ĠhÃ¡bi tos
ĠNÃ³ os
Ġm am
ĠC is
âĢĿ ;
ĠD ie
ve la
Ġexpres Ã³
cu ando
Ã³g n
Ġrecor tar
Ġasegura ba
Ġsocial demÃ³cra
Ġic ono
Ġcanad iense
F ran
ĠEs as
ĠNic ara
Ġsobres al
Ġrig uros
ces or
Ġlevan tÃ³
u ci
ĠPar k
V al
Ġl Ã¡g
res iÃ³n
Ġhid ro
Ġseguir Ã¡n
Ġenerg ÃŃas
Ġrela tos
ĠcÃ³mo do
Ġdu plic
Ġpilo tos
Ġar mon
Ġmir ando
Ġmonta Ã±as
Ġpersecu ciÃ³n
u dos
z i
Ġpon ga
Ġincom pa
Ġsu ceso
Ġtr Ã¡ns
ĠE mer
Es quadra
Ġrebel des
lande st
me d
onal do
h um
ĠfÃ³rm ulas
Ġbon ito
ÃŃ da
Ġbille tes
en eraciÃ³n
Ġdie ta
Ġcontar Ã¡
Ġfantas ma
li p
Ġcorri entes
C N
Ġ7 4
Ġencar gÃ³
Ġconsul tados
Ġinc Ã³gn
Ġjubi laciÃ³n
ĠN uestra
Ġcas ualidad
p ecto
Ġas pi
Ġsuce der
Ġlic encias
Ġe go
Ġt im
Ġan Ã³n
Ġapro pi
arr y
Ġaerop uertos
Ġ8 7
c ru
Ġcam pes
Ġcom entar
bi era
ÃŃn guez
Ġvol vieron
lu encia
Ġsomet ido
Ġcurios idad
ĠVallad olid
c ara
ce la
ĠAs ad
k en
Ġen cier
Ġacer car
Ġdemues tran
ĠestÃ¡ bamos
Ġrevel Ã³
ĠS E
Ġcer te
Ġporta voces
Ġen tienden
Ġpro h
Ġviv os
ĠColeg io
Ġmen Ãº
Ġsuper Ã³
9 5
ch el
ĠI R
Ġauto p
ĠGuin dos
ÃŃs mo
Ġgen io
Ġmanifes tado
Ġ198 5
ens ible
Ġa ch
Ġdor m
Ġ um
ĠCin co
Ġil ÃŃ
b Ã³n
Ġal iado
Ġ( -
ĠRe uters
ĠÃ ļ
Ġencan ta
Ġde cep
ĠEs panyol
Ì ģ
Ġen vid
Ġdestac ar
Ġtej ido
w ell
Ġlo cura
Ġtrans mit
Ġ8 2
Ġcari Ã±o
9 8
Ã³ graf
ĠFran Ã§
ĠNatur al
an til
ĠP el
ciden tal
ĠSaba dell
n ada
ĠI t
Ġd ama
Ġre en
ĠS ec
Ġcu ch
Ġc Ã©lulas
tr ica
vil le
Ġpie dras
Ġencar go
Ġsim b
mi ra
Ġcement erio
Ġfac tur
Ġdispon er
ĠTer ri
Ġhuel la
Ġdesf ile
ĠG etty
aliz adas
lu tense
ps ol
Ġglob alizaciÃ³n
h al
ĠP uerta
ĠA bo
ĠRe psol
Ġplante amiento
Ġcau te
ara ta
Ġbi par
ĠPac ÃŃfico
o f
Ġprofund amente
Ġadquis iciÃ³n
Ġv Ã¡l
Ġpenal ti
m ia
lo gos
Ġinsu ficiente
ul Ã³
ĠQa eda
I P
Ġal usiÃ³n
ĠC uer
Ġmejor as
Ġhabi tualmente
Ġcuar enta
ĠbÃ¡s ica
Ġin tim
Ġder rum
c Ã©n
g nos
Ġp us
tor al
ion ista
ĠCatal ana
Ġizquier do
ĠHo tel
A P
M V
ĠR eci
ĠestratÃ©g ico
Ġdescon oc
Ġorganiz adores
Ġocu pan
Ġprev ar
Ġsa ga
Ġt am
ĠG e
con tra
Ġfu turos
Ġconven ios
on de
Ġ7 1
Ġmat ices
Ġdefens iva
Ġincapa cidad
Ġas umiÃ³
er van
Ġen gan
ig an
um er
ion aje
z arse
ĠL abor
Ġdest inos
Ġintegr al
Ġapoy ado
Ġprome tiÃ³
s olo
Ġpl ural
ĠBo b
Ġtemper aturas
Ġcorreg ir
Ġclar os
Ġagu jero
Ġsimp a
p ri
Ġp si
gon o
Ġenfer mo
gl ish
ĠSa int
Ġreivin dicaciÃ³n
ĠR onaldo
Ġsolu cionar
ĠacompaÃ± ada
p ur
Ġcent ÃŃmetros
Ġabier tamente
ĠAgr icultura
Ġdona ciones
Ġmu Ã±
Ġcar n
a Ã±os
ĠBos ton
ĠRub Ã©n
Ġgab inete
Ġpropon er
Ġemp a
ust on
Ġejecu tivos
ti po
Ġr urales
Ġestr Ã©s
kul lu
ĠNicara gua
ta Ã±a
Ġpes ca
Ġacep ta
ĠobstÃ¡ culos
Ãº e
at ra
ĠV is
Ġcre emos
ĠSal e
Ġnorm almente
Ġtab la
ĠretÃ³ rica
Ġinesta bilidad
Ġcu idar
ĠR ivas
xi ona
Ġdescub rimiento
Ġacu den
Ġeti queta
Ġcombust ible
Ġm ero
Ġma tem
Ġr Ã©
Ġinstitu cionales
Ġex tiende
rim e
ĠW at
Ġcul tivo
Ġestudi a
Ġconces iones
ĠP ep
ien das
l ora
Ġf ace
Ã© ticas
Ġle ve
Ġafec tar
Ġid Ã©n
Ġnervi os
ĠQu ien
Ġos t
Ġcandid aturas
Ġelectr Ã³nicos
g h
ac Ã³n
Ġafil iados
z e
ĠGi braltar
Ġyear s
ĠFer ia
ones es
Ġreun irse
ĠQu Ã©
ĠTradu cciÃ³n
Ġperten ecen
Ġsecund aria
Ġrecha zar
S omos
ĠÃ¡ra bes
Ġs enda
Ġcomer cios
z can
or gan
Ġoc Ã©
ĠPat ri
Ġha ci
j ect
Ġl adr
Ġtendr ÃŃan
Ġextin ciÃ³n
Ġjard ines
Ãº st
Ġcu ant
Ġa zo
ĠtrÃ¡ mites
ur ÃŃa
Ġte me
ĠperÃŃo do
ĠPi quÃ©
ĠG r
Ġne ws
ĠPro tecciÃ³n
Ġor din
Ġbel ga
Ġmila gro
Ġtaba co
Ġl ici
ko v
Ġcateg orÃŃas
Ġcr on
Ġfi jado
Ġ" Â¡
ĠO f
Ġper for
Ġthe m
7 8
Ġo ther
vi ra
ac en
Ġveg e
ĠO k
Ġpodr ÃŃamos
Ġextran jera
ĠUr kullu
ĠPr ÃŃncipe
ti cismo
ĠB NG
ĠCu entas
Ġases ino
Ġadap tar
Ġde ba
ĠEst re
Ġsan e
Ġbec as
Ġayud Ã³
Ġpropie dades
Ġges tores
Ġpropor ciÃ³n
Ġl isto
ci stas
Ġam an
Ġconside raciÃ³n
Ġayud an
ĠJun ts
Ġadministra tiva
ĠS he
ed y
Ġmonum ento
Ġcas tillo
uev as
ĠBar berÃ¡
Ġarro z
Ġen te
e to
Ġin tr
it arÃ¡
Ġcos tas
Ġafric anos
Ġcom arca
Ġconven cional
ĠComp lutense
Ġla bores
ĠB au
Ġfal sa
ĠVill arreal
ĠEst aba
cho ol
Ġdes o
ĠOr den
S olo
los a
Ġimpuls ado
Ġoper adores
Ġurb anos
tiza ciones
Ġmar keting
Ġarran car
in ados
Ġ197 7
ta mbi
ĠS un
ĠV arios
Ġutil izaciÃ³n
c ad
v ing
min as
ĠMon tero
Ġos ci
ĠVat icano
Ġpier den
ĠSalam anca
Ġexist ir
ĠOfici na
Ġaf ro
Ġmon tÃ³n
Ġmoder nidad
ĠR ica
Ġpens Ã©
Ġdescar ta
Ġcal ificaciÃ³n
Ġposible mente
Ġcontes tÃ³
Ġch i
Ġdi al
Ġrefle xiona
b ri
Ġc landest
Ġse pa
ver tido
Ġmarc ada
C as
Ġgas olina
ti es
ĠR ick
5 2
Ġin da
Ġmultina cional
s able
id ora
Ġrec tor
j arse
N C
tal gia
Ġsub idas
Ġimpu taciÃ³n
Ġconduc tores
Ġdesaf ÃŃos
S al
Ã ¯
an ismo
Ġla go
d ul
il as
Ġaf ueras
li to
Ġban deras
Ġmens ual
Ġapos tar
Ġpreocup ante
ĠPrÃ³ ximo
Ġca z
Ġast uri
ĠAl icia
Ġrep un
Ġl iga
per as
Ġresul tan
Ġacord ado
6 0
ĠAn gela
ĠW hat
Ġblan queo
Ġdis puesta
Ã©nd olo
Ġasal to
Ġafor tun
ĠE fe
Ġsust ancial
ĠPonte vedra
Ġcal ific
ĠTele cinco
ĠV ene
Ġas ciende
Ġinver tido
Ġpetrol era
ĠD ice
Ġ9 00
ĠenseÃ± ar
Ġbusc aba
Ġrebaj ar
eg os
Ġinsist ido
Ġapas ion
aj ara
mar ca
Ġadi cionales
Ġferro vi
Ġv inos
Ġayud ado
Ġ198 2
Ġconserv adora
Ġescol ares
Ġre h
ĠC r
Ġescri tos
h or
Ġm ÃŃo
Ġdes cri
ĠaÃ± aden
Ġllev ando
Ġderro tas
Ġpro xim
Ġas fi
Ġtraslad Ã³
on to
ĠCar olina
t ÃŃan
Ġtra er
Ġneg ras
Ġingles a
Ġliger amente
Ġconce de
ce ta
Ġenfrent amientos
Ġcoca ÃŃna
Ġde can
Ġcor tar
Ġir onÃŃa
Ġ8 4
Quer emos
ĠA da
iz aron
Ġconfes Ã³
lus coni
Ġdes po
Ġcal ent
ĠMil Ã¡n
Ġlament Ã³
tambi Ã©n
u x
Ġar ra
Ġadmi tir
Ġmilit ancia
Ġtari fas
Ġcu entos
Ġres ign
Ġre za
Ġafir maciÃ³n
Ġlo gran
Ġl ados
ĠT am
Ġmon te
Ġmul tas
Ġper ju
tin as
duci dos
Ġrode a
Ġarm ados
S oy
Ġ7 9
Ġpen itenci
Ġconst antes
M C
Ġ197 9
ci tos
Ġre estructuraciÃ³n
Ġante cedentes
dic es
o to
Ġgan an
om Ã©
Ġcom edor
ĠI vÃ¡n
tel erÃŃa
Ġpe at
Ġexcon se
g at
for tun
Ġinter net
Ġases inado
Ġans iedad
ĠSÃ¡ enz
Ġgru eso
Ġpregun tado
Ġases ores
t to
Ġsus ci
Ġcomun icaciones
h one
Ġa ulas
am arca
Ġsum erg
Ġrap idez
Ġingre dientes
ĠcatÃ¡stro fe
Ġrefle jan
Ġprevi os
Ġmedi Ã¡tica
Ġreun ido
Ġno ble
Ġcam inar
ĠS tu
Ġutiliz Ã³
Ġpres untos
Ġcotid iana
ĠDom ÃŃnguez
ĠAl ianza
ĠK irchner
Ġcal ado
Ġsuper an
Ġpon ÃŃa
Ġ3 50
ĠCh el
graf ÃŃas
f an
Ġcomb ina
v ard
Ġd id
Ġme ga
Ã³m icas
Ġher ida
Ġrece tas
Ġcon duce
tÃ¡n dose
Ġvic e
Ġdepen diente
Ġop tÃ³
ĠCh ris
Ġ8 3
Ġcontin Ãºan
Ġaum entÃ³
Ġsolici tÃ³
Ġmag na
udi r
ĠMarcel o
al ia
Ġpa pa
Ġpoder osa
cin as
ĠFer rer
Ġsug iere
ens or
Ġsac ado
ĠEst Ã¡n
Ġpac tar
Ġqu ir
Ġprepar ados
Ġlevan tado
Ġater ri
Ġt wo
Ġ9 1
Ġps ico
ĠCom pe
Ġespecial izado
Ġindic adores
Ġneces itar
s Ã¡
ĠL en
Ġ18 0
Ġmedal la
Ġpar ezca
ĠS ime
ĠDan i
Ġcon g
ez can
Ġam antes
Ġre emp
Ġo ur
Ġex ager
ĠAr ena
Ġrealiz ados
comun icaciones
Ġsu av
Ġinvi ta
Ġunila teral
Ġfi la
Ġsospech as
ĠGi puzkoa
est Ã¡
Ġincorpor ar
Ġbo om
er ciÃ³n
Ġper eg
Ġtar dÃ³
Ġglob ales
Ġvulner ables
7 7
Ġgol e
Ġregres Ã³
ĠSco tt
ab ul
Ġcomp uesto
Ġenerg Ã©tico
ĠEn glish
Ġcons igo
Ġimp o
Ġagres iones
Ġdestin ados
ĠServ icios
Ġinoc encia
Ġe ficiente
ĠBer lusconi
Ġpal o
Ġcorrespon dientes
al d
ĠE ran
Ġre ga
Ġreun ir
ĠPro fes
ĠT ok
lan ta
ed icto
Ġconsol id
ĠCres po
Ġb is
Ġcompar tida
Ġterri toriales
Ġarch ivos
ĠP om
tor as
ell er
Ġhipo tecas
ar z
ĠB erg
Ġn Ã³m
pa je
ap ia
ĠHab rÃ¡
ĠU S
Ġro jos
Ġpens Ã³
Ġincen dios
Ġpopul ismo
Ġconte mpl
or ado
ĠAl ta
ĠlÃŃ qu
Ġexpres ado
Ġfru tos
ĠcadÃ¡ver es
ĠA penas
Ġiden tificaciÃ³n
Ġcal i
ĠAn der
Ġesp ionaje
Ġmover se
ĠAc tualmente
ĠLe w
bel la
Ġconcre tos
Ġanal ista
Ġapell ido
Ġven cer
Ġsos tuvo
Ġconta bilidad
Ġbar rera
ĠMel illa
ĠtÃºn el
Ġinteres ado
Ġestre cha
Ġabog ada
Ġcap tar
Ġdibu jo
Ġmaes tra
Ġeva cu
H oy
Ġindic ado
ĠSoci ales
f ra
Ġme tal
Ġdoc trina
Ġso vi
Ġda Ã±
Ġemo cion
Ġpol ar
Ġson ora
he im
Ġ9 3
ĠF ord
Ġop tar
Ġind ul
Ġafron ta
Ġconces ion
T iene
ĠCar me
Ġwh en
Ġn ad
te os
at s
Ġllev amos
anim idad
Ġpes c
Ġjoy as
it ariamente
Ġac o
Ġgri ega
Ġexminist ro
p ada
Ġo br
ĠM Ã©ndez
Ġdes mon
Ġsab es
Ġenfo que
ĠBar re
Ġexhi biciÃ³n
Ġorgullos o
Ãº p
ĠF an
Ġdispar os
ĠHill ary
Ġfalle cidos
ĠOlÃŃmp icos
Ġpan car
Ġbor rador
Ġher ido
Ġconsigu ieron
Ġt ÃŃm
ĠFin anzas
Ġandalu ces
se x
ĠT ener
Ġtrata mientos
Ġl ong
ĠD ia
Ġexp ro
Ġsig no
ĠFranÃ§ ois
Ġllev arse
Ġfel ices
Ġprevar icaciÃ³n
Ġv aria
Ġpr endas
min g
Ġres pira
bil izaciÃ³n
Ġsec uestro
Ġconsidera ba
Ġagreg Ã³
Ġes enciales
que ts
Ġleg ÃŃ
Ġtray ecto
Ġ198 6
ĠRes ulta
Ġver ti
Ġnos talgia
Ġdej arÃ¡
ari ta
Ġlatinoameric anos
Ġdef ra
Ġcorre dor
Ġmedi ano
Ġesca Ã±o
Ġlevan ta
Ġm elo
Ġflexi bilidad
Ġinter ac
Ġinstru cciones
Ġretir ado
Ġfrecu ente
ĠBos que
Ġcubier ta
Ġus os
Ġconstante mente
ĠfilÃ³so fo
5 4
ĠCas tillo
ĠDav is
Ġun der
Ġf atal
cion ario
Ġpre c
ĠSte ve
Ġcorrec ta
b idos
Ã¡ i
ter ror
kes pe
g ulo
Ġf ul
Ã©s ped
Ġsim bol
ÃŃ rez
Ġre ll
Ġg ay
ĠbÃ¡s icamente
Ġcoloc ado
Ġcorre os
Ġcontribu ido
ĠF un
ton e
Ġadap tarse
ĠO cho
enta ciones
Ġpro di
Ġgra bar
Ġfacil ita
ĠAgust ÃŃn
ĠJ en
Ġam ante
ĠdÃ© bi
Ġm ur
Ġt Ã³p
ĠfÃ¡cil mente
ĠBel las
ĠRes pecto
ĠG ust
tor s
Ġplan ificaciÃ³n
Ġconst ancia
Ġadministra tivo
U E
Ġm uros
Ġgra v
Ġpermit an
Ġdia gnos
Ġen tera
Ġcaus Ã³
Ġperf iles
ĠÃ©p ocas
ĠHum an
Ġcompa trio
ist ente
Ġcre an
Ġrecor re
c amiento
ĠMa h
Ġdi aria
Ġ8 1
ĠA FP
Ġcab ezas
Ġgust ado
Ġindivid uo
Ġp Ã¡r
we en
ĠCas ado
Ġens al
Ġguardi as
Ġpro cur
Ġconsider ada
Ġsosten er
Ġdiv iden
gun a
Ġvia bilidad
Ġadjud ic
Ġmel an
5 3
Ġsegu imos
Ġsup l
Ġsorpren diÃ³
Ġfrust raciÃ³n
or ios
Ġense Ã±a
Ġdiver tido
or t
Ġtele fÃ³nica
Ġprefer ido
Ġvuln era
diÃ³ s
Ġdefens or
tas e
Ġcal iente
Ġfr Ã¡g
5 1
i Ã©ndose
ĠMar tÃŃ
Ġven diÃ³
ĠautÃ³n omos
ci ble
Ġmaqu inaria
Ġfor zar
Ġdesp le
I M
Ġman dar
Ġfalle cimiento
Ġencontra ban
Ġge ogr
in an
ĠT ony
Ġprofes ion
es os
Ã³ fo
te to
el li
tr ad
Ġsom bras
Ġacog er
ĠlÃ¡g rimas
ĠCu ar
e k
Ġescas ez
ĠBur gos
Ġexal calde
ĠR ena
Ġval le
Ġdepor tistas
Ġacom e
Ġadelan tÃ³
Ġp ian
Ġno w
ĠT ru
Ġpel u
Ġconsig ui
Ġpin cha
Ġblan cas
Ġc Ã³n
Ġme tido
Ġvest idos
un e
Ġro bos
Ġdipl oma
ĠAust ria
a h
Ġpre car
Ġdiplom Ã¡tico
Ġsimpa tiz
Ġlar g
Ġyihad istas
le d
Ġbol iv
ĠS han
Ġfor mÃ³
Ġbaj Ã³
ĠAutÃ³n oma
a z
Ġa zar
Ġsab ÃŃan
amp l
Ġdesm ante
Ġinfer iores
Ġreperc usiÃ³n
Ġconsol idaciÃ³n
ĠBiz kaia
Ġde dos
bi ta
ĠEs pa
Ġtur ÃŃsticos
Ġgobern antes
Ġeconom istas
gu sto
cl u
Ġtrans forma
Ġmas as
ĠTri as
Ġcan on
y on
Ġcos tos
Ġpro ven
Ġincl usiÃ³n
Ġfund Ã³
Ġdespe dida
Ġsubs id
ĠTec n
es to
ĠR ico
Ġesc oc
Ġimplan taciÃ³n
Ġsub venciÃ³n
ĠFo x
Ġcumple aÃ±os
ĠRio ja
Ġaz Ãºcar
ĠEm baj
Ġ zar
Ġof f
ĠFer r
U R
Ġhab ÃŃamos
Ġsal ÃŃa
Ġhol andÃ©s
Ġl id
Ġv ea
gu erra
Ã³m icos
Ġguer rilla
ĠU N
ĠCab allero
os Ã©
Ġdes ea
Ġex quis
Ġfi jo
ĠC rim
Ġcontinu a
Ġreligios os
Ġaf Ã¡n
Ġcomun ista
am bul
Ġpo ema
Ġher manas
Ġ9 6
ĠCo op
Ġwh at
Ġmanifies ta
Ġin minente
Ġcumpl iÃ³
Ġcome ter
Ġde pre
Ġapar ente
Ġplen amente
Ġt aj
ĠS um
cion ismo
ĠÃģ r
Ġbro ma
Ġpresupues tario
ĠXV III
Ġac ude
iz arse
Ġdis per
Ġmemor ias
ĠEu gen
Ġsal drÃ¡
Ġcompl icidad
qu erÃŃa
Ġesc ultura
Ġ14 0
fo bia
ĠOb serv
Ġalum no
Ġl ent
mi Ã³
ri Ã³n
Ġfabric antes
ĠNa tional
Ġcolec ciones
Ġm ural
Ten go
ĠcÃ³m ic
ĠChel sea
Ġub icaciÃ³n
Ġafect ada
ĠMi ra
Ġeleg idos
bable mente
Ġestad ÃŃstica
Ġaspir ante
Ġgra bado
ĠPa tr
Ġide olÃ³gica
Ġesper aban
Ġnucle ares
Ġdes v
Ġsegu ida
Ġba Ã±
ĠRa to
Ġras gos
Ġargent inos
Ġa ra
C I
Ġac ento
Ġcomple ment
dere cha
ĠP ho
Ġdes l
Ġacerc amiento
ĠVene cia
i fer
Ġan y
ĠAten as
Ġes for
Ġquer ella
Ġadelan ta
ie bre
Ġpa gando
Ġunivers itario
b on
du ra
Ġense guida
Ġeduca tivos
Ġlit ros
Ġpres o
Ġdeman d
Ġd Ãº
Ġconce diÃ³
Ġlic enci
Ġin icios
Ġtra jes
Ġpo emas
Ġolvid ado
ĠR um
Ġro dar
Ġen fa
ma go
ĠIn strucciÃ³n
ĠRam ÃŃrez
Ġgastron omÃŃa
m ica
âĢĿ )
Ġsal va
Ġalre dedores
Ġcontras te
ĠmÃ¡ ster
Ġ198 8
Ġpales tinos
as es
di e
Ġre tor
Ġb er
Ġpriva tizaciÃ³n
Ġje fa
dad or
Ġad h
Ġambi cioso
Ġpreserv ar
ĠSime one
Ġviol entos
r icaciÃ³n
cas o
âĢ¦ âĢĿ.
Ġpen ÃŃnsula
Ġdese os
in k
Ġprogra m
Ġguion ista
ĠPhil ip
Ġp ill
Ġha bilidad
Ġgan ancias
Ġaprovech ando
ĠFu ente
Ġg Ã©n
Ġur gencias
Ġl Ãº
Ġprev istas
Ã¡f ora
Ġmor tales
Ġinstru ment
Ġenve je
Ġand ar
ĠCrist o
P ro
g s
Ġpar Ã¡
Ġmas ivo
Ġse ver
Ġf ero
Ġin ac
ien a
ĠFuer on
Ġcrea tiva
ĠDÃŃ ez
V amos
ĠPar ty
Ġlogr os
Ġtro p
Ġexcep to
Ġhol an
ri era
go bier
ĠK enn
ĠAr turo
ĠdifÃŃcil mente
Ġsignifica tiva
Ġpeligros a
Ġperci be
jal Ã¡
u le
Ġcer tamen
Ġgol f
Ã³ tica
Ġin us
ĠV lad
ĠLu cÃŃa
ada fi
Ġotor ga
ĠRev oluciÃ³n
Ġnega tivos
ĠacadÃ©m icos
Ġcompens ar
Ġre dujo
Ġpres cin
ĠCla udi
Ġrent able
Ġb et
Ġad quier
ifica ciones
Ġblo ques
Ġaux il
ĠAntic orrupciÃ³n
go tÃ¡
Ġposi tivos
Ġdesp idos
ĠBe tis
Ġdesper tar
Ġconsig uen
via ciÃ³n
Ġalf om
Ġcuant ÃŃa
Ġres um
Ġten is
Ġor al
pol itana
Ġseleccion ador
Ġmue bles
Ġin Ãº
Ġperson almente
Ġmat Ã³
Ġgal erÃŃas
ĠZ am
Ġreac tiv
Ġurban izaciÃ³n
cion amiento
t Ã©s
ch an
Ġman ual
Ġprev al
ĠaÃ© reo
Ġper misos
ĠCom is
Ġconoce mos
Ġlad rillo
ĠT ay
Ġpre venir
Ġtemp rano
Ġpabell Ã³n
Ġb l
ĠPat xi
Ġdenomin ado
a k
Ġsu ave
ĠS tra
cas i
Ġhici mos
Ġvincul ado
Ġen dure
ĠS Ã£o
ie ga
ĠG am
Ġresuel to
Ġpresent aba
sen al
Ġcolum na
as en
ĠHo use
ĠSte ph
Ġfranqu ista
Ġsent arse
Ġromp e
Ġlimi taciones
ec os
p it
ĠT ienen
Ġdepen den
Ġdestac ados
Ġinci dencia
Ġdesapareci dos
Ġvangu ardia
r ico
Ġan to
ĠEmp ez
Ġcon ferencias
Ġsigu ieron
ĠtrÃ¡ns ito
l s
ĠDis ney
ĠS w
Ġ197 5
ĠHit ler
Ġreac ciones
Ġmi de
ing er
Ġvie jas
Ġrepu taciÃ³n
Ġbanc arias
in osa
ĠIn no
Ġllu vias
Ġagricul tores
re os
Ġcul turas
Ġdu reza
Ġtranspar ente
Ġexplor ar
ĠDe b
Ġesp iri
Ġtur co
Ġtre in
Ġdeleg ados
Ġlider ar
Ġdiv orcio
ĠIR PF
Ġlo co
Ġprodu jeron
ian zas
Ġincent ivos
Ġlle ve
Ġgas tar
Ġ197 6
Ġpros igue
t ano
ĠD rag
Ġdi Ã¡
ĠMan uela
Ġdemocr Ã¡ticas
Ġeta pas
Ġinfan tiles
ĠJ ar
Ġproba bilidad
Ġex ce
Ġcamp us
ĠH is
Ġver sion
Ġdic ta
Ġale jado
ĠA no
Ġconf i
Ġpermit ÃŃa
Ġpreju icios
Ġf ic
ĠÃģ lava
Ġconta bil
ĠJa Ã©n
Ġsuje to
Ġsecu encia
ĠIn icia
ĠBlas co
Ġpres ta
ĠMar ÃŃn
are la
Ġcontrad ic
en io
Ġm era
Ġdecir lo
Ġdem on
c rim
Ġinteres ados
Ġ9 7
ond in
Ġcercan ÃŃa
Ġejecu tar
Ġfab ricaciÃ³n
Ġreflex ionar
Ġconfor m
land Ã©s
D A
Ġe cha
ch t
ran a
Ġdestru ir
ĠAmeric an
ecesita mos
kespe are
Ã¡ Ã±ez
Ġdi le
Ġ8 9
ig ar
Ġna vide
Ġarras tra
Ġcapaci dades
ĠRE UTERS
Ġrecord aba
Ġdetermin ante
Ġdispon en
ĠI ba
Ġpl us
Ġsitu Ã³
Ġgalard Ã³n
Ġex ha
Ġfu turas
ck er
ĠK u
ĠCu enta
ĠMo vimiento
Ġrum ores
Ġla zos
Ġsimul tÃ¡n
Ġbarcelon Ã©s
Ġconten er
Ġbe ber
ĠH al
Ġconfor me
Ġtrein tena
Ġproteg ido
P uede
Ġr osa
ĠT oni
Ġcar is
Ġliber ales
Ġempren der
ĠE ric
Ġprev istos
Ġdese mple
Ġdom ingos
Ġinquie tud
Ġinspec ciÃ³n
ĠBra vo
Ġe mite
Ġl on
ĠL ic
Ġvincul ados
ÃŃ metro
Ġllam as
Ġcomis arÃŃa
ĠS om
Ġesper anzas
Ġdetermin aciÃ³n
Ġinvers or
ĠAnd rea
ĠvÃŃn culos
Ġen tiendo
ĠA rias
ĠLor ca
ĠP un
Ġ198 4
Ġaparc amiento
ĠB om
Ġco br
Ġrequier en
ĠR ita
Ġtrans misiÃ³n
Ġasum ido
Ġpatr ul
Ġbeb Ã©s
ĠP ir
Ġpas ados
Ġau tÃ³
Ġmal versaciÃ³n
ĠZ o
ĠTor onto
Ġcompon ente
ĠM y
ter ales
Ġaudiovis ual
Ġun animidad
Ġori entaciÃ³n
p ren
Ġac ent
Ġconcent ra
ĠP ul
Ġsustitu ciÃ³n
Ġpa pe
Ġpol vo
ĠNo va
ĠCas illas
v it
la c
Ġesp ero
Ġbar reras
in idad
ĠV amos
ola te
Ġrepro duc
ĠAren as
8 8
lic e
Ġgra baciones
Ġdemocr Ã¡ticos
An tes
Ġmet Ã¡fora
Ġab ren
Ġfal s
ĠautÃ³n omo
il y
Ġop ositores
gr os
Ġsuper visiÃ³n
ĠF idel
Ġperten eci
Ġvesti r
d ores
Ġregist raron
Ġcru ce
6 7
N i
is s
Ġedi les
Ġapro xi
Ġpens amos
Ġges tora
Ġfal los
Ġl ondin
Ġex ca
Ġemit ido
ĠG adafi
Ġprome tido
Ġarch iv
d om
Ġt entaciÃ³n
ĠEsco cia
Ġun ir
Ġconstru ctor
Ġaver igu
Ġbi ci
ĠAn th
Ġparticular mente
Ġmagna te
D Ã³nde
des es
Ġesc ar
l Ã¡n
Ġextran jeras
Ġvari able
Ġexperim entado
Ġp ico
Ġp ilares
Ġsi rio
ĠAndre u
Ġequi par
Ġcont ento
Ġrealiz aciÃ³n
ĠW in
ĠÃºn icas
ĠmÃ¡r genes
Ġpro gen
ko vic
Ġsit Ãºan
ĠCan ta
americ anos
Ġincon s
Ġcontribu ciÃ³n
Ġsuspen der
Ġinclu idas
Ġprevi as
f ia
Ġfres co
Ġdo bl
Ġmane ja
Ġacud ido
ĠDin amarca
Ġa je
Ġpa ter
ĠBB C
Ġcoyun tura
Ġins ur
cor t
Ġdesem bol
Ġso p
ĠSin dica
Ġdedic an
ĠCal vo
gobier no
g aban
ĠBen z
Ġmill ar
ĠVir gen
ir os
Ġinici ales
Ġpier na
Ġsindic ales
ĠGlo bal
ĠdÃ©ci mas
ta h
ĠS por
ĠEl lo
Ġpon drÃ¡
Ġameric anos
Ġdrama tur
h ar
Ġa cierto
Ġti ra
Ġvia ja
ĠdiseÃ± ar
Ġtum ba
ĠSecre tarÃŃa
t ter
Ġre du
ĠCa fÃ©
Ġ zo
Ġf Ã©r
Ġarti fici
ĠdÃ©bi les
Ġsorp resas
Ġconstitu yen
Ġintegr ado
A T
Ġos cura
Ġcat as
f ac
j aron
Ġp Ã¡nico
Ġg ama
Ġpro duciendo
Ġtri ples
ĠiP hone
pi ro
Ġconce der
ĠjurÃŃ dicos
Ġbos ques
d ones
ĠM am
Ġtradu cciÃ³n
Ġsu pre
Ġw a
ĠLe o
Ġmete or
Ġe dades
Ġeleg ida
Ġpris a
Ġvent anas
Ġperf ecciÃ³n
Ġconst at
Ġa ves
Ġpres ion
ĠBo tella
Ġparad Ã³j
Ġse des
Ġsig an
ĠPra t
Ġentreten imiento
ĠTes oro
ĠH as
Ġmo tores
ĠVal d
Ġconsul tar
Ġde valu
ti pos
Ġve to
tiz ada
Ġcol oca
Ġir ri
Ġpreocu pado
Ġnaran ja
Ġm ueven
ĠL ocal
ĠhistÃ³r icas
Ġprogres ista
Ġrebel iÃ³n
Ġgubernam ental
ĠConfe deraciÃ³n
Ġorden ado
Ġdetec tado
ĠRe pres
Ġ198 1
ĠPas cual
Ġet c
Ġderiv ados
Ġcam iones
Ġaclar Ã³
Ġadmit en
S ab
ĠT i
iv en
Ġexig iÃ³
Ġingenier ÃŃa
Ġcoun try
um as
Ġma te
ama cho
Ġmanten drÃ¡
Ġconsul tadas
in ch
ĠN u
Ġbron ce
Ġvis ibilidad
Ġanci anos
Ġinst antÃ¡n
Ġregist rados
Ġer rad
un dan
cu laciÃ³n
Ġlim itada
ĠSe Ã±
ĠsÃŃmbol os
ĠEnerg ÃŃa
Ġso bor
Ġcan to
Ġa ir
Ġb ala
ĠSha kespeare
m us
n aciÃ³n
Ġp rag
Ġbar bar
Ġvia jÃ³
Ġol or
Ġinn eces
ri mos
ĠC ra
Ġinsist en
Ġe mitiÃ³
Ġr on
ĠAgu ilar
ti Ã©ndose
ĠcompaÃ± era
Ġro l
Ġtradicional mente
Ġmon opol
ĠbÃ¡s icas
Ġconfron taciÃ³n
Ġest ocada
Ġal ianzas
ĠF Ã©
ĠLe vante
Ġ197 0
Ġconme mor
re am
at han
ÃŃt icos
Ġmon o
Ġdesay uno
Ġmayor itariamente
ĠN uestro
Ġ11 0
Ġsensa ciones
qu ino
ĠBo gotÃ¡
ĠCD C
ĠGuadal ajara
Ġsol ÃŃa
Ġco tizaciÃ³n
Ġsupon ÃŃa
h ÃŃa
Ġexper ta
Ġencar ga
Ã¡st icos
Ġextrem adamente
p Ã©
Ġh ig
Ġcomp rado
ĠLo ve
Ġest ando
Ġexist ente
Ġv Ã©r
qu Ã©s
ĠV egas
Ġpers igue
ĠFor o
Ġconec tar
on ado
Ġmultina cionales
ĠÃ©l ites
ĠobstÃ¡ culo
ĠAl l
Ġ198 7
hu ana
Ġpar ro
Ġindis pens
Ġre trans
Ġcar ro
Ã¡r selo
Ġbol sas
Ġtre gua
ĠE t
Ġdescon oce
Ġdispar ado
Ġrea fir
Ġse ll
Ġpres um
ĠRog er
Ġan on
Ġinf ierno
Ġjun tas
Ġaj ena
i des
m ier
ra y
Ġenfr ente
Ġflu jo
ĠvÃŃn culo
p iaciÃ³n
Ġpregun tan
Ġv ano
âĢĿ :
Ġpre mis
Ġman z
Ġr ica
eg al
ĠEE UU
e amente
Ġman dos
Ġadop ciÃ³n
Ġlibr erÃŃa
ĠSta te
Ġso bra
iden cial
ros s
Ġpublic ados
Ġsin tiÃ³
ĠMar ch
Ġfe der
Ġestruc tural
Ġrecup era
re al
Ġte men
Ġevalu ar
Ġju sta
Ġsens i
Ġespec ÃŃfico
Ġenten dido
Ġinaugur Ã³
ĠD ig
Ġpo dio
av o
Ġper ifer
amil ton
Ġvol ar
Ġrev al
Ġinquie tante
Ġdeso be
Ġl enta
Ġco bro
Ġmanten iendo
Ġprotagon izado
Ġfrecu entes
ĠUrban ismo
ĠAr ro
Ġinstru ctor
Ġadquir ido
Ġale ga
ĠRes erva
Ġfabric ante
v or
Ġf ocos
Ġex il
Ġinm enso
Ġdescon t
g et
Ġro jas
Ġir respon
Ġvenezol anos
Ġchil eno
Ġevi ta
ĠD un
ĠObr ador
ic an
Ġc enso
re ll
Ġr ÃŃos
Ġcompens aciÃ³n
Ġconlle va
ĠI bar
Ġestudi ando
Ġide olÃ³gico
Ġintelig entes
Ġconqu ist
Ġaspi raciones
Ġest atus
Ġinv asiÃ³n
Ġretro ceso
Ġdilig encias
id ro
ĠPer son
ĠN atal
Ġcerte za
di sta
Ġalterna tivo
Ġtrist eza
Ġcarb Ã³n
Ġap uestas
Ġedi tores
Ġaut omo
al go
Ġvengan za
Ġter tul
Ġne um
ĠPe dr
Ġasoci ados
a hora
Ġfir st
ĠFin anci
Ġtem bl
Ġhisp ano
Ġtoler ancia
ĠAnth ony
Ġapor tÃ³
Ġexplo tar
Ġidentific ado
b ula
ĠD y
Ġsin ton
Ġsal do
Ġsorpren dido
Ġindis cu
Ġd as
Ġan t
Ġgalle gos
Ã¡ is
Ġpor no
ora ya
Ġpoder osos
Ġtrad uc
Ġech Ã³
Ġexp ec
Ġconven iente
Ġit iner
ĠBor ja
Ġais lamiento
M Ã¡s
Ġlas t
ĠT rin
Ġcub anos
Ġdisminu ciÃ³n
Ġtu vimos
ĠHo uston
Ġhipo teca
Ġrespon den
ĠO x
Ġconfor man
Ġhal la
Ġore ja
M an
Ġm ÃŃtico
ĠC l
Ġmoder ado
ĠH amilton
Ġvo taron
Ġexplic aron
ĠBr ad
I O
di as
Ġac ero
p ent
u til
Ġir rump
201 2
ĠGran de
Ġsopor tar
ĠD il
Ġco pia
Ġdeci da
Ġdist ancias
Ã©nd ole
Ġmodi ficaciones
Ġexces iva
ĠIC V
Ġiny ec
us al
Ġcal ificado
Ġalber ga
Ġjap onesa
Ġhallaz go
Ġaval an
Ġver sos
Ġur u
Ġadmi raciÃ³n
Ġest ir
Ġver lo
Ġcor ona
fic antes
ĠCam pos
Ġmach ista
Ġrinc Ã³n
Ãºn ez
parta mentos
Ġpais ajes
Ġmari huana
Ġproxim idad
Ġne uro
Ġfi anza
Ġprohi bir
Ġdefens as
ĠTex as
Ġen la
Ġdeci den
Ġev itÃ³
zar o
dr en
Ġdere chas
ĠMon tes
Ġsatisf echo
Ġtab las
Ġan imaciÃ³n
mon d
v istar
ĠL ÃŃ
Ġgener Ã³
Ġen com
Ġinspir ado
c ÃŃas
Ġha bilidades
Ġhuman itaria
Ġreve laciÃ³n
ĠhÃ©ro es
m el
al s
Ġt Ã©
Ġdi entes
Ġus ado
Ġ198 3
Ġregres a
de f
Ġmad u
Ġingenier os
Ġte mer
Ġdist anci
Ġmani pulaciÃ³n
Ġsu izo
ĠG im
Ġincor pora
Ġpermitir ÃŃa
il idad
Ġproduc ciones
Ġfa ena
Ġvolun tar
Ġdesgas te
Ġam able
Ġpl ur
ĠfÃ¡rma cos
Ġro man
Ġiden ti
ib rios
Ġnorteameric anos
Ġacep taciÃ³n
ĠpolÃ©m ico
ta Ã±o
ĠS oria
Ġsol em
Ġob vio
Ġbom bas
Ġimagin ario
tn am
lah oma
Ġin a
vi ese
Ġne ur
ĠAr gel
Ġrealiz aron
Ġveter anos
ĠestratÃ©g ica
c ord
Ġ ..
Ġs un
Ġpas es
Ġra za
Ġlegis l
? ".
M P
Ġrec ol
Ġcambi an
tu osa
Ġtra e
Ġpersonal idades
Ġelig iÃ³
O L
Ġse co
Ġal i
Ġcomprome tiÃ³
Ġreligios as
Ġcabal los
Ġestall ido
Ġestil os
Ġesp l
Ġconstru yÃ³
Ġlider ado
ĠI NE
ĠIber ia
or ada
ĠAl to
Ġsuf riendo
Ġsuici dio
Ġl istado
Ġha ces
Ġinvestig ado
Ġcontribuy entes
Ġmat anza
ĠQu ienes
Ġacab arÃ¡
Ġveci n
ĠPÃºbl ico
z aban
Ġan cho
Ġjug aba
Ġpregun taron
Ġtal entos
ĠGener ales
ĠVir gin
ĠG en
Ã¡nd ola
ĠR on
Ġsol dado
Ġfas es
Ġpod amos
Ġchav ales
C ol
Ġra bia
Ġefec tivamente
Ġmadu rez
ĠK er
Ġllam amiento
Ġplante an
Ġexces ivo
Ġcomerci antes
p Ã¡
Ġcon vers
ĠP ad
ĠR T
Ġfavor ables
ĠquiÃ©n es
Ġesque ma
ĠDe portivo
Ġadver tencia
Ġfantas ÃŃa
Ġconvir tieron
ĠTok io
eci miento
termin aciÃ³n
Ġdesigual dades
Ġinvi taciÃ³n
ĠMar g
Ġiran ÃŃ
Ġc Ã©sped
Ġdej en
Ġfavor itos
ĠComun icaciÃ³n
Ġsocial ismo
Ġpen ales
Ġdefin iÃ³
Ġresp ir
Ġdispar Ã³
Ġprofun di
Ġmilit ante
Ġcocin ero
Ġinter min
ĠLu z
Ġdiagnos tic
Ġbeb idas
Ġperci bir
c tores
Ġop ositor
ĠAr quitec
Ġconserv ar
al ent
ce te
Ġhere dero
ĠCual quier
Ġpas illos
va ciones
Ġapoy an
Ġnov io
i bar
di llas
Ġmayor itario
Ġbus cado
ĠfÃŃs icas
Ġpartid ario
Ġca yeron
ĠMu cho
Ġconex iones
mp his
Ġtari fa
ĠeconÃ³m icamente
ĠPue blo
Ġpasa porte
pol is
Ġconoz co
Ġdiscapa cidad
Ġex ista
ĠF Ã¡
Ġpreocupa ciones
Ġdeber es
Ġconven cidos
Ġconsol idar
S E
g ara
tor y
Ġconclu ido
ol v
ĠLu x
Ġest amp
ĠCh acÃ³n
Ġcap tura
Ġ197 3
Ġsurg ido
6 9
Ġe tar
Ġrefer entes
ev illa
Ġ196 8
ad ÃŃa
Ġso ft
Ġw here
Ġadelan tado
Ġcolombi anos
Ġverdadera mente
ĠG ay
Ġc ÃŃv
Ġn acer
ĠNo che
tific ar
ĠIS IS
Ġin quil
ig res
mi os
Ġma de
ĠO ne
Ġk ilo
Ġin habil
Ġver tic
Ġpin tores
d ÃŃas
ĠS el
me t
Ġpes adilla
Ġref in
Ġamar illo
Ġras tre
Ġexcep ciones
Ġescrib ÃŃa
ima to
Ġperman ecen
crip ciones
Ġhumil de
Ġabsur do
ĠL ar
Ġesc ru
Ġaplic ado
Ġdiploma cia
m ol
ta ca
era to
Ġrecon strucciÃ³n
ĠAd am
Ġatra cciÃ³n
f ar
ri za
Ġor todo
Ġexperim ento
Ġparado ja
an Ã©s
Ġest ri
Ġdedic ar
ire mos
Ġfron tal
ĠS t
Ġsex ta
itor al
Ġub icado
Ġaconte cimiento
Ġh uevos
Ġven ga
ĠVal verde
Ġvir tudes
Ġdel icado
ĠcÃ³ c
ues tros
Ġcas ual
Ġev oc
Ġcir cula
Ġmostr aron
Ġperman encia
Ãł s
di f
Ġprostitu ciÃ³n
Ġva ti
Ġvalor ado
Ġdific ul
Ġc itar
Ġingres ar
Ġempren dedores
Ġsospech oso
Ġcoh esiÃ³n
Ġres table
Ġgener alizada
Ġdeber ÃŃamos
Ġrepublic ana
ĠfÃ¡br icas
Ġaceler ar
d Ã©
Ġsobre pas
Ġcor riendo
ĠHa w
Ġcostum bres
Ġh ura
ĠP acto
Ġtom aron
Ġint Ã©rpretes
m Ã¡ticas
Ġda ta
Ġbo tel
f ÃŃn
l ia
Ġ( âĢ¦)
Ġan fit
Ġper don
Ġas imismo
Ġfal tas
Ġdeten ciones
Ġeditor iales
for t
Ġestu p
Ġocu pÃ³
Ġmovil izaciones
ĠElec toral
Ġp y
Ġconv ierta
pol i
Ġtercer os
Ġescuch ado
Ġsinies tro
le os
Ġten dremos
vi al
Ġlegisla tivas
hu a
Ġayunta miento
c ab
ic on
ĠEs cu
ĠEst ad
dr ÃŃan
Ġconta g
Ġretra tos
Ġcoment ario
Tu be
Ġexha ust
ul lo
Ġhacer le
Ġanon imato
Ġac ta
Ġser ia
ac os
Ġgri egos
ĠkilÃ³ metro
Ġapla usos
gu ero
jo te
Ġe rig
an y
tÃ¡n d
Ġcur va
Ġapor tan
Ġafi cionado
ier ro
li es
Ġenc ues
ĠGo vern
Ġincu mplimiento
Ġpresid ido
Ġfu imos
Ġra cismo
Ġretras os
ĠPlata forma
Ġcor tos
Ġentr aron
Ġtermin al
Ġretro ce
Ġbille te
ĠKenn edy
rig ht
ĠJosep h
Ġafric ano
ar ch
Ġin tac
ĠB ran
ie v
Ġgan adora
ĠRos si
Ġexces os
Ġlibr erÃŃas
Ġdes ar
ĠLi bro
Ġconstruc tora
Ġenm ienda
Ġmiser ia
Ġne to
Ġtradu ce
Ġde fici
ĠNor uega
Ġden omina
Ġfran ja
leg ados
Ġoper an
Ġcomet idos
Ġllen ar
Ġch u
Ġtele visiones
Ġsolici tudes
Ġescal ada
ĠL lam
ĠS oraya
ĠEuro copa
Ġtor tura
Ġentra mado
j ante
ĠH uelva
ĠJust o
Ġestall Ã³
Ġespon tÃ¡n
s h
Ġm ÃŃa
Ġaf lor
Ġval iente
Ġcritic ar
ĠMo to
Ġlimp iar
Ġfortal ecer
Ġmet Ã¡l
Ġfrac tura
Ġester eo
Ġten or
ĠZ u
Ġprece dente
f lix
re t
ĠB oy
Ġprin cesa
Ġacostum brado
ĠFI FA
Ġdej arse
Ġpat ente
ĠJe ff
ĠJuli Ã¡n
Ġpu entes
Ġmer ecen
Ġori ental
Ġrelacion ada
icis mo
ĠE U
ĠO ficial
Ġhech as
ick s
G O
Ġab rum
ĠAl im
Ġru tina
Ġregist ra
Ġsum aron
-- --
ĠLou is
ch u
Ġpubl icaciones
Ġgen ial
Ġbo tella
Ġpoten ciar
Ġele va
ĠArm adas
ĠMedi cina
Ġmatem Ã¡ticas
Ġar co
Ġcre cen
Ġment iras
ad ir
Ġtra tarse
Ġjust ificÃ³
i j
Ġno tar
Ġdes ol
gun os
Ġnie tos
Ġchoc olate
Ġh etero
den al
ĠdiseÃ± adores
Ġbrasile Ã±os
ĠHom s
ĠFÃ© lix
c ena
Ġm y
ĠTh is
Ġdesf avor
Ġg radu
Ġcam iÃ³n
Ġcab ec
Ġdestin ada
Ġfur gon
Ġmedi e
Ġment alidad
Ġesco ger
Ġescul turas
Ġmaravill oso
Ġsimpatiz antes
Ġl Ã¡
Ġre ÃŃr
Ġgu a
Ġmascul ino
Ġreele cciÃ³n
ĠErnes to
ĠH ond
Ġci ento
Ġsig nos
Ġvia jero
Ġunivers itaria
Ġd uer
ĠC Ã³mo
Ã¡n ime
gun as
Ġc able
Ġs mart
ci ano
Ġint oler
Des puÃ©s
Ġregal os
Ġaument ando
d uras
ti mas
Ġr ara
Ġtran quila
Ġencar gados
Ġactu ado
Ġcontinu Ã³
Ġhomosex uales
t ta
Ġab aste
Ġestudi ado
Ġvolun taria
Ġore jas
Ġcolap so
pro duc
Ġvideoj uegos
ĠR ock
Ġdesc rib
Ġexten der
Ġintegr idad
an al
Ġdi era
Ġma ta
ee k
Ġsent idos
Ġsuf rieron
Ġpropor ciona
Ġcamis etas
Ġpar ecÃŃan
Ġcar gado
Ġesp oso
ĠPe tro
Ġpractic ar
ĠBay ern
P a
ĠE v
Ġre an
ri t
ĠL ea
Ġrela tiva
Ġfund ada
b ulo
Ġrec ta
Ġref res
Ġhu ida
ĠYou Tube
Ġpac tado
vel and
Ġdis im
Ġpri mo
Ġlim itÃ³
ĠcuÃ¡n tos
Ġdesahu cios
in ista
Ġob tiene
ĠBenz ema
Ġcontro vers
Ġdev oluciÃ³n
Ġdar ÃŃa
Ġdirig ÃŃa
Ġnatur alidad
ĠMujer es
ĠCanta bria
al ta
Ġsin cer
ĠQui jote
Ġsubray ado
Ġculp ables
Ġinesper ado
ĠInicia tiva
Ġro bar
Ġhum anas
Ġdedic arse
Ġprofun das
Ġ193 6
Ġdelincu entes
ĠGreg orio
il os
Ġcons orcio
ĠAd olfo
Ġab an
u ar
Ġ risas
Ġe pi
in oso
ĠB arcel
Ġran go
Ġen caden
id ane
Ġb at
Ġfin alizar
ios as
Ġdepor tivos
Ġpromo tor
Ġp ur
ĠPa k
Ġinstal ar
Ġmane jar
ĠAlex ander
ĠpÃ¡ jar
Ġca ta
Ġtom ada
Ġbru to
9 00
h ari
ĠV elas
Ġdepor tivas
Ġdenunci an
Ġsepar ado
Ġdesen lace
Ġreivindic ar
st os
ĠSe a
ĠBo w
Ġecu ator
Ġnega tivas
Ġaudi torio
ĠA bu
Ġson idos
Ġco di
ren e
ĠSol er
Ġano tÃ³
ĠDal las
Ġdic tamen
Ġc lic
en cio
is la
Ġnaz is
Ġcol ega
Ġop uesto
Ġpes quis
Ġde partamentos
Ġal m
ĠS istema
Ġimp idiÃ³
Ġviol aciones
Ġinform Ã¡tico
ĠÃŃ d
se Ã±
Ġemp i
Ġrecon oz
Ġmedioambi ental
ĠF en
Ġpese tas
ĠHar vard
Ġenten dimiento
G P
H an
Ġap rue
ĠI ceta
Ġev itado
Ġfru ta
ĠGar rido
Ġalim entar
Ġconocer se
ĠBen jam
Ġcomporta mientos
Ġfemin ista
ens os
Ġrealiz ando
au se
ĠGo bern
ĠChrist ian
Ġquis iera
ĠocÃ© ano
ĠLew is
dos a
ĠEmp res
Ġcompon en
man tes
Ġunifor me
Ġ risa
Ġvo tÃ³
Ġvisit Ã³
ĠV iena
Ã©r icos
Ġdist ra
ĠGu ad
Ġestu pen
Ġale gaciones
Ġisrael ÃŃes
Ġagu ard
ĠaÃ© rea
Ġse cesiÃ³n
e Ã±o
Ġg am
ĠV arela
ord on
Ġbu que
ĠQu in
Ġcusto dia
is on
Ġlu jos
Ġdra mÃ¡tica
ĠsÃ³l ido
ĠM enos
Ġtra mos
ĠK n
ĠCel ta
Ġs ierra
Ġemp ecÃ©
Ġman tuvieron
Ġmanten ÃŃa
ĠSteph en
un t
ĠF A
Ġpresiden t
Ġba ila
ĠfenÃ³m enos
ĠCap ital
D O
Ġg lor
ĠF Ãºtbol
Ġreg eneraciÃ³n
Ġnie gan
ĠRob in
ĠÃį Ã±igo
Ġpian ista
ĠC iencia
ĠR ab
Ġestable ciÃ³
Ġinclu ÃŃa
Ġexter na
ĠJul ia
ter ia
ĠMan zan
ĠCor ona
Ġrecog ido
Ġpriva cidad
Ġadvers ario
Ġre lie
aliz aciones
Ġviol enta
Ġil us
Ġretir Ã³
Ġep ic
Ġresc atar
Ġsal tÃ³
Ġfal la
ril los
Ġcompr adores
Ġcon cepciÃ³n
Ġf idel
ĠB ir
ĠR and
Ġincluy Ã³
Ġaguan tar
Ġsimb Ã³lico
ĠG Ã©nero
Ġcontra tado
Ġpuer tos
Ġconsecu tivo
Ġapun tado
Ġpoten ciales
Ġenm iendas
ca o
ĠelÃ©ctr icas
Ġgubernam entales
ĠPatri cia
r idas
Ġen d
ĠA x
Ġma tiza
ed ora
ĠpolÃ©m icas
s ol
Ġt os
ĠW eb
Ġrode an
Ġconfir man
Ġvincul ada
Ġbotel las
er ado
Ġso porte
Ġpas ear
Ġco brado
Ġbo x
Ġren dir
Ġexten dido
ome traje
8 0
w ork
Ġcos tar
Ġrecl u
Ġmit in
iger ia
ch et
Ġexig ente
Ġreivindica ciones
Ġcomand ante
ĠCoop eraciÃ³n
ar qu
ĠB ig
Ġcontrol ado
Ġpopul ista
Ġab uelos
Ġpes a
ĠCar re
Ġcir co
ampl ona
ĠFerr ari
Ġperifer ia
de G
ĠE van
Ġcas ado
zo bis
Ġfal sos
ut s
Ġvi able
Ġcomunic Ã³
v amos
ar da
Ġver emos
Ġven ce
Ġrespon dido
Ġresul taron
Ġmas ac
ĠcaÃŃ das
Ġacord Ã³
r ÃŃan
Ġemple a
Ġprepar ando
Ġtea tros
Ġmercan cÃŃas
Ġfus il
m amente
Ġm adrid
Ġpro bado
Ġconsist orio
Ġcon tando
Ġtu it
ÃŃfic amente
Ġle trado
Ġanunci ada
Ã¡m icas
Ġcomien zan
Ġenv ÃŃo
Ġprecar iedad
ĠT x
est res
Ġcuar tel
usal Ã©n
y entes
ex iÃ³n
Ġadolesc encia
ĠDil ma
Ã³g ico
Ġconstitu ciÃ³n
ĠTra tado
ĠsÃ³l ida
r arÃ¡
it ÃŃ
ĠG ala
Ġqued aban
ile a
Ġpropon en
Ġacum ulado
Ġm ina
ĠAm or
Ġproce den
Ġcont ribuye
Ġcircun s
Ġargument Ã³
ĠAutor idad
Ġir Ã¡n
ar ÃŃan
Ġsal iendo
Ġcomun itario
Ġagrad able
ĠVelas co
Ġa tas
ĠS pi
pro yecto
T ras
bi mos
bier ta
Ġdi la
ĠMar y
Ġta xi
Ġincon ven
Ġmo dos
Ġprivileg io
ĠSim on
Ġestima ciones
ĠHun grÃŃa
ĠT Ãºnez
ĠBel Ã©n
Ġingles es
Ġv id
Ġinter an
Ġdepor tes
Ġsen adores
Ġliter almente
ĠGer ardo
ĠsÃ©p timo
el y
ĠG Ã©n
Ġdiscapa ci
cion adas
Ġimp ec
and ra
Ġreclam ado
Ġadop tado
Ġestatu tos
ĠVi ol
Ġliqu idaciÃ³n
E A
Ġimag ina
Ġmostra ba
ĠOk lahoma
ue ta
ti cia
ĠN ick
ĠAl bi
Ã©r icas
ĠJer ez
Ġoscur idad
ĠM ayo
Ġro dilla
Ġch is
L AN
Ġtra tados
ĠNa cho
Ġinst ancias
Ġconvir tiendo
Ġdespre cio
ĠFamil ia
d idad
Ġr ond
Ġir rupciÃ³n
Ġ16 0
Ġon ly
ĠJa co
tr en
ĠB un
ĠLa ur
Ġjust ificaciÃ³n
ĠjurÃŃ dicas
Ġhipo tec
S S
ec erÃŃa
Ġas im
teg i
Ġconce dido
Ġmotiv aciÃ³n
ĠNet flix
Ġde tuvo
aliz an
Ġgust os
Ġvincul adas
m endo
ĠPos t
ĠhelicÃ³p tero
Ġmediano che
7 9
rÃ³ f
Ġa ires
Ġestudi Ã³
Ġasoci ado
Ġrepun te
C D
Ġcer rados
g rupo
C ar
Ġt est
Ġcu bre
Ġlle guen
Ġtien de
Ġprotes tar
Ġ196 0
ĠP es
ĠC lara
Ġb arata
Ġfin alidad
Ġtrans ferencias
Ġ9 4
Ġasesin ados
Ġsecre tarÃŃa
Ġenf ad
Ġdecis iva
Ġe usk
ĠL iter
Ġso Ã±
arc Ã³
ace p
Ġenc am
Ġconten edores
ĠCe uta
Ã¡ menes
Ġna cida
sa bilidad
Ġabon ar
Ġinsul tos
ari ado
Ġoper ar
ĠPal mas
Ġeter no
ĠMo vistar
Ġmul tim
Ġcarb ono
B an
n ell
de cer
in ero
ĠZ idane
ĠJo e
Ġlimp ia
Ġvenezol ana
Ġha ble
ĠMe mphis
Ġnaz i
ent s
po ol
ĠJos e
Ġform almente
Ġcenten ario
Ġembaj ada
. :
b idas
f ul
l amente
ĠG om
Ġtecn olÃ³gicos
p io
ĠB rig
Ġarreg lar
ĠdÃº o
n ie
Ġes clar
ur ÃŃ
ular es
Ġaloj amiento
at her
Ġsupon drÃ¡
ĠOr g
ĠDemocr Ã¡tica
Ġb ack
ĠGu z
ĠInterna tional
ĠGa za
Ġex cur
iv ar
Ġdist ritos
Ġfran co
Ġexclus ivo
Ġfich aje
Ġamp aro
Ġsu puestas
Ġca ud
Ġinvestig adora
Ġproce der
Ġreclama ciones
Ġv ist
Ġal t
Ġrep Ãºblica
v ÃŃ
at re
ĠÃºlti mamente
Ġmin orÃŃas
ies e
Ġmir adas
ĠcÃ¡rcel es
ĠDrag hi
Ġimp ug
Ġexpres iones
Ġcontrad icciones
ĠolÃŃmp ico
Ġhim no
hi te
Ġrefer irse
Ġprodu zca
Ġtrabaj adora
Ġpal os
Ġalma cÃ©n
Ġexpon er
Ġsoft ware
z u
Ġcompr ensiÃ³n
Ġdesper di
Ġp Ã©s
Ġa fer
en ca
Ġpre domin
Ġinforma tivos
Ġdiv or
Ġmist er
Ġmercan til
ĠL legÃ³
ĠMon ts
Ġcompro b
Ãł cia
ĠHer e
Ġleal tad
ĠEmbaj ada
Ġmultim illon
Ġor illa
Ġperio dos
Ġsel va
ri es
Ġdes cribir
Ġcompeti tivo
iti es
Ġmarch Ã³
Ġembara zada
f eo
Ġcu bierto
ĠI sa
Ġqu eso
Ġas amble
Ġmo ch
Ġelec tro
T ra
ĠLuis a
Ġdemocra cias
ran ge
Ġol eada
Ġpat rio
Ġreconoci da
Ġprepar ada
Ġtelevis iva
Ġautode terminaciÃ³n
Ġc esiÃ³n
ĠMu se
ĠAu ton
for m
Ġesta fa
Ġgu iÃ³n
Ġdecir le
Ġapre cia
6 5
Ġdel icada
ĠI P
Ġquin ce
Ġguitar rista
Ġju icios
Ġbus cÃ³
ĠRos ell
el pais
ĠN igeria
ĠacompaÃ± ar
Ġbatal las
ĠBor ges
ĠBeat riz
ti t
Ġas fal
ĠCon temp
Ġdocum entales
Ġlimp io
dro me
Ġfal lÃ³
Ġvol ante
Ġinflu ir
grÃ¡f icas
Ġro d
ĠÃŃn timo
ĠPÃºbl icas
Ġv elo
Ġto pe
cu erdo
ĠK ong
Ġtele comunicaciones
Ġcontr asta
Ġdepen dientes
Ġase qui
ĠFran ce
Ġhipo t
Ġlej ano
cru z
M E
Ġviol ento
Ġdefin ido
Ġdig na
Ġinforma tivo
Ġtitular idad
Ġindustri as
Ġnovel ista
Ġv era
Ġsu d
ĠL losa
fi eld
Ġsospech osos
ĠMone tario
ber s
ĠCatal an
Ġreal ista
Ġpron Ã³stico
Ġmir an
Ġadmi ra
ĠBrook lyn
tr icos
osi ble
Ġro ji
ĠBre taÃ±a
Ġtrascen dencia
Ġs illas
ĠF BI
Ġru inas
ĠJer usalÃ©n
ĠObserv atorio
tr ales
Ã¡n icos
Ġres ur
Ġcor ren
av es
Ġadmit ido
ra z
Ġdi mitir
P er
ĠP iz
ĠB ell
ĠGol d
Ġconqu ista
Ġllor ar
Ġpru dencia
Ġt il
Ġre ab
qu im
Ġres oluciones
Ġges tor
ĠEr re
Ġrecal ca
ĠBi blio
Ġman dÃ³
Ġson deo
Ġtu rista
Ġvi entos
Ġ11 2
ĠAz ul
Ġvide oc
âĢĿ âĢĶ
Ġmayor ÃŃas
in ario
Ġdifun dir
hat tan
ĠE p
Ġpar adas
Ġple bis
c amp
Ġla v
ĠS ho
Ġtra uma
Ġpat ri
f re
u an
ĠM endo
Ġdist or
Ġpoten cias
Ġcuadr ado
ĠEcon om
ĠA bra
ĠT ea
ĠÃŃn dices
Ġac trices
Ġpol ÃŃ
Ġcar gar
Ġcolombi ana
Ġpareci da
Ġb ul
Ġtra zado
Ġaj enos
v idad
Ġre cepciÃ³n
Ġimp osiciÃ³n
Ġreco gen
Ġsane amiento
ĠnÃ³m ina
Ġcam as
Ġlec ciones
chill erato
n ica
ĠAl i
Ġdoc ente
Ġaprovech ado
Ġirregular es
Ġhomici dio
ĠE c
ĠA L
Ġex trad
ĠB ienes
Ġdecl ive
ĠMo der
Ġespec ÃŃfica
Ġdespa chos
Ġapar ecido
Ġacum ulaciÃ³n
ĠTrabaj adores
V I
ĠU sted
ig na
se gura
Ġ20 30
Ġgas es
ĠVer de
Ġintent aron
il i
Ġman us
Ġerr Ã³n
Ġpesquis as
C al
Ġre tic
Ġpar cela
tros pec
ĠR ap
Ġhor mig
Ġprotagon izada
R o
Ġvi uda
Ġprecis Ã³
Ġcompetid ores
Ġho jas
Ġinjust o
ĠfotÃ³graf os
g ri
Ġre ino
ĠH ong
Ġmanten ga
ĠCan nes
Ġconcur sos
ĠR ÃŃos
Ġpod remos
Ġa tiende
ĠP amplona
Ġfalta ba
ĠTe mp
Ġcub ana
Ġmic rÃ³f
7 0
ist es
Ġlle vo
ĠVill ar
Ġmonum ental
Ġdivis as
Ġhegem onÃŃa
u za
Ġme to
Ġactu Ã³
ĠPS deG
ĠOr lando
Ġbenefici arios
Ġel i
it t
Ġyihad ista
b ell
Ġf iebre
Ġingres Ã³
ent ando
esti a
Ġcamis a
o v
ĠLa w
Ġcol onia
ĠMi ke
Ġsuf ra
Ġprovoc ando
Ġangust ia
Ġdi Ã³
Ġdi alo
Ġprop osiciÃ³n
Ġviv ÃŃan
Ġdeleg ada
Ġpropor cionar
col as
Ġgimnas io
at Ã³n
Ġli ke
ĠVI H
Ġsacri ficio
ĠMauri cio
Val encia
P re
ĠP ino
ĠR ue
ĠFin landia
ĠJane iro
I G
Ġten gamos
nes s
Ġdescu bre
Ġta quilla
Ġadv ierten
Ġrit mos
Ġsuspen dido
ĠViv ienda
Ġislam ista
s ic
Ġb oc
Ġab ismo
Ġdesarroll ados
s or
Ġal o
Ġag lu
ine bra
Ġfundad ores
ma te
ĠelÃ©ctr icos
Ġn on
Ġo di
ĠR ol
Ġmay Ãºs
Ġcan tantes
Ġhom bros
ĠMan hattan
Ġk ur
Ġdisfru ta
Ġlondin ense
Ġest igma
Ġrep as
Ġgan aron
Ġentren amientos
Ġcoloc Ã³
Ġdesemple ados
s il
Ġsegu idos
wit z
in gu
ĠF ig
Ġmater nidad
Ġsust ancias
Ġtelevis ivo
do gan
ĠUr bana
Ġpronunci Ã³
Ġrepi tiÃ³
Ġna cidos
Ġsalud able
terrÃ¡n ea
Ġman ip
Ġlu cro
ĠSil via
ĠGallar dÃ³n
ĠS chool
ĠF ont
Ġpas ta
Ġco oper
Ġsur gen
Ġradic almente
ĠCle veland
B ron
ĠT ab
ĠU s
Ġcul tivos
Ġanti gÃ¼edad
Ġrecibir Ã¡
Ġl lan
Ġre ducida
Ġsi rios
Ġapoy Ã³
Ġdemas iados
Ġgratu ito
ĠR ami
Ġter cios
ĠMir Ã³
ĠInf ra
c ano
Ġb ola
Ġpo etas
Ġpla y
ril las
Ġmos t
Ġmoder nos
Ġpropie taria
Ġparad igma
Ġinvis ible
aster io
c racia
ĠÃ© tn
Ġdiscre pan
ĠB es
Ġ( "
Ġad s
ĠAn g
tis h
ĠRam on
Ġequiv ale
Ġcamp amento
Ġespl Ã©n
y r
ci ados
Ãºn ich
Ġco uld
Ġencab eza
Ġremo de
ĠHen ry
ĠanÃ©cdo ta
U N
a f
aj al
Ġconv ul
ti ro
Ġentre gas
Ġdesp ierta
Ġa ve
ch adas
Ġver duras
Ġsub mar
tic e
Ġconvoc ada
Ġdenomin ada
Ġadul to
Ġres iste
Ġgen Ã©tica
ÃŃr culos
Ġflo ta
e uro
Ġde ro
te gra
it ro
ĠMar bella
Ġacor de
? âĢĿ
Ġhaber lo
ĠDiv isiÃ³n
ĠGuz mÃ¡n
U no
v enta
Ġub ic
Ġtramp a
o va
Ġcom idas
lo y
Ġfalse dad
uy endo
Ġtr ÃŃo
Ġta ur
Ġislam istas
Ġjud ÃŃo
Ġal a
Ġjuris dic
z ara
Ġtrans mite
Ġsuperviv ientes
ĠÃ© ramos
Ġins in
e jo
Ġi f
reg aciÃ³n
ĠFu era
Ġproducir se
Ġbec ause
ĠPrin cip
d ri
bi as
Ġg asta
Ġme tiÃ³
ĠF uen
Ġci ma
Ġimposi bilidad
Ġcop ias
Ġrecaud ar
u tor
ĠCar lo
Ġpron os
Ġpade ce
ĠfrÃ¡g il
ida de
Ġco pas
uen ca
Ġdepen derÃ¡
Ġac titudes
Ġcar encias
Ġvas cas
Ġurban ÃŃstica
Ġexhi be
Ã©cn ica
Ġrecuper Ã³
ĠV ent
Ġaliv io
Ġpres a
Ġus ando
Ġabrir Ã¡
Ġpersegu ir
Ġmala gue
Ġobis po
Ġcump la
Ġtaj ante
h el
Ġex tor
Ġg em
ĠR y
Ġfirm aron
Ġpy mes
v echa
Ã©c tor
Ġinterpre tado
Ġdep Ã³sito
Ġafirm aba
n s
Ġdis oluciÃ³n
ĠJa zz
ĠVÃŃ deo
Ġc Ã¡p
Ġd og
is m
Ġhabi endo
hi p
Ġasegur aron
Ġ197 4
Ġescal eras
Ġbet ween
j ano
in adas
ĠJ ac
man uel
eci dos
Ġhi to
Ġley endo
Ġavan zÃ³
ĠQui ero
k ed
Ġtecn olÃ³gicas
Ġdesarroll Ã³
Ġconsigui ente
ĠD icho
Ġtrans fer
Ġconcre tar
Ġurban as
ĠI rene
Ġasign atura
Ġab rieron
Ġcompar ar
Ġmat rimon
ke y
ĠReg ist
Ġhomosex ual
Ġcontrad icciÃ³n
je tivos
Ġesca pa
Ġ196 7
Ã©l ico
tes or
Ġproh ÃŃbe
ĠR yan
Ġah og
ĠPa ula
th ers
Ġcoinci diendo
bili ario
ta in
Ġtra mit
Ġtradi ciones
Ġdom ina
Ġacumul an
S evilla
Ġl itoral
ĠB et
ver sa
ĠCas te
ĠBar t
Ġentren adores
Ġmedie val
Ġla ber
ĠI bi
Ġdig an
Ġdes lum
Ġfis c
Ġsup resiÃ³n
ster dam
ĠQuer emos
Ġaparta mento
Ġclaus ura
ie d
Ġver Ã¡n
ĠOr le
Ġcontes tar
Ġcoh echo
ĠRen fe
Ġa diÃ³s
ĠR ip
ĠDe pen
ĠOr ques
Ġreac cionar
Ġga to
g ones
Ġs ar
Ġan taÃ±o
Ġexpres amente
Ġutil idad
Ġgobern ante
Ġbor ra
Ġterra zas
erra t
Ġespiri tual
ĠM Ãºnich
Ġdi arias
ĠF on
Ġba il
Ġcafe terÃŃa
ue z
Ġplan os
Ġasist iÃ³
Ġrelie ve
ĠSe is
Ġrinc ones
ĠMendo za
ĠC IA
cios os
ĠfÃ¡ ciles
Ġreemp la
ĠgÃ©n eros
C re
Ġmun dos
Ġlleg amos
Ġfavor ece
ĠDi ana
Ġinterpre taciones
ĠDel gado
Ġco brÃ³
Ġpac ÃŃfica
Ġvig encia
Ġbill ones
aj ada
ĠEst u
Ġreclam aciÃ³n
Ġtre mendo
Ġdar les
enci ar
Ġilust ra
Ġigles ias
Ġlo gro
eci endo
Ġauto gobierno
Ġcontes ta
Ġpronunci ado
ĠT SJ
Ġdis u
Ġintegr ada
fas is
Ġprosper idad
Ġescla v
Ġun Ã¡nime
cu m
ĠO range
Ġrefer ÃŃa
Qui ero
Ġagru paciÃ³n
Ġfant Ã¡stico
U S
Ġ Ã©n
Ġpres tado
Ġmortal idad
di to
ĠAl ma
cri st
Ġsecre ta
ĠNingun o
ent ÃŃa
ĠA mar
iz quier
Ġdistingu ir
ul an
Ġdes ment
Ġtra i
Ġsim bÃ³
Ġcontinu o
Ġdedic ados
o este
Ġcicl ista
E D
r ÃŃe
Ġsu til
Ġj oya
Ġli bras
ĠRe laciones
Ġban de
Ġbas tantes
Ġregist rar
Ġdesc ol
Ġtir Ã³n
di llo
Ġb ando
ĠCon gres
Ġconf iar
Ġref iriÃ³
Ġestudi an
Ġadelan tar
ÃŃgen o
lo gÃŃa
ion ados
dic amente
Ġrecur rente
Ġexig ido
Ġdemas iadas
Ġes lo
ĠS ER
ĠAn t
ĠPara guay
Ġdecor aciÃ³n
Ġc itada
Ġavan zada
Ġdescu ento
Ġros tros
ĠacadÃ©m ica
Ġater riz
ĠHen ares
Ġin so
Ã¡r qu
Ġproto col
di gos
Ġofrecer Ã¡
Ġguard ar
ĠMir anda
Ġf reno
Ġtra te
Ġol as
ĠPla y
Ġrespec tivos
h ist
ĠT in
Ġca en
Ġtrans acciones
lex iÃ³n
ĠÃ©n fasis
Ġsi entan
Ġconvoc Ã³
Ġelev ados
Ġsometer se
âĢĿ ),
ici oso
Ġcan tera
et ÃŃn
Ġtu ber
Ġtrans ferencia
Ġgust Ã³
Ġbel la
ÃŃ l
Ġsu yas
at en
Ġcol ch
Ġimpor taciones
Ã¡f icos
ĠseÃ±al aba
ĠacompaÃ± ados
Ġacome ter
Ġse quÃŃa
ĠA du
Ġch an
Ġang los
Ġum bral
Ġin ciden
Ġtor tur
Ġacom od
Ġhere deros
Ġprevisible mente
ĠrÃ© plica
Ġc lan
Ġrevel an
Ġindependiente mente
ĠparÃ¡ metros
al ÃŃa
Ġal dea
Ġasist ente
ĠMas sa
ĠHond uras
Ġdenomin aciÃ³n
Ġguer rill
ĠMus ic
ĠagrÃŃ cola
ĠPier re
ĠCh ivas
Ġserv irÃ¡
ĠPro duc
Ġconduc tas
Ġimpar able
ĠLiber tad
ĠVirgin ia
A le
Ġex teriores
qui Ã©n
Ġpreten siÃ³n
Ġsustitu ido
Ġinform Ã¡tica
Ġexpor taciÃ³n
roso ft
ci siÃ³n
ol s
Ġmigra toria
Ġser ios
Ġsent imos
Ġsa biendo
Ġacus an
ĠMat as
Ġro ta
Ġdo tar
ĠPol it
ĠM Ã³nica
tan to
Ġrebaj as
ĠSim Ã³n
Ġrecomenda ciÃ³n
Ġbode ga
Ã³ lito
ĠG od
Ġdirec ciones
Ġcent rada
ĠPar do
Ġdig no
Ġhuel las
Ġdesplaz ados
ĠPon s
ĠOrle ans
ier tan
ĠVal ley
G ran
ĠS Ã©
Ġper tin
Ġcas ta
ĠÂ Ń
Ġlleg aban
Ġgan adores
Ġperten encia
Ġsatisf acer
u den
Ġinoc ente
p lan
Ġc itados
Ġpar rilla
Ġocur riendo
Ġbur gu
ĠGab inete
sÃ¡ til
Ġpar is
Ġfavor ita
Ġcinemato grÃ¡fica
Ġanglos aj
Ġe man
Ġr alent
ĠW ert
Ġpla tÃ³
Ġbene f
ĠfÃŃs icos
ĠMich elle
Ġamp ar
ĠVall s
ur nal
Ġdiscip lin
Ġrever tir
Ġrid ÃŃculo
s iempre
Ġc adu
Ġpas arÃŃa
ĠMa to
Ġtal la
Ġcorrup tos
Ġobserv aciÃ³n
Ġcicl istas
ĠautÃ³ c
s ell
Ġc ÃŃrculos
Ġnu be
Ġaje d
Ġtor pe
Ġacer cÃ³
Ġvac ÃŃas
Ġlig ero
ĠGust avo
D urante
Ġres idente
par tito
Ġtom e
Ġocur ra
Ġcontr ar
ĠPak istÃ¡n
ĠP ic
u era
Ġam igas
Ġdespe dir
democ racia
ĠVald Ã©s
Ġconsum ir
ĠEst atal
ve mos
Ġdepen diendo
Ġaudi torÃŃa
ĠVie jo
Ã³ metro
Ġv illa
Ġr ÃŃe
ion eros
ĠMon ter
Ġcuer da
Ġadqui riÃ³
ĠtÃŃp ico
Ġira quÃŃ
Ġleg iti
Ġchav al
Ãĵ N
Ġtra ÃŃdo
ĠL og
ud or
ĠincÃ³gn ita
ĠL iver
Ġvic tim
Ġimprescindi bles
Ġfascin ante
s us
Ġescri biendo
Ġol vida
Ġhos til
Ġsust ancia
Ġfabric ar
Ġtera pia
Ġepic entro
Ġbien venida
Ġaler tÃ³
Ġvar ones
ĠtÃ¡c tica
en Ã³fo
ÃŃ sta
ĠÃ© bola
Ġbo ico
Ġcoinci dencia
ĠAnd y
Ġnarco tra
Ġincrement ado
Ġmaltra to
Ġcor o
Ġpart y
ĠAt lanta
ĠEmp resa
ĠFeder er
L u
on ales
om an
Ġas iento
ĠIn glÃ©s
Ġconcre tamente
Ġlo ok
Ġconsecu tivos
Ġurban ÃŃstico
Ġreserv ado
ĠAquel la
Ġadvers arios
ĠvÃŃs pera
N adie
f inal
la y
Ġac cionista
Ġper d
Ġpre ma
me x
Ġcoron el
Ġindispens able
c adas
ĠR oll
Ġalcan zan
Ġbicic letas
Ġex tesor
ie dades
ĠmÃ© ritos
Ġdetermin ada
Ã¡st icas
Ġmagn ÃŃfico
Ġhoriz on
Ġindiscu tible
c uros
ÃŃ tez
Ġes qu
Ġpregun taba
eta zo
ĠSam uel
Ġremit ido
L es
Ġd amos
Ġex Ã¡menes
Ġgener ando
Ġsom br
Ġlec turas
Ġvoc ales
Ġsust ra
ĠEr dogan
Ġestric tamente
Ġdile ma
Ġcon tenciÃ³n
Ġdes orden
Ġapar ecÃŃa
ĠValenci ano
Ġcoordin adora
ĠBus quets
Ġll enas
Ġcaracter iza
Ġapos tÃ³
Ġcuan tas
Ġexpuls ado
ĠC lo
Ġesp len
ĠEl che
ari ciones
ĠCas as
Ġalim entaria
Ġsu ch
ier s
Ġtu vieran
Ġll enos
Ġcuidad os
Ġpobl ado
Ġf l
ol anda
pa tri
ens as
ÃŃs ica
Ġleg almente
Ġeleg ancia
ĠEd ward
Ġprevent iva
se gÃºn
Ġca yendo
Ġver b
Ġins Ã³l
Ġconsider ados
Ġfru tas
ĠautomÃ³vil es
Ġmu d
Ġfal lado
Ã©di to
Ġabst rac
Ġespecta culares
ĠJon athan
on ista
ĠC ÃŃrculo
ĠH Ã©ctor
Ġmar can
ĠOl iver
Ġasom br
ĠMed ina
Ġcomp uesta
Ġimp era
Ġ4 50
Ġconven cionales
Ġapor tado
Ġrevolucion ario
Ġve an
Ġestar ÃŃan
ĠmÃ¡ gico
Ġdesem bar
Ġdespren de
M o
Ġf lan
Ġrevel ado
Ġofrec ÃŃa
ĠTay lor
Ġin cau
Ġdespl ome
Ġsupermer cado
8 9
h acer
Ġde dicaciÃ³n
Ġun idos
Ġcomunic ar
Ġ( +
ĠLe Bron
Ġde tra
Ġc edido
og ue
Ġdra mÃ¡tico
Ġreconstru ir
Ġproduc tivo
Ġve ÃŃan
ĠCan aria
ĠQu int
Ã³st icos
se t
rim ido
Ġrecu ento
Ġcompar ecer
Ġorganiz Ã³
Ġinjust icia
Ġacostum brados
Ġluch ando
Ġl ien
ĠP ales
ĠIn te
Ġad junto
ĠO pen
Ġco g
Ġrep iten
ĠCi uta
dera ciones
Ġdestitu ciÃ³n
if i
Ġlleg ados
ĠCab o
ĠMic rosoft
Ġpresent ador
Ġespa cial
Ġnie to
ĠA lan
Ġpol i
Ġci ber
Ġrecom p
Ġarm ada
Ġprivileg ios
Ġrequis ito
Ġsentenci Ã³
Ġpar to
uer zo
Ġmen ciona
ĠSan ti
Ġtermin an
Ġprogres istas
Ġarres to
ĠestÃŃm ulo
Ġpesc adores
a ca
ti ga
ĠS av
ĠS ky
Ġvin culaciÃ³n
O C
t adora
Ġde vo
ĠAn tÃ³n
ĠPar ciales
cri ta
ĠMan olo
Ġvic es
Ġreac cion
Ġl ine
Ã± era
gu ayo
esti ma
Ġbar ba
Ġx enÃ³fo
Ġdescont ento
Ġde gust
ue to
Ġdoc tora
Ġcru zado
Ġ196 9
ĠMem oria
Ġp Ã³l
un do
Ġsu da
Ãº menes
tu aciÃ³n
Ġqued arÃŃa
ĠZ el
Ġintro ducciÃ³n
Ġadjud ica
mej or
ĠEstad ÃŃstica
ti ta
ĠS ir
qu ist
Ġven ÃŃan
ĠdÃ© cima
Ġtur bul
ĠacompaÃ± an
Ġnorm ales
ĠEcon Ã³mico
Ġcuesti ona
Ġdiplom Ã¡tica
f ri
ĠG io
ĠK re
Ã¡nd onos
ĠGr Ãłcia
ĠManzan ares
Ġsan itarias
Ġmanio bras
Ġhues os
Ġg rad
Ġan trop
ac ÃŃa
Ġl una
Ġingres ado
Ġcre aron
ĠTh om
Ġcentr arse
Ġencan to
Ġresal ta
Ġrepar aciÃ³n
ĠRoy al
ĠM iller
cer es
Ġcar ril
uc k
ĠHa itÃŃ
f und
s un
Ġsal ariales
Ġmuer ta
ĠSon ia
Ġcoinci diÃ³
Ġincorpor ado
Ġperu ano
p il
v ich
Ġno ven
Ġfor al
ĠSerg i
ri ga
Ġrela tivo
ĠhistÃ³r icamente
ĠBen ÃŃtez
Ġchav ismo
j im
Ġdes ent
tro it
Ġcar ecen
Ġemerg ente
Ġasfi xi
Ġhor ri
Ġmacro econ
Ġin unda
go via
ĠO cur
Ġtom arse
Ġbal anza
ĠquÃŃm ica
Ġl ist
Ġan ces
ĠU ribe
201 4
Ġextra er
Ġavis Ã³
IN E
u ado
Ġb ull
Ġfor zado
Ġinstitu tos
Ġestre ll
Ġcor eo
Ġincom pr
Ġcoopera tiva
Ġpist ola
ĠR iver
fici os
Ġrad ica
ĠRec ord
ĠRom ney
Ġinspec tores
Ġrecal cÃ³
Ġsupermer cados
ĠAlbi ol
Ġesplen dor
Ġde t
hi ma
ĠRam bla
Ġgr Ã¡fico
Ġcolon ial
ÃŃ z
Ġg rada
ĠB ul
iz aba
Ġminist er
Ġcontinu arÃ¡
Ġrey es
Ġap las
Ġmayor itaria
Ġsir va
Ġparcial mente
s im
in z
Ġman ga
ĠPar is
Ġauto cr
ĠN er
em ento
Ġdomin ante
Ġreal idades
Ġcoinci dir
de za
Ġpas tel
Ġson ar
bo ur
teri as
Ġoblig ar
Ġsum arse
ĠLeon ardo
Ġpata tas
it anos
Ã³r icamente
P E
as ia
ic he
ĠSe at
gen o
Ġtor res
Ġcu es
pu zco
Ġli tig
Ġanunci aba
Ġinfan ta
ĠValle cas
a cia
Ġde cepciÃ³n
Ġcin es
Ġart ÃŃsticas
ĠPro bablemente
Ġlimi taciÃ³n
Ġv izca
ĠP ocos
Ġmar ea
Ġcar gas
Ġrecha zan
ĠinÃº til
Ġfra ud
Ġdise Ã±os
Ġresuel ve
Ġecolog istas
ĠRick y
Ġcor aje
ĠRo jo
Ġdo bles
one y
ĠErre jÃ³n
Ġimp id
uel tas
Ġazul es
TV V
vi os
ĠÃ© tico
sa hari
ĠSin ga
Ġbipar tid
ĠE le
ĠC lÃŃn
ĠH all
ĠAm er
Ġpregun tarse
ĠTor o
ĠIC ON
un der
Ġap ues
con tin
Ġcre encias
res te
for maciÃ³n
ĠPar te
Ġfr entes
ĠXV II
k ins
ĠP y
ĠSegun do
Ġimpa go
ĠBiblio teca
ĠIbi za
ĠS to
Ġcrist ianos
Ġvulnera bilidad
izquier da
i ban
Ġs Ã³
Ġfal tÃ³
Ġsuce den
Ġdemas iada
ĠBr uno
ĠFer ran
Ġsosten ido
Ġreflex iones
ĠChar lie
ĠK ra
Ġjust amente
Ġconstitu cionales
ĠOl iv
ĠNic olas
oli ber
Ġa rist
Ġt esta
lam o
Ġmon arca
ĠCol l
Ġconcur s
Ġeu for
E TA
ab as
Ġpa Ã±
Ġem bal
ĠCor tÃ©s
Ġprotagon izÃ³
es tro
Ġrecur riÃ³
Ġcaus ar
ĠPre cio
Ġurban ismo
Ġindign ados
Ġsu cur
Ġpun k
Ġnews letter
ĠMarg arita
ol vid
Ġter res
gn er
Ġl lo
Ġs ill
pe a
Ġlu ce
Ġperju icio
ĠCon tin
gr ados
Ġvoc al
Ġadver tir
b ero
Ã© xico
Ġexp ans
Ġpr orro
Ġsal sa
Ġmis a
i tiva
bi t
Ġir lan
Ġtr ono
Ġmostr ando
Ġvac ÃŃos
Ġdispu tado
Ġbanc arios
Re al
ĠVie tnam
! ",
Ġt atu
bre gat
Ġr un
Ġmon itor
Ġadminist rador
utri ciÃ³n
Ġcen ar
Ġca ch
Ġco he
Ġdese an
estruc turas
dro la
Ġempo bre
ĠtÃ³ x
di ta
il er
Ġtrans vers
201 1
esp eraciÃ³n
ĠArgel ia
ur ada
Ġpresent ados
Ġgen oci
ĠSo to
Ġreiter Ã³
un tas
um an
uy en
ĠV as
Ġpon gan
Ġoblig atoria
ĠPro grama
ĠYo ung
Ġdispu tar
Ġmane jo
R I
Ġm itos
Ġre ba
Ġres umiÃ³
esti as
Ġna uf
Ġins ign
Ġepi demia
Ġcas arse
ĠRepres ent
G E
T I
ar emos
Ġinter n
Ġgra mos
ĠCons orcio
ĠRoc ÃŃo
ri bo
Ġpre cep
Ġsmart ph
Ġpor tÃ¡
Ġasegur arse
Ġoblig atorio
ĠEurope an
Ġprol ong
Ġquis ieron
Ġbo tas
le m
if a
ĠCar ta
Ġ197 2
Ġapell idos
Ġextesor ero
ĠN ar
Ġconf esiÃ³n
Ġsuper Ã¡
cin g
Ġsorpren der
Ġid Ã³n
Ġdes vent
Ġsub ordin
riz z
Ġsuces os
ĠCampe ones
i w
Ġvuel van
ws ki
Ġpo Ã©tica
Ġdistin ciÃ³n
Ġproteg idos
ĠTener ife
ir al
Ġor illas
201 0
Ġinso por
Ġb r
Ġcor poraciÃ³n
Ġpu de
Ġfuncion ando
Ġincapa ces
ĠQuint ana
ques a
Ġcru z
Ġobten idos
tag ena
ĠC uesta
Ġrec rea
Ġesp ada
201 3
Ġnom brar
ĠLlor ente
ĠLiver pool
G allar
ci an
ĠC ano
Ġcre ÃŃble
Ġprov iene
Ġconta ble
Ġch inas
Ġgan e
Ġiden tifica
Ġsupervis or
j adas
Ġun en
ĠU R
Ġcent rar
Ġsegu ÃŃan
Ġinterven ido
Ġexperim entar
ĠApar te
Ġinv itÃ³
Ġplan ea
terior mente
leg aciÃ³n
Ġpin ta
Ġfrances as
Ġatrac tiva
Ġais lado
aj ust
ril ler
Ġdivid ido
ĠDemoc racia
M a
ĠJo han
olÃ³g icamente
Ġsur re
Ġacon di
Ġcalent amiento
ĠAnder son
ĠLux em
Ġdes esta
ĠX i
Ġvari ables
Ġfero z
s ung
Ġimplic ado
Ġabo ga
cord ing
g ener
que ar
Ġg entes
ĠT C
Ġhum ill
be x
Ġcomen zarÃ¡
Ġnota bles
Ġsalv Ã³
Ġequivoc ado
Ġox ÃŃgeno
ĠM ana
Ġex ci
Ġte orÃŃas
ust er
ĠRos ario
erse y
Ġloc alizar
A B
ab u
Ġdes gar
Ġci fr
Ġale gando
Ġpantal ones
Ġexp uesto
ion Ã³
can es
Ġempez amos
Ġcolabor ador
Ġdesapar eciÃ³
idor m
Ġespec tro
M T
Ġapro vecha
bran te
dipu tado
Ġbenef icia
Ġdes esperaciÃ³n
ig uiÃ³
Ġcons elle
Ġsan cion
Ġarre bat
Ġemp atÃŃa
Ġtras lada
Ġrep os
Ġesper amos
Ġhabr Ã¡n
Ġhistori adores
er ie
Ġm ie
Ġan tid
Ġsus cep
Ġanti terror
Ġconta gio
Ġrepe tido
ĠÃº tiles
Ġdesign aciÃ³n
grÃ¡f icos
Ġsinton ÃŃa
am ent
Ġres e
Ġte la
so cia
Ġpeligros os
Ġvide o
Ġtraspas o
Ġiny ecciÃ³n
ĠC uenca
ĠâĢĶ Â¿
Ġinstal Ã³
Ġproyec ciones
per son
ĠComun ista
ĠEcon Ã³mica
Ġcompr ador
Ġsacerdo te
di stas
Ġdes cripciÃ³n
ie ta
ĠN ingÃºn
Ġref ren
Ġconci li
Ġavis a
Gallar dÃ³n
Ġin al
udi Ã³
Ġgan arse
ĠAnd ro
Ġagrade cer
Ġmaravill osa
T ambiÃ©n
Ġp ra
ĠA Ã±o
la ves
Ġsuces ivos
Ġlatinoameric ano
d ares
Ġcon tienda
ma il
der ÃŃas
ĠV ela
Ã©r f
Ġcin tur
Ġvisit ado
Ġvac ÃŃa
Ġnervi oso
ĠRepublic ana
Ġca po
Ġpe di
ĠSe p
ĠPar ker
tic s
ĠÃģ ra
Ġasturi ano
ĠacompaÃ± Ã³
Ġgobern ado
gal lo
Ġsuperior idad
Ġago tado
ĠAlex is
Ġran king
Ġaparta mentos
ĠNingun a
ĠAl ves
arc ado
Ġlleg ara
Ġdo tado
Ġmagist rada
Ġdes com
tr arse
Ġres tantes
Ġinv ol
ĠBan g
Ġvas o
Ġimposi bles
Ã³graf o
Ġin er
Ġgener osidad
Ġefica ces
Ġre duciendo
Ġsitu arse
Ġesca parate
Ġconseguir lo
Ġbeb ida
Ġgui puzco
per ci
Ġmuer e
Ġrecon ciliaciÃ³n
Ġdedic adas
Ġconqu istar
Ġme tÃ¡
ĠD jo
Ġemp er
Ġvis ibles
Ġtermin e
ĠB asta
ĠU ber
co pia
Ġfuncion ado
ha bi
laz amiento
ĠIndi ana
Ġante cesor
Ġestre cho
Ġsolici ta
Ġmodern izaciÃ³n
Ġc emento
Ġab riendo
u ch
Ġab ar
Ġmon arquÃŃa
Ġtab l
Ġemer gencias
Ġver an
gon al
Ġdesplaz amientos
Ġmedal las
Ġpres ume
Ġmen ciÃ³n
Ġconstru yendo
Ġcivil izaciÃ³n
Ġcompeti tiva
Ġchil ena
ĠmarroquÃŃ es
O TO
Ġper didos
ĠF und
ĠI V
Ġsue los
Ġenfr entado
Ġsuel ta
Ġdesconoci dos
Ġele f
Ġfeder ales
Ġimp lac
IS A
Ġconviv en
Ġinteg ran
ogr Ã¡fico
v Ã©
ĠA man
Ġconden Ã³
Ġvel ada
Ġ196 4
ĠLic eo
de lo
Ġh ur
ver tida
Ġch ir
Ġale gre
Ġalcan zaron
Ġaverigu ar
ĠMonts errat
Ġpar Ã³
ca piÃ©
ĠGol den
Ġach ac
Ġrecur rido
Ġalfom bra
N uestro
Ġa tar
di eran
Ġcer radas
Ġanunci aron
Ġpin tar
Ġcaracter ÃŃstica
ĠTrans portes
Ġaca par
ĠCh am
Ġreclam o
Ġsomet idos
Ġpo tentes
Ġinter iores
ĠCu rios
Ġcertific ado
Ġcoher encia
st ribu
Ġb rig
Ġtes oro
Ġincen di
or y
se y
Ġper tur
oc Ã³
ĠAs h
Ġprovoc an
Ġarre me
Ġsecund ario
Ġasesor amiento
Ġdifun dido
Ġmultiplic ado
ĠestÃŃm ulos
in clu
Ġir on
Ġ12 5
ĠRos e
ĠMil itar
Ġdiplom Ã¡ticos
Ġeusk era
C o
Ġca f
Ġri endas
Ġsub en
ĠC ajas
ĠEn ric
Ġaf ines
Ġreun ieron
ĠNav as
Ġcontun dencia
Ġprepar an
Ġch arlas
Ġtriunf os
fortun adamente
Ġimp edido
ĠEst ambul
cul as
Ġpresent adas
Ġespecial izados
Ġbal let
Ġabor da
Ġadquis itivo
Ġra cha
Ġvolver Ã¡n
Ġjubil ados
v illas
Ġin acep
ĠRe f
ĠestÃ¡n dares
Ġpen ins
Ġbril lantes
Ġcere bral
Ġsol as
Ġru idos
Ġanterior mente
pol ÃŃtica
lo pe
Ġconstru ye
Ġalim ento
Ġdemos traciÃ³n
Ġcome tiÃ³
Ġcoher ente
Ġeufor ia
Ġreci biendo
Ġtar des
Ġagres or
ĠDy lan
ĠRT VE
B uen
b ec
Ġmo tos
Ġapo der
A t
n el
Ġal ud
Ġcor rida
Ġpos guerra
Ġinmo vil
es idad
Ġg ad
Ġlo b
Ġvol vÃŃa
Ġfunda ciones
Ġroji blan
Ġc iencias
Ġau tos
Ġofre ciendo
Ġcontinu ado
Ġ196 2
ĠSinga pur
am par
Ġgener almente
Ġempez aba
Ġrebo te
ĠolÃŃmp ica
ĠsÃŃnt oma
Ġa mo
ĠE bro
Ġrecord ando
Ġl lave
br ica
Ġcos mo
ĠVal de
ya hu
AS A
Ġajed rez
di encia
Ġsol ares
Ġcam ina
ĠK ate
ok e
Ġen ca
ĠR ud
ĠRe tiro
Ġcumpl iendo
Ġdefen diendo
Ġparticipa ciones
Ġbilater al
ĠM ul
Ġcol as
Ġreal ismo
Ġtransfor mado
ĠBal les
Ġarm ario
Ã¡ ut
ol io
ĠN as
Ġviv ieron
Ġcual idades
ĠPo drÃŃa
ĠIs la
Ġreconoci dos
ĠBen idorm
e ado
ma y
ĠLe jos
Ġsencil lamente
Ġinteran ual
da vÃŃa
Ġpre cau
Ġcomp ensa
Ġab arca
ĠAl g
Ġcar ica
Ġpon encia
Ġarquitec tÃ³n
ĠfÃŃs icamente
Ġexhi bir
Ġhero ÃŃna
ĠLuxem burgo
ĠB in
iv al
ĠI bex
Ġconstru ida
ĠcÃº b
Ġdiscul pas
al th
Ġre ta
Ġpara guas
ĠG h
ĠH arry
Ġaf ian
ale la
Ġexplos ivos
Ġhin capiÃ©
Ġseman al
ĠdiÃ¡ logos
ĠLa va
ĠHa bi
Ġgenera cional
Ġimpro bable
Ġportugu esa
B O
ti ci
ĠD icen
Ġsig o
et ti
Ġu cran
Ġcontrol ada
Ġagres ivo
ĠsÃŃn drome
Ġeviden tes
Ġjer arquÃŃa
ĠDjo kovic
g ante
s y
ĠR as
Ġsitu ar
Ġbec a
ĠAndro id
ĠJ ard
Ġcap as
Ġsuf rag
Ġneoyor quino
ĠW hite
Ġra ma
Ġpal iar
Ġ197 1
Ġrepro ducciÃ³n
Ġespecu la
Ġexit osa
ĠK an
ĠCh arlo
Ġocup ados
ce laciÃ³n
tra ciones
ca ciones
Ġr ene
Ġcos m
ĠMa teo
ĠGran d
Ġllama tivo
Ġinform Ã¡ticos
Ġnar raciÃ³n
ĠclÃ¡us ula
J o
Ġes quiv
ĠN an
Ġinesper ada
ĠCompe tencia
ĠOrques ta
Ġg et
ĠG eo
cuent ro
th ing
Ġdisco teca
Ġabrir se
Ġbel lo
ĠConsell erÃŃa
ĠGÃ©n ova
ĠIn Ã©s
ĠW h
Ġreper cu
ÃŃg ena
N uestra
ol la
Ġcas Ã³
Ġco pi
Ġvi mos
Ġef ÃŃm
Ġconoci eron
Ġescas as
Ġf Ã³s
ru dencia
Ġpen Ãºlti
ĠL et
ĠD ick
bil lo
Ġposi tivas
Ġreci bo
Ġinf lexiÃ³n
Ġcir ug
ĠEx iste
Ġadv ir
ĠGuin ea
Ġbl ues
E C
Ġmedi aciÃ³n
Ġsep ul
ĠGal le
ĠJa vi
Ġpion ero
Ġencues tados
in stein
ĠP uy
ĠAl co
Ġcomun ica
ĠCar ras
ĠLo zano
ĠMi re
Ġinsist ir
Ġdesn udo
Ġretribu ciÃ³n
7 6
es s
ĠCar tagena
Ġbe ing
Ã¡nd oles
Ġce diÃ³
Ġmone das
Ġape te
ĠIber drola
Ġilum inaciÃ³n
Ġjugue tes
b ando
l ana
ĠC AM
Ġru ina
Ġestatu a
Ġsuje tos
Ġinvestig ando
Ġmor ales
Ġech ado
Ġpod ÃŃamos
m il
Ġl Ã¡p
Ġest el
Ġau da
las h
Ġdirec tas
Ġdesa perci
ĠBlo om
% ;
O r
R ec
tor i
Ġseg mento
Ġincl us
ut ad
Ġh igh
ici li
Ġlibre mente
Ġintegr ar
Ġdiscre to
Ġaro und
Ġfraud ul
Ġmu leta
Ġsub sahari
Ġdest inar
nes ota
Ġcontr arios
Ġindic ador
Ġpsic olÃ³gico
ĠOc cidental
Ġenga Ã±o
ĠWal ter
Ġgesti ones
RO B
Ġs ano
Ġpar alela
Ġimpuls ada
Ġfich a
ĠPri eto
Ġmeter se
S o
por ta
Ġval la
ĠAt las
Ġnu bes
Ġexconse jero
un ar
ĠG rizz
Ġllam aron
Ġvolun tario
Ġdesarroll ando
Ġtribu taria
ĠE ast
me dio
Ġbal ones
Ġfirm eza
Ġaustral iano
ĠLÃŃ bano
ĠPales tina
C Ã¡
on na
Ġin und
Ġac Ãºst
Ġinsist encia
Ġpropor cion
Ġsimp les
ĠPrin ce
ĠaerolÃŃn ea
Ġar zobis
Ġbi g
Ġve la
ĠRu z
Ġfamos as
Ġcorre dores
ĠsÃ¡ bados
Ġmeto d
l io
ier da
par te
Ġcentro camp
ĠValenci anas
Ġdestin adas
Ġexcel entes
Ġexplor aciÃ³n
Ġdelincu encia
Ġs ay
ĠA mp
Ġpronunci arse
Ġalber gar
ĠdÃ©ci mo
Ġd am
ter apia
Ġsel f
ĠNatal ia
8 6
r ÃŃ
Ġde ter
Ġcre aciones
Ġindemn izaciones
ĠinÃ©di to
Ġpatrimon ial
id urÃŃa
Ġal tamente
ĠB aja
Ġlan zaron
Ġsecund arios
Ġexter nos
Ġlust ro
n ed
Ġl iv
in ten
ĠMi kel
Ġcuer das
Ġgole ador
ĠV et
Ġgen u
cien den
ĠsocialdemÃ³cra ta
P D
Ġ ris
Ġal as
Ġdo wn
Ġotor gar
Â ´
Ġla c
Ġpereg r
h oy
ÃŃ das
ĠDe troit
Ġins pira
Ġfuncion Ã³
ĠHo ward
Ġincon di
Ġmaqu illa
Ġproclam Ã³
Ġcomba ti
v iene
Ġper if
Ġcas e
Ġmo biliario
ĠTh at
Ġcomprome te
Ġremon ta
ĠlingÃ¼ ÃŃstica
Ġcabec era
er es
or ros
je tivo
Ġproy ecta
Ġinm or
Ġcompatrio tas
Ã© lite
go bern
aj or
ĠF os
Ġau la
Ġhab lo
if eraciÃ³n
ĠCar l
Ġth ree
Ġapos tado
c Ã¡
tar lo
Ġescu chas
ĠGran ados
ĠÃŃn tegra
verg adura
Ġel abora
Ġman siÃ³n
Ġis l
Ġinspec tor
Ġfantas mas
igu iendo
Ġmascul ina
Ġexcep cionales
ĠBos ch
Ġcu ader
ĠO v
ĠIn gen
ĠÃ Ģ
Ġadelan to
Ġtremen da
Ġen vergadura
Ġk irchner
dor ra
Ġapren diÃ³
Ġpun tuales
Ġparlament arias
ĠCap it
ab y
uer te
rec ciÃ³n
Ġalar m
Ġmillon ario
ĠÃŃ bamos
Ġn Ã³r
ĠA tenciÃ³n
ba ta
duci das
Ġtrav esÃŃa
ĠenseÃ± Ã³
Ġbrome a
Ġprogres iva
an ueva
Ġen re
Ġinvestig ados
Ġlegisla tivo
ca ci
ĠTor ra
ĠCons ul
Ġine quÃŃ
ĠL li
Ġreci cla
Ġgeo grafÃŃa
ĠEmer gencias
p osi
ĠL ola
ĠS iete
Ġto caba
Ġan da
ras e
Ġpre ve
um bres
Ġgener alizado
Ġcomun itaria
Ġpasar ela
Ġalmacen es
O M
b Ã¡n
Ġimp ens
Ġemp at
uel tos
Ġasist ido
Ġtit ulada
Ġcomis aria
Ġrebel de
lip pers
Ġp eces
Ġco tizaciones
Ġmen cionar
Ġhom bro
ĠCam ino
u res
ell s
Ġaband ona
Ġasi entos
Ġsemi final
8 5
z amiento
Ġel ecto
le tos
Ġcan san
Ġocur rÃŃa
ĠRib era
for e
Ġcorrec tamente
Ġdes blo
ĠI N
Ġbal cÃ³n
ĠcientÃŃf icas
Ġimpuls Ã³
Ġhall ado
m ÃŃn
as on
ve da
Ġconsider arse
Ġverda deros
Ġporcent ajes
Ġprefer encias
Ġs po
ÃŃ bles
ent Ã¡
Ġme d
br idge
Ġpermi tieron
ĠespecÃŃf icas
D S
iz ador
En tre
ĠVera cruz
Ġlid iar
Ġd ir
ve y
Ġresul taba
ĠNi Ã±o
Ġrema tÃ³
Ġirre vers
ĠUn esco
Ġdecir se
Ġ17 0
Ġdiplom Ã¡ticas
Ġgar aje
Ġtelef Ã³nicas
Ġladr ones
Ġmie dos
A F
Ġque den
ĠC ay
ĠM iles
Ġpregun to
Ġdue le
Ġdich os
d ol
gu ard
Ġam nistÃŃa
Ġcambi e
Ġreci cl
Ġamena zado
Ġtir Ã³
Ġrespec tivas
ĠNet an
ra mento
cu a
ver tir
Ġresul te
Ġth ese
Ġandalu zas
Ġcompeti ciones
Ġpaque tes
Ġhura cÃ¡n
Ġt rib
Ġv entan
ĠEst her
Ġconvertir Ã¡
Ġvangu ardi
ĠsÃ©p tima
ĠsimbÃ³ lica
Ġimp reg
Ġencar na
Ġdepen der
Ã³l icas
Ġelimin atoria
Ġecos istema
ent adas
Ġin olvid
Ġvol Ãºmenes
Ġconden as
Ġcomple mento
Ġ196 6
Ġrenunci Ã³
Ġtex til
Ġdefra ud
f atura
el son
Ġres uci
Ġten ista
gar o
Ġro bÃ³
ĠPu ente
Ġdich as
Ġpas iones
Ġcar os
Ġlider ada
ĠDal ÃŃ
utad ans
Ġm entales
gra ph
ĠVal ent
Ġadecu adas
Ġment ir
v ista
ĠL ib
Ġmez quita
IC A
Ġesco g
o b
cip iente
ment s
Ġdiscrepan cias
Ġb rus
pe ta
con oci
ĠCom pos
Ġdepor tista
Ġutiliz ada
Ġtradu cir
Ġmedioambi entales
Ġcre encia
Ġcont ing
Ġ196 3
Ġalar mas
Ġcongres os
ĠGrizz lies
A pp
l amos
t riz
ĠP erio
Ġcar denal
Ġcos echa
Ġrecib ida
ot ti
ĠC y
ĠD ÃŃas
ĠJ uego
Ġpres ionar
ut ada
Ġcic los
Ġelig e
Ġimpec able
h Ã©ro
es as
Ġen vÃŃa
qu in
ĠF ol
Ġob viamente
Ġdon antes
itar ismo
Ġtri partito
Ġacep table
dro mo
ĠContemp orÃ¡n
la ck
Ġri tual
Ġrepresent ado
Ġmetro politana
ĠLlo bregat
ĠhÃŃ br
Ġd ay
Ġest ro
Ġinter cep
Ġdeci mos
Ġprote ge
Ġprofesor ado
Ġpopul istas
Ġser iamente
Ġma tiz
Ġmill ion
Ġfurgon eta
ĠA bel
ĠL ady
Ġbar atos
Ġvac as
Ġinau gura
ĠVet tel
id able
ĠSu b
mis iones
ĠChrist op
ĠsuperÃ¡ vit
ĠNetan yahu
Ġob esidad
vers iones
Ġintro duce
ĠespecÃŃf icos
ĠLle va
Ġcurr ÃŃculo
U D
Ġsin te
itu des
Ġne oliber
Ġinte gra
Ġdev as
Ġub icada
Ġtribu to
re dedor
ĠE z
Ġest imaciÃ³n
ĠJ oy
Ġmarch arse
ĠRepublic ano
Ġpremis a
Ġver bal
Ġconf ÃŃan
Ġpu gna
Ġpales tino
Ġin ad
ÃŃf icos
h l
do cu
Ġtr on
Ġemple ada
ell y
Ġconven iencia
ĠBa ch
Ġresiden cial
Ġnav es
ĠRecuer do
ĠJust in
Ġatrac tivos
Ġignor ancia
Ġent end
Ġab ono
Ġvia jado
Ġcomple jas
Ġimpon ente
Ġhomici dios
Ġoscur as
Ġcampes inos
9 6
A m
ĠT em
Ġhu Ã©rf
Ġacces os
Ġvati cin
m ero
w ays
ol in
Ġw ay
Ġsue co
Ġinci de
es pa
ĠF ri
Ġder ra
Ġrecib ÃŃa
ĠVil anova
Ġinus ual
ĠLiter atura
es tra
Ġsu pe
Ġ- "
Ġag rup
Ġbor rar
Ġlig era
Ġpresid ida
Ġmod alidad
T C
Ġd oy
Ġlo go
Ġper j
Ġquer ÃŃamos
Ġgrande za
ĠUnivers itat
Ġferro car
Ġocta vos
b oy
Ġcon de
Ġpro li
ĠB iel
Ġpas illo
Ġpla ce
Ġases inos
Ġdepen dencias
Ġsustitu to
Ġrevel ar
ĠAndr Ã©
ĠS ostenible
ĠR av
Ġsab idurÃŃa
Ġalter n
Ġnoctur no
Po demos
Ġe very
al an
fer as
Ġconsum e
Ġorg Ã¡nica
ĠDu que
ĠBri tish
Ġaconse ja
Ġemocion ante
Ġc un
Ġpe dÃŃan
ĠZ arz
Ġbon ita
ĠcontemporÃ¡n eos
Ġemig rantes
E mp
ĠJ ong
aliz ando
Ġimpor tar
Ġhistor ial
Ġgui Ã±o
Ġburo cr
v ana
ti emp
ĠB aj
Ġcr Ã³nicas
Ġsimp atÃŃa
Ġdil u
ĠreÃºn en
Ġrotun do
Ġobis pos
Ġdespl om
z ones
Ġc igar
ĠÃģ vila
Ġpos turas
ĠTer ra
Ġcorrec ciÃ³n
ĠFil ip
Ġcopa go
Ġaban ico
ĠRami ro
al ar
Ġconstruc ciones
Ġinfin ita
C S
r encia
Ġy er
Ġal av
ĠS tone
ĠT y
Ġresist ir
i tia
in ando
ĠA N
ĠZ ona
ĠCo ordin
Ġata jar
atas una
Ġre it
ri al
Ġin sa
Ġimp lÃŃ
Ġfin cas
Ġinf rac
Ġcur s
Ġinver na
B S
Ġley Ã³
Ġexten sa
Ġoper ador
ĠSte ven
Ġanual mente
ĠUnivers al
Ġfol k
Ġarbi tr
Ġen lace
ĠI Ã±igo
vo t
Ġdefin en
Ġarro ll
Ġhier ba
9 7
tiv es
oc ol
Ġser ias
Ġtra jo
Ġter n
ĠW olf
Ġmuer en
f onÃŃa
de ar
le al
Ġcons entimiento
ĠSe govia
ĠAr ch
cel otti
Ġvulner able
ĠEst ra
Ġev olucion
Ġtab Ãº
ĠInf anta
Ġpuntu aliza
ĠBeat les
Ġcontrar res
Ġp uls
ĠAl cor
Ġrec ar
Ġqued arÃ¡n
Ġpos tre
ect ada
Ġelim inado
Ġrecog iÃ³
Ġzapa tillas
Ġdesplaz amiento
ĠFil osofÃŃa
es table
Ã± ados
Ġlo ca
mo der
Ġexpecta tiva
Ġestan camiento
ĠVel Ã¡zquez
k ia
Ġcon ecta
Ġth ro
Ġpresupues tarios
ĠvÃŃs peras
Ġv it
ĠCon f
Ġ19 45
Ġhom o
Ġpat as
Ġos curos
Ġmonstru o
ĠBull s
Ġg all
Ġcan tando
Ġmis iles
Ġsober ana
ĠlÃŃqu ido
f ue
Ġba hÃŃa
Ġdisc usiones
Ġexces ivamente
Ġmist erios
Ġrobo ts
Ġescal era
Ġsof Ã¡
Ġesc Ã©p
Ġaum entan
int za
Ġm ÃŃtica
ĠG inebra
Ġan om
Ġvo te
Ġcap itan
Ġsubray ar
Ġpsi quia
c ones
Ġre e
Ġlo cos
ĠT s
ĠN ap
Ġu top
Ġlabor atorios
Ġindi e
Ġdescu entos
fi que
Ġcampe ones
Ġm ierda
Ġel udir
Ġdi vide
ĠO MS
Ġbu ce
an ces
ig uen
Ġpr osa
ment ado
Ġflu jos
Ġocup aba
ĠBienes tar
caci elos
Ġsu biendo
am b
ĠB io
Ġpo quito
Ġcre cieron
Ġleg ÃŃtimo
Ġincon stitu
Ġrode ada
Ġprefer entes
y al
ĠB ust
Ġforma tos
Ġplante amientos
Ġproce dencia
Ġenten diÃ³
ĠTel Ã©f
d Ãº
Ġm ana
Ġex director
Ġfor os
Ġvis lum
Ġrepe ticiÃ³n
Ġnar iz
Ġtem Ã¡tica
Ġespecu laciÃ³n
Ġc Ã³mico
ana ir
ĠAl terna
ĠPol ÃŃticas
Ġperder se
Ġreconoc ÃŃa
Ġmagn ÃŃfica
Ġeviden cias
Ġcans ado
Ġdesobe diencia
Ġgrad ual
A demÃ¡s
ĠMin uto
Ġrenov ado
Ġs y
ul ados
âĢĿ ).
Ġapre ciar
Ġom n
Ġbombar deos
ÃŃ no
ist s
Ġimper ial
CA T
Ġprom ueve
Ġun ida
Ġse e
Ġv itales
ĠT entaciones
Ġhun dimiento
Ġrecomend able
Ġlle guÃ©
Ġcor por
Ġfi bra
Ġaprob adas
Ġcoinci dieron
EN A
Ġbiblio tecas
ĠincÃ³mo do
Ġa tis
Ġpa usa
Ġab arro
ĠCh ap
Ġvis u
Ġtelef onÃŃa
S er
Ġe uf
os ÃŃm
Ġcu ero
ĠD ay
cep ticismo
Ġprovin ciales
Ġmoles ta
en ix
Ġin du
Ġ( Â¿
ÃŃn as
Ġjug adas
Ġdirig idas
Ġatre ve
Ġdespro por
Ġt uer
Ġli bra
Ġfracas ado
Ġsuces ivas
Ġsoberan istas
Ġlong itud
t ent
Ġres on
Ġestre ch
Ġdesapar ece
Ġdescar tar
Ġloc alizaciÃ³n
Ġtoc ando
Ġcontrovers ia
Ġen ro
el los
Ġdeci dida
ĠCol Ã³n
ĠVill anueva
ĠDo ug
Ġtradu cido
Ġprol iferaciÃ³n
ĠUnivers ity
Ġrefuer zo
os ti
it alizaciÃ³n
Ġconfir maciÃ³n
Ġelev Ã³
C ree
Ġemple ar
Ġorganiz an
Ġinmig rante
Ġcomprome ter
Ġadjud icaciones
Ġdeli ber
g ina
Ġesp an
p rin
Ġy u
Ġmon th
Ġespecial idad
ĠBar rio
Ġaten dido
Ġrea par
Ġcolum nas
Ġdescri biÃ³
Ġtien den
cip es
Ġafec tarÃ¡
Ġinici aron
Ġrepar ar
Ġaplic an
Ġmara villa
Ġw hile
ĠJun cker
ĠdomÃ©st ico
Ġinterlocu tor
Ġdirig idos
pro ducciÃ³n
Ġdispar ar
Ġcomercial izaciÃ³n
Ġdelan teros
Ġe jes
Ġin medi
se la
Ġpr en
ĠAn celotti
Ġinform al
adal ona
Ġfemin ismo
Ġb es
ĠF P
ĠdiseÃ± ada
Ġfic ti
ĠOv iedo
Ġde ton
Ġexig ÃŃa
ric e
ĠEm manuel
Ġc una
Ġmon tado
Ġfund ado
Ġque m
ĠAr co
Ġth riller
Ġencar n
ĠSam sung
ĠGol fo
Ġsat Ã©lite
Ġpol lo
ing ue
Ġante proyecto
Ġden s
ĠEuro grupo
Ġnor core
Ġtom adas
Ġbal ear
ĠPen ÃŃnsula
Ġrestr ic
Ġsevill ano
ĠCi utadans
Ġsens ibles
ĠBen ito
Ġcump lan
u des
st em
ina ciones
Ġredi stribu
ĠZarz uela
Ġdel s
Ã© lica
ĠJ al
Ġfue gos
Ġver la
Ġfil mes
ĠBern ard
Ġcha queta
Ġprefi riÃ³
Ġatribuy en
ĠmÃ¡ gica
Ġatra e
Ġras cacielos
Ġdefender se
Ġ195 9
ĠG loria
Ġof rez
Ġus Ã³
Ġfre cuent
Ġsta te
Ġm im
Ġn Ã³
Ġval entÃŃa
Ġapar ecieron
Ġfrag mentos
I F
Ġfin o
Ġcer raron
Ġhos telerÃŃa
Ġrepar tidos
Ġexperim ental
r ales
Ġse min
Ġ19 50
cios as
Ġaus ente
ĠB ad
Ġch anta
fic e
bu ena
Ġgobern anza
ĠmÃŃn imas
Ġtel Ã³n
Ġjam Ã³n
Ġmusul mana
G u
S erÃ¡
l iga
am pa
Ġac amp
ĠD im
ĠPor ta
Ġcomun istas
Ġsur f
dor as
Ġestu vieran
Ġconcent rado
Ġcompa tible
Ġatro pel
Ġautop ista
ĠTerri torio
Ġexpec taciÃ³n
ĠAmer ica
8 7
Ġin cul
ĠDe trÃ¡s
Ġempren dedor
! ".
ĠS id
Ġvo taciones
bel es
Ġcoloc aciÃ³n
Ġintent aba
Ġdesconoci da
ri son
ĠA segura
ĠAl ber
ven ido
Ġmon asterio
Ġu ti
Ġenc aje
Ġiden tidades
ĠÃ¡n gel
Ġcol o
Ġpublic adas
Ġcontinu amente
ĠEx p
ĠLi bre
ĠvÃ©r tigo
s App
ĠE H
ĠY emen
Ġrep lante
Ġdem ora
Mu chos
D os
Ġmar ÃŃtimo
ĠCom Ãº
Ġencuent re
ĠTele visiÃ³n
ĠEr tza
Ġeter na
Ġenveje cimiento
Ġdefici encias
s ide
ĠP ie
Ġexp la
za Ã±a
Ġmar is
aliz aron
Ġcal cular
âĢ¦ âĢĿ,
Ġlegend ario
Ġperfor man
z or
Ġme tas
Ġcre ma
r ent
Ġan ular
Ġmin as
Ġev oca
Ġpl uma
Ġexist ÃŃan
Ġdu que
ĠGi jÃ³n
ĠCor ner
Ġenfr entÃ³
Ġdescan sar
l on
po der
Ġman y
Ġjap oneses
ĠInfra estructuras
ĠRegist ro
fic ado
Ġarres tado
z oso
ĠA us
ĠF la
Ġexist ido
Ġasist ieron
Ġcat Ã³licos
ia go
gu in
ap ro
Ġresiden cias
Ġaga inst
Ġmal lor
gol pe
Ġp adr
Ġen ven
ĠC ri
Ġdes esti
Ġextra va
Ã¨ re
Ġextraordin arias
Ġcontamin antes
L E
tal la
ĠK at
Ġcomun itarios
Ġoblig an
Ġconviv ir
ĠCer ca
Ġcontribuy Ã³
ĠDon de
Ġpreocup ados
la go
ab eth
Ġan illo
Ġirre le
ĠRepresent antes
ĠI m
Ġconver tida
Ġgen es
Ġmat riz
Ġderiv ado
ĠIb ero
ĠRip oll
c ribe
Ġac ar
ĠRe us
Ġvol a
ĠMon ti
Ġur gentes
Ġbenefici ado
Ġcritic an
Ġpas tor
Ġexp uso
Ġacer can
Ġconst atar
Ġcuestion ar
g y
Ġy endo
ber na
pen ha
ĠSil icon
w ing
Ġp ana
ĠR esta
Ġper cep
ĠMin nesota
Ġescuch Ã³
Ġmonum entos
Ġfidel idad
ĠP T
ĠEn desa
Ġimp iden
Ġconf ec
Ġapunta ba
Ġ196 5
ĠSp urs
al ias
mp a
Ġles ionado
ĠLe opol
Ġhabi tante
Ġpromo cionar
z il
Ġp iz
ĠC esc
Ġins ostenible
com paÃ±
Ġdesarrol lan
Ġofre cieron
Ġperman eciÃ³
Ġtro feo
Ġpun tual
v ir
ĠP D
mi ble
ion ada
Ġpues tas
Ġvig ilar
Ġalim enta
Ġconcent ran
ĠKen ia
u che
Ġbar aj
ĠÃ©p ica
Ġdesen can
Ġb ono
ĠCon stru
Ġfi jÃ³
ĠErtza intza
Ã¡ ramos
ĠAl guien
Ġmis iones
ĠInstitu te
Ġplur alidad
A sÃŃ
j en
or ias
Ġgas tado
Ġacus ada
Ġfac ultad
Ġprestig ioso
Ġflexi ble
ĠCiuta t
J osÃ©
Ġpens ionistas
ĠCatal onia
Ġdo taciÃ³n
ĠCons erv
gre b
Ġpsic Ã³logo
Ġface ta
Ġper n
man al
Ġmul tic
Ġambi entales
ĠÃ¡n imos
Ġasamble as
Ġcu aj
ĠB oca
iemp o
udad anos
Ġsent ÃŃ
Ġconoc ÃŃan
Ġnorm alizaciÃ³n
V en
Ġin cierto
it ora
Ġestu ve
Ġaj enas
Ġaspir ar
idal go
ĠCav al
u ge
as is
ic ant
ĠM ala
ĠR TVV
ĠAl mo
Ġmor osidad
ĠBr y
Ġapun tal
Ġc oc
ion ismo
ĠK ut
Ġrela tÃ³
Ġdiver tida
Ġacces ible
ĠLeg anÃ©s
Ġadquier e
c ando
Ġac tivas
Ġcla ust
Ġfum ar
i arse
ĠAn ti
Ġra mas
Ġtran sex
Ġmode sto
Ġgo za
Ġescon der
ĠFa bi
ĠFlor entino
vie ja
ĠC IS
Ġeste la
ĠseÃ± ores
Ġsecre tarios
Ġconten cioso
Ġde grad
Ġc itÃ³
ĠAl b
Ġaf luencia
Ġdor mit
Ġhal lar
ĠXa bi
Ġdeca dencia
G ra
Ġc ed
en an
Ġpas arÃ¡n
Ġver y
Ġven dedores
Ġrev uelta
Ġsen das
ĠClaudi o
al im
gl om
ĠHab la
Ġlig ado
ĠLeopol do
ĠG ian
Ġqu im
Ġdon osti
Ġinv ento
ho p
ĠMa chado
Ġindic ar
Ġproteg ida
ĠMil an
Ġconfirm aron
A h
Ġb all
ber ÃŃa
ĠCom paÃ±
Ġdig amos
Ġdific ulta
ÃŃm ir
Ġmanz ana
Ġs ana
ĠL Ã¡
ĠG aran
Ġau gura
Ġaf in
ĠJo urnal
Ġdiri gen
ĠWhat sApp
Ġadh esiÃ³n
ch ados
ĠD ir
Ġab undan
ke e
Ġorden ar
ĠQue da
Fran cia
m sterdam
ment ados
Ġintro dujo
Ġdesalo jo
ĠclÃ¡us ulas
D onald
an ti
Ġpor tadas
ĠC asta
ig ra
Ġimp uesta
ĠZ e
Ġru mor
Ġregist rada
ĠEx per
Ġautom Ã¡ticamente
ĠBarre iro
ĠN ecesitamos
Ġpo zo
Ġdis para
Ġins Ã³lito
Ġconsol idado
ĠDam asco
al do
Ġre mite
Ġcal ificar
Ġsalv ajes
ĠpÃ¡r ra
Ġde bo
ĠB adalona
Ġrec ent
Ġban queros
ĠcÃ³ digos
Ġoptim istas
ĠrÃ©cord s
ĠIgual dad
Ġhormig Ã³n
g all
Ġes quÃŃ
Ġap ela
Ġar en
Ġart ÃŃfic
ĠLond on
Ġacce diÃ³
Ġempu je
Ġaro ma
Ġaproxi maciÃ³n
Ġmaquilla je
Ġc ris
ĠK y
Ġfac ulta
Ġsor teo
ĠMor gan
Ġacep tan
Ġinf il
ho ut
ĠMo ore
Ġinternacional izaciÃ³n
Ġcomb inar
Ġconstitu ir
Ġmovil izar
ĠFra ga
. -
Ġe ven
id d
ĠC R
Ã¡n eo
Ġagra v
Ġtratar a
Ġtribun a
Ġcom entado
Ġpas aban
Ġasegur ando
ĠCons ide
Ġaspir an
Ġconme mora
Ġcaf Ã©s
Ġa ran
Ġc ica
ten er
fer os
ĠK ir
Ġafec tÃ³
her Ã¡n
Ġmatr ÃŃcula
Ġproduc tiva
Ġgu ÃŃas
Ġdisminu ir
ĠCompos tela
Ã¡ ce
Ġven didos
rea k
Ġoportun o
Ġta pa
Ġec olÃ³gico
in te
ĠP ien
ĠB atasuna
ĠF ir
Ġfi jos
ĠNi k
Ġacum ular
Ġsomet ida
ĠInvesti gaciones
Ġcorro bor
ĠMonter rey
c to
Ġse amos
ĠA gua
ĠV ig
Ġcomp la
Ġden eg
ĠCol um
Ġdiscre ciÃ³n
ĠKo be
Ġnotable mente
Ġdesat Ã³
Ġequ idad
k us
ci edad
Ġpas en
Ġpes im
ĠPa ch
Ġextra cciÃ³n
Ġextre me
Ġesco gido
Ġc ie
ĠL yn
ĠR ayo
Ġvol cÃ¡n
Ġsocial mente
ĠVal ores
Ġba tir
Ġauto estima
Ġsen dos
Ġesca p
ĠAla ya
ĠBri an
Ġlog ÃŃstica
ĠtrÃ¡g ico
ĠTelÃ©f ono
N e
P I
Ġh Ãºn
Ġau gur
Ġpart ÃŃculas
Ġinv ad
ĠLo pe
th y
ĠVic tor
Ġsatisf ac
Ġmig raciÃ³n
Ġconvir tiÃ©ndose
Ġdiscipl inas
Ġs ida
Ġo wn
ĠIndi tex
ĠPres idente
ĠPas eo
ĠRom Ã¡n
Ġretribu ciones
H u
p rim
s ible
ĠH ierro
if f
if ique
Ġir res
Ġsub y
ĠRo jas
ent aba
Ġavan zando
ĠHer manos
r ona
ĠS her
Ġso cor
Ġinv as
l adas
p ias
ĠV izca
Ġcomp ran
Ġfiscal idad
Ġpatr ones
ĠDo wn
ĠProfes ional
Ġreval or
Ġa du
te ado
ĠA pro
ĠM ap
Ġllegar Ã¡n
ĠOb ras
Ġabund ante
A s
on ada
ĠE N
Ġrefor zado
Ġterri bles
Ġprescin dir
p ing
Ġp it
Ã± ones
Ġcontra c
Ġfun eral
Ġdef ectos
Ġprocl ama
b era
ĠG em
Ġdomin ado
Ġaplic ando
Ġcorpora ciones
Ġcansan cio
9 2
z al
Ġla vado
ĠS po
ist er
Ġdes g
Ġpol ice
Ġdej amos
ban k
ĠPS M
ĠcÃ³mo da
Ġenorme mente
Ġexac ta
Ġcocin eros
ĠromÃ¡n tico
Ġdiscapaci tados
Ġcintur Ã³n
ĠT ol
ĠR ad
Ġagres iva
Ġdecidir Ã¡
ĠMur ray
Ġenga Ã±os
Ġdetra ctores
Ġcor tas
Ġperci ben
Ġescand al
C or
in f
Ġcal ifor
Ġop ta
ĠBo tÃŃn
ĠEx isten
Ġampl ios
Ġavent ur
Ġo ÃŃdos
ĠP av
ĠC lippers
pon go
Ġven ciÃ³
Ġsub astas
Ġsan gri
Ġsuce diendo
Ġpa ula
Ġesc om
qui cia
ĠCar ter
Ġcier ran
ck s
Ġtem ores
ĠSegura mente
am en
Ã© ri
Ġbo das
Ġambi ciosa
ĠFerro l
Ġgras a
ĠG ur
Ġmode raciÃ³n
Ġrepresent ados
Ġdios es
Ġinsopor table
c aja
er ales
Ġdes vin
Ġro ca
Ġro bado
Ġale gr
ĠTe herÃ¡n
Ġanim Ã³
Ġinterpre tÃ³
Ġasfal to
i ki
car b
ĠAn dorra
Ġnacional idades
Ġconta ban
Ġliber ar
Ġignor ar
ĠFac ultad
Ġpenins ular
g gen
di ll
Ġb est
ni fer
E se
de st
les a
ĠÃģ rea
R es
de as
Ġm Ã³
Ġre trospec
ĠB eck
ĠÂ ©
aliz as
Ġtu tela
Ġcelebr aron
Ġgaran tizado
ĠCam bridge
Ġefec tividad
Ġapla ud
Ġfascin aciÃ³n
Ġdeter mina
ĠM Ã³n
ĠG las
cer ÃŃa
Ġcar c
cil la
Ġsab ÃŃamos
Ġpri mi
Ġcirug ÃŃa
ĠCarras co
ci tas
Ġal icant
Ġpro cÃ©s
at ido
Ġposi bil
Ġinst Ã³
Ġmat ado
Ġpier da
ĠÃ³r bita
Ġ193 9
Ġpec ado
Ġobr eros
an ista
Ġac arre
Ġdar Ã¡n
Ġav ales
Ġocul to
Ġcaj Ã³n
ĠVlad ÃŃmir
Ġre bas
Ġra tos
Ġpedir le
Ġestim ular
Ġprivileg iada
ĠagrÃŃ colas
d t
g ir
ti bilidad
se mos
cu er
Ġtra tos
Ġtra iciÃ³n
Ġmo tiva
Ġcap rich
ĠÃģ msterdam
Ġescu do
Ġvar iedades
Ġcinemato grÃ¡fico
Ġm amÃ¡
ĠI an
ĠH il
ĠCatal Ã¡n
Ġth ink
p son
z uelo
ĠC Ã¡r
ĠW el
Ġdomin ar
ome u
Ġdesac el
z amos
Ġla terales
Ġun iÃ³
le tismo
Ġest Ã³
ma t
Ġtrabaj adoras
Ġtempor almente
Ġdescu br
Ġemis ora
Ġdevalu aciÃ³n
c aron
v ero
v Ã©s
Ġcam uf
Ġsoci Ã³logo
Ġig n
Ġocur ren
Ġelev adas
Ġexperim entos
ĠromÃ¡n tica
D eb
re ira
Ġf av
Ġra tio
Ġprev Ã©n
Ġrefer ido
Ġla bios
Ġcon glom
ĠY an
ĠAr senal
Ġadap tado
te xto
ĠC Ã¡n
Ġcompar eciÃ³
ĠPort land
E sa
in ed
el i
Ġvac un
Ġ196 1
Ġarra ig
Ġprofundi zar
ores te
Ġw orld
ĠCh aves
Ġdej ara
Ġconven cida
Ġejer ciÃ³
Ġsexual idad
Ġreduc en
Ġpolit ical
ĠS L
Ġper ple
Ġide ales
ĠBar ajas
Ġtraslad ados
Ġpis ar
ĠTu vo
Ġexter no
ĠCuer po
Ġautocr ÃŃtica
Ġun irse
ĠB ec
Ġtra bas
Ġro mano
Ġcatal og
Ġafirma ciones
Ġenten demos
Ġdiscre ta
Ġdramatur go
Ġimplac able
ĠI bra
par encia
ĠEsta bilidad
Ġsup rimir
Ġinmobili arios
x os
ec emos
Ġesp iral
Ġhici eran
Ġinterv ino
ĠPom pe
ci tamente
ĠA ur
cor dia
Ġcont entos
Ġmater na
Ġind ÃŃgena
Ġinfra cciÃ³n
Ġrobo t
Ġconjunta mente
p y
u Ã±
on eta
Ġes bo
Ġpes ado
Ġnor oeste
Ġsan to
Ġextra Ã±os
dÃ³ var
Ġestren ado
bi tros
Ġpre di
Ġra cial
Ġautom Ã¡tica
i ber
ĠA to
Ġsa co
Ġasoci ada
Ġgr Ã¡fica
Ġpor quÃ©
Ġmin eros
Ġconf idencial
Ġinf ecciÃ³n
Ġec olÃ³gica
Ġlegisl adores
ri tas
ĠCon cha
Ġtras era
Ġactiv ar
ĠAndre w
Ġantiterror ista
k is
di vers
ĠB is
Ġgener oso
Ġsup le
Ġfes tivo
ĠOx ford
g icos
es tal
Ġpar cel
ĠV ida
ĠmÃºs culo
Ġdesa grad
Ġreco pi
Ġform ando
Ġinstal ada
ĠHern ando
ĠGuardi an
Ġperpetu a
ĠAde lan
n unca
s ur
Ġal gor
ĠA riz
Ġac tas
cional mente
Ġna cieron
pos a
Ġale ja
Ġdispon ibilidad
Ġextraordin arios
Ġrenunci ado
Ġvideoj uego
ĠCharlo tte
s ky
ab l
ĠMon tilla
Ġarch i
Ġcocin ar
Ġhumil dad
6 4
d able
ĠL im
el ia
ĠF inal
Ġsal gan
Ġhacer la
Ġdur ar
ĠAdri Ã¡n
Ġartifici ales
b aciÃ³n
ti Ã³n
ch s
Ġdes cent
Ġcol gado
et y
Ġsep an
Ġresponsa bil
Ġinaugur ado
Ġcomplica ciones
T R
y era
ĠA ri
Ġmedi terrÃ¡neo
and re
ĠÃ¡ g
Ġdibu jar
Ġestim ul
Ġdesac tiv
Ġavalan cha
ĠSe xta
Ġgan aba
Ġrema ta
ĠBern ardo
Ġcasti gar
Ġtable tas
Ġrespir ar
ĠA R
Ġap p
ĠÃŃn tima
Mi entras
ĠnÃ³ minas
Ã «
ra tivo
ĠC amacho
Ġ10 5
Ġpsic olÃ³gica
Ġcliente la
Ġpresid ir
Ġmillon arios
Ġarmon ÃŃa
m lin
an gel
Ġres olviÃ³
Ġmar ina
Ġmar ino
ĠK as
Ġplan tillas
Ġllam aban
Ġtri pul
Ġajust ar
Ġretom ar
Ġde tiene
ci adamente
ĠH ur
Ġ195 8
ĠDeb emos
Ġbipartid ismo
x ido
Ġde par
ar en
Ġsocial democracia
Ġrealiz ador
Ġintent arÃ¡
Ġcompren de
Ġnu tr
Ġvertic al
ĠEs lo
Ġmo vido
he d
ok o
Ġjust ificado
CuÃ¡n do
Ġpru dente
ĠPho enix
c encia
ar to
us ia
Ġcomun itarias
Ġven diendo
Ġsue ca
ĠMÃ© dicos
Ġampli amente
Ġta ke
Ġparlam ento
Ã± able
ĠH ans
ĠLi mp
Ġparal el
ĠCN MV
Ġuru guayo
Ġremode laciÃ³n
Ġpar Ã¡lisis
ĠS tal
gra mas
Ġsab ores
ĠAs istencia
cier ta
ĠPre mier
Ġanim ado
Ġesf era
dÃ³ Ã±ez
ĠBus iness
Ġla w
Ġeste mos
Ġag il
Ġcir u
Ġvolver ÃŃa
ĠSen egal
Ġjubil ado
ĠC amil
Ġob tienen
Ġver edicto
Ġrep aso
Ġretir arse
m almente
Ġdes mor
Ġcontro lan
Ġlegisla tiva
ĠPatr ick
ĠArquitec tura
P e
ĠH ora
ĠEs pero
Ã©s el
iden t
Ġincons ciente
Ġintermin able
Ġcom ens
ĠT os
ĠB M
Ġmar chas
eci ras
Ġfr ena
Ġdo Ã±a
Ġperten ecer
Ġmulti plica
Ġholan desa
Ġinunda ciones
ent ido
ĠH ad
Ġz ur
Ġsignifica tivos
Ġconcent raciones
Ġregal Ã³
Ġhues o
Ġal ba
Ġti p
Ġfac ultades
Ġentren ar
ĠWa gner
ĠWil son
ĠdomÃ©st ica
Ġs till
on or
Ġesc eno
Ġcar tÃ³n
Ġacab arÃŃa
Ġfer ias
Ġmec Ã¡nica
Ġen ig
Ġt un
Ġsu pi
Ġnuev amente
Ġdesa fi
Ġestu pe
Ġdenunci aron
Ġfacil itado
Ġcomb inado
Ġweb s
Ġlament able
igh ts
ĠPos teriormente
ĠTr Ã¡fico
Ġpatrul la
ta je
Ġho w
tim amente
Ġfrag mentaciÃ³n
Ġpion era
Ġdemo crist
l Ã©
n eg
Ġsu bieron
ch ÃŃs
Ġle tal
Ġsal ta
Ġdesp idiÃ³
th or
ĠBo de
ĠSon y
Ġjugar Ã¡
j aban
Ġm ante
Ġtrabaj amos
Ġfuncion e
ĠparaÃŃs os
Ġdespla zado
Ġalu cin
ĠCon tador
Ġay ude
ard s
Ġdebu tÃ³
ĠGro up
Ġcaute lar
ĠAlmo dÃ³var
6 3
Ġest ancias
Ġpe dimos
Ġencontr Ã©
Ġcine astas
Ġexcl uy
ju ici
Ġdes al
pi Ã©s
Ġprovoc aron
Ġrespe ta
Ġimplan tar
Ġne garon
Ġleg alizaciÃ³n
Ã³g ica
ĠJu Ã¡rez
Ġdie tas
Ġdisfru te
Ġrepro ducir
uf ac
Ġlatinoameric ana
ĠanÃ©cdo tas
U RO
de fin
ĠDe legaciÃ³n
che let
Ġcompro bado
Ġdue Ã±a
Ġsocio econ
Ġreplic Ã³
Ġpronos tic
iban es
m adrid
Ġvac una
Ã¡nd ome
telig encia
ĠBal tar
Ġpose en
Ġpincha zo
ĠÃŃd olo
por to
Ġdist ingue
Ġu se
ĠCor poraciÃ³n
Ġfa una
Ġavan zadas
Ġdescar tado
ĠReg ional
Ġestup endo
Ġlaber into
Ġcer do
Ã¡nd olos
Ġsepar an
ĠThom pson
B o
es is
ĠE dad
Ġes pu
Ġes par
Ġre mitiÃ³
Ġal ude
Ġap rueba
Ġr ena
Ġpeligros as
Ġham bur
Ġs ame
aliz arse
ĠPA N
ĠSal vo
Ġmusul mÃ¡n
Ġc Ã³r
Ġpol aco
ac as
Ġw ell
Ġperjud ic
Ġparro quia
m ico
Ġ :
Ġde grada
qu ista
ĠR ust
eci da
ps ia
Ġinform aron
ĠPri ma
ĠautÃ³c ton
v idos
ba i
Ġesta bil
ĠDe mÃ³cra
Ġval iÃ³
Ġestable cidos
Ġaceler ado
ĠLea gue
Ġextrad iciÃ³n
Ġsu reste
Ġdist urbios
Ġfil o
Ġcru za
Ġsepar ar
ĠCarm ona
Ġinfluy ente
M Ã©xico
n ab
Ġv ill
mi as
Ġas piraciÃ³n
Ġdic tado
Ġmis m
Ġpos tul
ĠCo un
Ġfil os
ĠCam ar
ĠCurios amente
C a
ĠC ala
Ġpro visiones
da f
Ġciudad anas
Ġretra ta
Ale mania
ro ta
Ġex termin
at ing
Ġpa ci
Ġcar encia
aliz ador
Ġcab eci
Ġcondi cion
Ġform ul
Ġcorrup ta
ĠcÃ©n timos
e idad
ĠG estiÃ³n
Ġven dedor
ĠGu ggen
Ġlogr arlo
Ġt sun
Ġin jer
Ġcab les
Ġdesp res
Ġconven ciÃ³n
Ġinici ada
Ġtermin aron
Ġgrave mente
Ġmaf ia
es pecial
Ġo ve
ĠN ASA
Ġale gÃ³
Ġat leta
Ġampli as
ĠrÃ¡p idos
Ġestad ios
Ġaudi encias
Ġgigantes co
p uso
Ġdes pi
Ġactiv ismo
Ġretras ar
Ġtriunf ar
Ġconsta ta
Ġestric to
abe tes
li mp
Ġempez arÃ¡
Ġpromo tora
ĠclÃ¡s icas
Ã³st oles
ĠJord an
Ġlo w
Ġdej arlo
ade cu
Ġestim ado
ĠUR SS
Ġcent rÃ³
Ġcontin ental
ĠMu rillo
Ġeduca tivas
Ġcelebra ciones
Ġgenoci dio
A G
ĠU l
Ġco bre
Ġcab ida
Ġcuestion ado
ĠHor as
CuÃ¡n to
Ġapues tan
G ir
ĠC ier
ĠF it
ĠRo vira
Ġhum edad
Ġllegar ÃŃa
ĠInter venciÃ³n
Ġrecog idas
Ġadministra tivas
Ġape laciÃ³n
Ġsobor nos
. ).
h Ã©
ĠAr ri
Ġvia jan
ĠBa chelet
Ġderro tado
Ġdesplaz arse
ĠBau tista
Ġquir Ãºr
ci ada
Ġar ren
Ġad orn
Ġsa grado
Ġfran quicia
in eros
gu ardia
Ġtar dado
Ġenf ado
ĠFuer za
Ġregul ador
ĠCS IC
Ġminim izar
ĠCaste do
ĠGuggen heim
N ueva
Ġactu alizaciÃ³n
ron to
Ġtran vÃŃa
ĠPro ject
Ġdescar tÃ³
Ġescuch ando
ĠBro ad
Ġadministra tivos
Ġcotid iano
Ġrefuer za
ros a
Ġdescon cer
Ġ195 6
Ġacord ar
Ġpura mente
Ġautop istas
Ġt ÃŃa
ÃŃ en
Ġsu bl
Ġ1 01
ĠRe a
Ġtal ibanes
Ġinforma tiva
Ġbil ingÃ¼
Ġbailar ines
ĠArro yo
or ar
Ġco giÃ³
pec ciÃ³n
Ġaument aron
ch ista
ĠK ur
Ġatra pados
Ġform aba
Ġcen izas
Ġobede ce
Ġindul to
ĠJen nifer
ĠGobern aciÃ³n
ist entes
Ġcor al
Ġsec uelas
ĠCom en
Ġdej arÃŃa
Ġgust e
Ġmaes tras
ĠJoa quim
Ġgalard ones
Ġimpo tencia
Ġimp os
Ġma ke
Ġmejor ando
Ġminist erios
Ġdesp il
Ġenv uelto
ĠAlg eciras
g ios
ĠY olanda
Ġllev ada
Ã³r icos
op ÃŃa
Ġdiscre p
ĠSebasti an
Ġmercan cÃŃa
Ġinfluy entes
Ġconfun dir
Ġcon n
tr icas
Ġlu chas
Ġfra gu
Ã¡p oles
ĠEm il
Ġinspir ada
h ing
ĠC li
Ġale manas
Ġatre vido
f ru
en ar
Ġpar Ã³n
Ġju dÃŃa
Ġne ed
ĠOr dÃ³Ã±ez
Ġcontribuy en
Ci U
ĠpolÃŃ gono
e gu
Ġs atur
cer os
dr ic
Ġdetal lado
Ġbe fore
Ġmol estias
Ġinhabil itaciÃ³n
b et
p id
Ġp ez
Ġdes par
ĠEn seÃ±
Ġpa gue
Ġreg ÃŃmenes
Ġpla ca
Ġtor ne
ĠSo uth
Ġconoc ÃŃ
Ġsir vieron
Ġreclam ando
Ġcombati entes
ĠA ro
Ġap ocal
Ġtra um
Ġtom en
Ġtir ado
Ġporcent uales
b ÃŃa
v y
ĠL enn
ĠF ed
Ġfi able
Ġacus ar
Ġasc ensor
Ġtranscur rido
Ġdespres tig
ec tar
Ġco fun
Ġcos t
Ġoblig adas
Ġrepar ten
Ġcrist iana
ĠFre d
ĠDec lar
ĠcÃ³c tel
gu eros
Ġval er
ho ac
Ġtor turas
Ġcircu itos
Ġabra zo
Ġcuri osa
Ġaca demia
Ġempi ece
Ġalgor it
Ġso Ã±ar
du la
ĠRo bles
ĠIs landia
200 7
ĠestratÃ©g icos
Ġaran cel
c us
Ġcon ducido
Ġson rÃŃe
Ġad ic
Ġdifer encial
Ġcolec cionista
ĠBa g
ĠJohn ny
col ÃŃa
Ġprolon gar
Ġestric ta
ĠBea ch
Ġpancar ta
ĠA v
Ġdi visiones
Ġexp uestos
Ġdispon ÃŃa
Ġafor o
ĠDur ant
Ġque jan
Ãº en
ci able
Ġcomp os
Ġllam amos
Ġley endas
Ġrefle jar
Ġplante arse
Ġsolu cion
Ġdesper tado
Ġenamor ado
ĠInno vaciÃ³n
ĠR at
gan cia
Ġmal eta
Ġdirig irse
tific ado
Ġcoopera tivas
ÃŃ lica
Ġcon ducciÃ³n
ĠA dif
Ġi mit
son aro
ĠIs idro
Ġexten dida
Ġacog iÃ³
Ġbur sÃ¡til
Ġlarg ometraje
Ġh uevo
ĠM AR
Ġcin tas
Ġbu ques
Ġ194 8
ĠtÃ³p icos
Ġv osotros
ĠC eci
Ġpa utas
Ġsin Ã³nimo
Ġrealiz arÃ¡
ĠBa char
ĠAc ab
Ġapos tilla
Ġcurios os
Ġaliv iar
Ġbols illos
Ġsupre ma
ĠIngen ier
Ġlo bo
Ġprim e
Ġmen cionado
Ġactu ando
ĠRes pon
ĠCÃ¡ ceres
ĠA ber
Ġcomple mentos
Ġdeclar ada
Ġadecu ados
ĠP LAN
uer tas
Ġat letas
Ġejer cen
. "
g icas
Ġs and
Ġn arrador
la za
Ġsegu idas
fic ante
Ġestruc tur
ĠTh under
Ġopon e
ĠaerolÃŃn eas
Ġlici taciÃ³n
ĠMÃ³n aco
Ġimp ed
ĠO mar
Ġrec rim
Por que
Ġdev uelto
Ġbril lo
Ġincom od
Ġatribuy Ã³
pÃ© ut
Ġprim or
Ġag ro
Ġcat Ã³lico
Ġaso cia
ĠcuÃ¡n tas
Ġalquil ar
Ġinaugur al
igu ero
Ġsoberan ismo
ĠKre mlin
Ġinacep table
ci era
ci no
Ġdi ablo
ve t
Ġedi tado
Ġpreten siones
Ġta par
ĠdiseÃ± adora
Ġvola tilidad
ð Ł
Ġen co
Ġv ara
Ġdep ur
Ġdesper tÃ³
Ġdisminu ido
Ġinfin ito
Ġmatrimon ios
Ġrecomp ensa
! âĢĿ
Ġcre yÃ³
ĠCon go
Ġmin Ãºs
ĠMe tros
Ġconte x
200 9
Ġexpe diciÃ³n
Ġencabez ada
ĠAlcor cÃ³n
tr in
Ġindi ferencia
Ġpan ame
Ġveci nal
Ġdese ado
Ġdefen dÃŃa
Ġarre pent
S ex
p ell
Ġconf e
Ġhom e
Ġins cripciÃ³n
ho ugh
Ġapren de
Ġcomprome tida
Ġinmobili arias
Ġfirm ada
Ġquir Ã³f
W e
ÃŃ tima
ĠT oy
Ġpre lim
na val
ĠÃ ĸ
ĠCa tedr
Ġgrab Ã³
b ora
Ã¡n gulo
Ġab ri
ĠSan dra
ĠIs lam
Ġsepar ados
Ġvari ado
ĠKar l
ĠMuse um
CÃ¡ diz
Ġc ÃŃ
as ÃŃ
Ġpa gados
Ġcons ervan
ĠMar is
Ġcompra venta
Ġdor ada
Ġaust ria
Ġartic ular
P as
Ġcon gre
Ġma ÃŃz
Ġcor tÃ³
ĠAr mada
ĠMan dela
ĠaÃ±ad ÃŃa
Ġvin ieron
pes o
Ġ195 7
Ġfirm ados
Ġafric ana
ĠTrin idad
Ġestereo tipos
ĠD J
ĠU tah
ĠCar rillo
Ġcap illa
Ġpens amientos
Ġacom o
Ġpareci dos
ĠIP C
o u
p pen
Ġg in
ĠF UT
ĠV arias
Ġma pas
Ġab ul
ich a
ĠPe mex
Ġdescon cierto
Ġges taciÃ³n
Ġmexic anas
ĠPlan eta
Ġpele ar
Ġen Ã©s
Ġre qui
Ġpa pas
ĠO jalÃ¡
ĠPo p
Ġextra Ã±
Ġlig ada
ĠMetro pol
Ġdialo gar
ĠZel anda
Ġes cepticismo
gu laciÃ³n
ĠMar te
Ġautor izado
ĠCi entÃŃf
ĠCa iro
ĠSer bia
Ġimportan t
Ġdefens ivo
ĠImp erio
ĠSud Ã¡n
ĠEspa cio
Ġmasac re
ĠinsÃ³l ita
L I
t ana
or ial
Ġci mientos
Ġconf luencia
Ġcomun ismo
Ġir landÃ©s
ho use
Ġlan zada
Est Ã¡n
Ġelabor ada
ĠRom an
Ġsuici da
Ġencarcel ado
ĠDie z
ĠÃļ l
ĠR ese
Ġcor uÃ±
ĠRe mate
Ġadminist radores
ĠEm ma
Ġprivileg iado
ĠL y
ĠG ordon
Ġcons piraciÃ³n
Ġman ufac
Ġbas adas
Ġtar da
ĠBo ok
ĠMata dero
Ġautomo vil
ĠpÃ¡jar os
Ġo ye
Ġfac to
Ġarres tados
ĠZam ora
C an
c fort
s k
Ã ļ
Ġde tuvieron
ĠR Ãł
Ġfe deraciones
ĠGo od
Ġdibu ja
Ġocta vo
Ġbode gas
bl ia
Ġro dillas
Ġinv itar
ĠIs land
Ġejecu tado
Ġapun tar
ĠVan de
as i
ĠS now
Ġpl ana
uc ker
Ġdesa cuerdo
Ġsor tear
ĠMad onna
Ġcari be
Ãī l
Ġdesequil ibrio
ĠSpor ting
Ġvoluntar iamente
daf one
ci li
om i
tu rista
vi ta
Ġad icciÃ³n
li quen
Ġdest ina
Ġale jada
Ġdese able
Ġselec ciones
Ġpsic Ã³loga
Hab ÃŃa
ĠCro acia
ĠestÃ³ mago
r entes
Ġlle ven
ĠMar ket
Ġpan eles
Ġsaber lo
ĠMat the
N AC
di ciones
Ġtor eo
Ġenc aja
Ġponer le
Ġdespe dido
Ġcau tiv
ĠdomÃ©st icos
Ġcircul an
Ġtras torno
Ġhom Ã³logo
ĠPo dem
Ġindi os
Est ados
Ġdesas tros
Ġiran ÃŃes
Ġpresum ir
Ġalm uerzo
ĠFUT URO
tas ar
ĠW ik
Ġval ÃŃa
Ġenc lave
ĠAdri Ãł
Ġdr ones
R a
lic es
Ġinv entado
ĠQ atar
ĠAu gusto
Ġnegoci ando
ĠChi pre
Ġlas tre
Ġab ol
Ġtu its
ĠPue bla
Ġdescub rieron
ĠhelicÃ³p teros
gh Ã¡i
Ġpancar tas
Ġe ar
Ġre ins
Ġest allar
Ġb in
ĠDe ci
Ġro mana
ron g
Ġcru zan
Ġpagar on
Ġep ÃŃ
Ġbau tizado
Ġarzobis po
Ġf og
Ġqu itÃ³
ga z
ĠY u
Ġcomp i
par able
Ġtrabaj aban
Ġol vidad
Ġconsist ente
Ġalquiler es
Ġexter nas
Ġesclav itud
vi Ã©tica
Est os
Ġencabez ado
Ġgeogr Ã¡fica
carb uros
r ones
v ÃŃan
Ġpor te
ĠL and
fr ente
Ġfinanci ado
Ġform idable
Ġanim ar
Ġfundam ento
Ġtransfor mÃ³
Ġasi Ã¡ticos
Ġdesign ado
ĠInfor me
Ġembarc aciÃ³n
ĠT ito
Ġcomo didad
ĠDe be
ĠJu vent
Ġalter ar
Ġproteg idas
Ġconcep tual
Ġprior itario
ĠRod olfo
ĠsocialdemÃ³cra tas
Ġauxil iar
E uro
ĠD Ã©
Ġsi ria
ĠCom par
Ġrecib idos
Ġagrade cido
Ġencaj ar
ĠmicrÃ³f ono
Ġconv icciones
Ġvuel co
Ġanunci an
Ġpeda g
ĠZo ido
v ados
Ġcal do
Ġpos ter
Ġprofun dos
G B
l Ã³n
ĠN elson
Ġle a
Ġsent Ã³
Ġhe ad
Ġviol entas
Ġfil m
ĠPrim aria
Ġhermos a
ĠS G
Ġex acto
Ġli fe
ren ce
Ġfun cional
ĠprÃ¡c tico
Ġliter arios
ĠAlf red
Ġcompr ensible
Ġrene go
ĠE ti
ĠB ron
Ġcambi aron
Ġtom arÃ¡
ĠSal gado
Ġacord aron
Ġfres cos
Ġreme mora
Ġmonopol io
Ġimpens able
ĠLÃ¡ zaro
B ar
on ismo
Ġin ces
Ġcomp iten
Ġsol idez
Ġir ÃŃa
ĠSo und
ĠCo penha
Ġcumpl irÃ¡
Ġdisfru tan
Ġrelig iones
Ġdet rim
ĠAto cha
A c
Ġcon tienen
ĠC aban
ĠCon st
til los
ĠSuper copa
ĠPLAN ETA
v ase
ul le
Ġpreocu pan
Ġconvoc ados
ĠDomin icana
ĠMara gall
Ġconcesion aria
Ġpape letas
ĠDoug las
Ġdes me
Ġcar dio
ĠW ol
dic ho
Ġth ose
ĠGran des
Ġsum ando
Ġclam or
lo t
Ġtra m
Ġpre ver
ĠDe m
Ġbi r
ĠJu ana
Ġsober ano
Ġhar emos
igu a
ĠBru ce
Ġmoch ila
Ġp ido
er ia
it orio
Ġdes van
Ġan alizado
ues ca
Ġco bi
Ġis lÃ¡mico
Ġpermitir se
Ġasign aturas
c uesta
d ismo
ĠR ural
Ġinst into
Ġserie dad
ĠBol sonaro
ĠRec on
Ġobserv adores
ĠautÃ©n ticos
Ġimpul sa
Ġamist oso
Ġremon tar
j ug
que te
Ġdel e
Ġinter vent
Ġob vi
Ġch or
Ġsuperfici es
Ġdivis a
Ġinmer siÃ³n
Ġclaust ro
Ġdescent r
b ada
Ġdes leal
lin es
Ġacostum bra
Ġpeg ado
Ġmadrid ista
Ġtorne os
Ġro dado
Ġrue do
Ġluch an
Ġascen diÃ³
Ġsolem ne
N I
Ġf ec
Ġlo cu
i jo
ci dez
Ġan cl
Ġcar am
Ġmal etas
ĠAm nistÃŃa
200 8
Ġprac tica
Ġdesas tres
dones ia
ĠmetÃ¡l ico
Ġinverna dero
t anos
ĠN Ã¡poles
ici osa
Ġembar caciones
ĠGas par
Ġviaj aba
H os
tra to
ita ciones
Ġentr ando
Ġcompar ado
Ġclas ific
ĠaÃ© reas
P ue
ĠEs cri
Ġch ip
Ġpl enos
Ġconv inc
Ġautor ÃŃa
Ġbus iness
bran do
Ġrema tar
Ġenter rado
Ġconsist ÃŃa
Ġhig iene
Ġprotocol os
ĠT igres
Ġdi min
ĠDe porte
Ġaf ecto
Ġvir gen
ĠPal oma
Ġrepro ches
Ġtera pÃ©ut
ĠES O
w an
Ġn oreste
ĠA po
Ġper ÃŃmetro
fer ente
ĠprÃ³ logo
Ġsur core
Ġens an
Ġzan ja
ĠCis car
Ġen tornos
Ġque mar
Ġv ita
Ġval las
Ġtom ate
Ġnom brÃ³
mple mente
Ġperman ecido
ĠBal let
Ġfrag ilidad
ĠtÃŃp ica
Ġa tras
Ġm uel
Ġex car
Ġbaj an
ĠprÃ³ s
Ã¡r s
Ġmus ic
ĠBal tasar
ĠCentro amÃ©rica
Ġescuch an
wa gen
Ġcerem on
ĠGim Ã©nez
Ġtsun ami
ĠRese arch
u ble
ĠL it
ĠS ecciÃ³n
ĠF rida
Ġdef ecto
Ġadop tÃ³
Ġproces ados
Ġenten dÃŃa
p uede
Ġde pu
ĠP ay
Ġle ÃŃa
Ġmar atÃ³n
Ġtras p
cip lin
ĠlÃŃ o
Ġacog ido
ĠinÃ©di ta
Ġequip amientos
B a
Ġ( Â¡
ces ores
Ġdirec trices
Ġante laciÃ³n
Ġequi ta
Ġfir mantes
ĠseÃ±al aron
Ġadver tencias
Ġfich ajes
Ġrestr icciÃ³n
ĠVol ks
ĠSara h
Ġdetrim ento
ĠA fr
Ġdi abetes
ill ero
Ġfor estal
Ġmi x
Ġbal as
Ġregist ran
Ġmanda tos
ĠComp ra
Ġdud Ã³
ĠIndepen diente
Ġmelan colÃŃa
m und
Ġa mas
Ġdes comun
Ġcor bata
Ġcal zado
Ġhacer nos
ĠMa gn
Ġagres ividad
ĠRec or
Ġtranquil os
Ġsacri ficios
ĠShan ghÃ¡i
Ġdens idad
g ers
s ales
t ona
Ã ª
le ar
Ġconside re
Ġpagar Ã¡
Ġaprovech an
ĠNor man
Ġlimp i
Ġtiro teo
ĠcÃ³mp lice
Ġin can
Ã¡s ico
tr ando
mos o
Ġtra mas
ĠMar x
Ġsom brero
Ã¡f icas
ug ht
ĠMer c
Ġvalenci anas
Ġingen io
Ġtap as
Ġparcel as
ĠAdelan tamiento
ma el
Ġau thor
iste mas
Ġtri plic
Ġaplic arse
ĠTer min
Ġreiter ado
ĠCE OE
ĠLeon ard
Ġescoc Ã©s
ĠlÃ¡ mp
ĠS os
Ġlo terÃŃa
ĠF ROB
ÃŃn ea
Ġpe didos
ĠSan ders
Ġra cista
ĠAr ts
Ġhor m
Ġcri anza
Ġregist radas
Ġreal ity
Ġtercer as
Ġinmedia ciones
Ġentra ba
Ġsufr ÃŃa
Ġseces ionista
Ġa viaciÃ³n
ĠE uros
den as
Ġpas amos
Ġpas ivo
ĠAn im
... ".
Ġtej idos
Ġdesv ÃŃo
Ġvence dor
Ã© mon
ur y
tu osos
Ġco gn
zar t
ĠmÃ© dicas
gal erÃŃa
ĠMal ÃŃ
Ġbro mas
Ġrent ables
Ġcuch illo
Ġverti ente
ĠFilip inas
f ren
y ang
Ġs tan
te dra
Ġin docu
ĠC ela
ĠF ro
Ãºn ica
ĠO de
Ġcomp osiciones
bil ondo
Ġah ond
Ġrep leto
ĠCar bon
ĠCi beles
Ġdescar ga
ĠRos s
Ġsosten ibles
ĠJim my
Ġdesesper ada
ĠJac ques
Ġt inta
id ia
ĠL om
Ġg ent
ĠS as
Ġdi mitiÃ³
Ġpromo ciones
irÃ¡ mi
Ġfol ios
b laciÃ³n
Ġpres tan
Ġgo ta
euro pe
Ġescom bros
ta ge
ĠL GT
Ġfin a
Ġsitu ados
Ġcompar tiÃ³
Ġcur vas
Ġajust ado
Ġpeda go
Ġneum Ã¡ticos
s olu
Ġin dio
Ġres tante
cu b
ĠDi ada
H E
n io
Ġd irÃ¡
Ġest Ãºp
Ġg ros
ĠO ce
ces is
ĠK ro
Ġllev arÃŃa
abel lo
Ġarm adas
6 2
F oto
ar cal
ĠE co
ĠC oca
ĠN is
Ġtor eros
ĠMa Ã±ana
Ġinoc entes
ĠP olo
Ġle ves
ues tras
Ġab rigo
Ġvo tada
Ġrepresent aba
Ġadecu adamente
Ġportugu eses
ĠRue da
ĠcÃºb icos
ĠC un
Ġrespon dÃŃa
Ġmoder ada
Ġinfl uye
Ġtum or
Ġaman ecer
Ġexp l
Ġya cimiento
Ġtemp los
Ġsac an
ula ciones
Ġconcent rar
Ġinjust a
Ġdescen dientes
ĠEnseÃ± anza
Q U
Ġla tinos
Ġtranscur re
Ġsobr ino
Ġhuy endo
e an
Ġ7 50
Ġmon tÃ³
Ġreun irÃ¡
od y
Ġtur ca
Ġpatr onales
Ġinaugur ar
Ġpade cen
Ġemper ador
Ġin cipiente
ĠO la
ba to
ĠMar gar
Ġch amp
ll er
Ġcomprome tidos
Ġcampe ona
Ġenga Ã±ar
ĠIma ges
I U
ĠC ep
ĠB ena
Ġexten diÃ³
Ġdibu jante
Ġrecog idos
ĠEmp resas
Ġestren ar
Ġestren arÃ¡
Ġ36 0
Ġinevitable mente
Ġreporta jes
Ġmaf ias
. )
ĠEl iz
Ġinter vin
Ġsent ada
ĠAs es
Ġcelebr arÃ¡n
Ġhabla ban
Ġais lados
enz i
ĠDen ver
Ġgro up
Ġc itadas
ĠL ive
ĠG racia
ĠF lam
Ġver so
Ġinteres an
Ġdesat ado
Ġproba bilidades
Ġburo cracia
ĠC umbre
Ġper ip
Ġob tuvieron
Ġmi el
if t
th ur
Ġauto vÃŃa
ip ras
Ġvul gar
Ġbon anza
Ġderiv adas
Ġmezcl an
Ġdial Ã©c
Ġdonosti arra
Ġesceno grafÃŃa
ĠN ad
ĠJ ersey
Ġliber ado
ĠIs co
Ġgaran tice
Ġincorpor Ã³
Ġrecicla je
s istema
Ġc ity
Ġt onos
Ġso ul
gu ila
bl as
Ġsin ce
Ġven dieron
Ġth en
Ġentender se
ĠJun tas
Ġimplic adas
Ġcubier tas
ĠE ver
Ġdel ega
ĠEst at
tin es
Ġmane jan
Ġintermedi arios
Ġadjudic Ã³
ĠA venida
ĠL ec
ĠLa gar
Ġli ban
Ġcontra taciones
Ġconv ento
Ġbusc aban
Ġcicl ismo
Ġorgullos os
ĠIb Ã¡Ã±ez
Ġequip amiento
ĠcÃ¡p ita
g ru
ĠMar ie
Ġcier tamente
oca usto
ĠGu ill
Ġdestru ido
ĠDu arte
Ġpsic ologÃŃa
Ġadi v
Ġagrade cimiento
Ġhones tidad
ĠMetros copia
ue lan
Ġpar alizaciÃ³n
ĠH y
ĠO porto
lan os
Ġah o
Ġir ra
Ġfil iales
ĠUE FA
Ġcorrup to
at an
Ġser en
ĠMis s
Ġsecu encias
Ġagrupa ciones
ĠBow ie
Ġque ma
id ra
Ġal ab
Ġinv entar
ĠK le
Ġcontin entes
Ġneg lig
Ġidentific ados
e h
in da
ĠAl as
Ġextra Ã±ar
ĠSab emos
ĠDoc tor
s ado
ul ce
Ġcontra tÃ³
Ġur be
Ġk now
ĠMu cha
ĠAudi torio
Ġchanta je
ĠRust en
ĠU m
per tura
Ġtro zo
Ġarro ja
Ġl istos
Ġg oma
Ġinter acciÃ³n
Ġide olÃ³gicas
amp le
Ġyo ur
Ġreun idos
Ġrecib idas
Ġderro tar
Ġinquie tudes
Ġhar ÃŃan
Ġhomosex ualidad
ĠFron teras
Ġsuda fr
Ġen um
Ġt ol
Ġo vaciÃ³n
ga ta
Ġad her
ĠseÃ± as
Ġfo ur
Ġespecial izadas
Ġmoder nas
Ġdetal lÃ³
Ġprecis ar
ĠAma z
Ġescru tin
Ġenven en
Ġmar x
Ġdist ribuy
Ġprecios o
ĠOs as
cla ve
ĠVo dafone
ent aron
ri mientos
Ġfal tar
Ġvol viendo
Ġsa udÃŃ
bur g
Ġgestion ado
ĠWar ri
Ġro manos
ĠÃģ lex
ĠCam b
ĠGa bilondo
Ġjurisdic ciÃ³n
I R
a ga
to ck
qu are
ch uf
ce dente
ĠCon ven
men os
Ġhermos o
Ġinterrog atorio
ĠEstre lla
Ġpro pu
Ġdes mes
Ġcam pan
ĠCent re
Ġros as
Ġescon dido
Ġfeste jos
Ġcali bre
Ã¡ ez
ĠE ibar
ĠO tegi
og Ã©n
Ġw ant
Ġcontr arre
Ġperman entemente
Ġtir ando
Ġarm amento
Ġsem illas
Ġcu bren
Ġpa pÃ¡
Ġvi Ã±
Ġescri tas
Ġencan tado
Ġdesequil ibrios
Ġpolar izaciÃ³n
divers idad
Ġqu o
je fe
Ġev itando
Ġcab en
Ġconta mos
Ġestable cen
ĠPre mios
Ġadop tadas
Ġincluy a
Ġcau tela
Ġemig raciÃ³n
ĠBarcel Ã³
Ġvices ecretario
r enta
in ci
Ġv iste
Ġto tales
Ġpa guen
Ġsal vaciÃ³n
Ġri ge
Ġart ÃŃsticos
Ġrecur re
Ġtri logÃŃa
Ġsignifica tivamente
ĠPaÃŃs es
Ġgar gan
Ã±e te
Ġofens ivo
ĠpÃŃ vot
Ġetar ras
M Ã¡
es i
Ġpo table
Ġgran ja
Ġocta va
ĠCrim ea
ĠTs ipras
ĠOsas una
Ġg atos
Ġan tica
Ġimp uestas
Ġpr enda
Ġad j
Ġval idez
Ġ[ ...
ĠV ista
ill eros
Ġneces ito
ĠRa quel
Ġrepresenta ciones
sion s
Ġesg rim
Ġen o
Ġse duc
Ġre patri
Ġal tar
Ġsus crito
Ġmas co
Ġder ribo
Ġoper arios
Ġanci ano
Ġlent amente
ĠPuy ol
t ten
ad re
Ġpar alizar
bi le
ter n
ĠH onda
Ġbaj ando
Ġqued ando
ĠCatal Ãł
Ġrev iv
ĠÃģ n
Ġases ora
Ġenfer merÃŃa
Ġalterna tivos
Ġadap ta
umer ables
Ġutop ÃŃa
u idad
Ġa me
Ġv istos
Ġres ol
Ġcor riÃ³
Ġch at
ĠMo zart
Ġencar gar
tiz ia
ĠMen Ã©ndez
Ġful min
w au
Ġsu dor
Ġan cha
ĠJ ud
ĠW ay
Ġev asiÃ³n
ea u
Ġref ieren
Ġtemp rana
Ġrecl usos
Ġamena zÃ³
Ġfalle cida
Ġorgullos a
Ġcruel dad
Ġproli fer
r eros
es tido
Ġin hi
ĠA M
ĠD ic
Ġas umi
ĠW im
Ġpla cas
Ġdo paje
ĠSo viÃ©tica
Ġsup eraciÃ³n
Ġcoinci dido
Ġreti ro
m ens
Ġb oy
bre cht
Ġpa y
Ġqued amos
Ġmal aria
Ġbu ta
Ġade l
Ġatra pado
Ġmat aron
Ġegip cio
ĠGalle go
ĠS A
Ġba Ã±os
Ġbloque ar
Ġnoctur na
bara k
Ġexit oso
ĠlegÃŃ tima
ĠCopenha gue
c amente
g ador
pe ar
Ġpe ga
Ġprov ienen
Ã³rm ula
Ġdistribu ir
Ġhar ta
ĠaÃ© reos
Ġeti que
Ġasum en
Ġlanz amientos
Ġdesvel ar
Ġvaria ciones
Ġc ueva
ĠI k
ĠH igh
Ġfor est
ĠPar al
Ġpon go
Ġfa chadas
Ġampli ado
Ã¡st ima
ilea ks
Ġas iste
Ġcre ÃŃan
Ġmis iva
Ġti bur
ĠCo hen
Ġinfl uen
Ġasign aciÃ³n
Ġviaj aban
Ġeti quetas
Ġchis pa
ĠBry ant
re ta
ĠP is
ĠC V
ĠA van
Ġac eras
Ġex s
Ġsub ur
tec n
ĠseÃ±al ando
Ġimpon erse
Ġfes tivos
Â »
ti eran
Ġin el
it te
ĠT iempo
ici clo
Ġmedi terrÃ¡nea
Ġinv ir
Ġk m
Ġdig n
fi la
Ġesca pe
Ġadop tada
Ġcau ce
Ġcontrarres tar
U sted
ĠIn ma
Ġayud ante
Ġdeten ida
Ġmeta f
Ġcarn Ã©
Ġtabl ero
e ign
ĠP into
ĠB ono
tra jes
ĠV uel
Ġar gel
Ġsobre cos
Ġman dan
ĠIn teligencia
Ġcontra tados
Ġinm un
au tor
Ġtro ika
Ġvincul ante
Ġinsu ficientes
Ġencom end
u co
ar as
Ġ19 40
Ġinv entÃ³
can til
Ġcompar able
ĠMor o
do bl
Ġal ias
ĠN ep
Ġcolabor ado
Ġinspir Ã³
Ġcombust ibles
ĠDig ital
ĠM anos
Ġdes gran
ĠD F
ici dades
Ġres piro
Ġas id
ĠestÃ¡n dar
cos a
Ġconven ciÃ³
Ġmas ivas
Ġmir as
Ġmus cular
Ġaprob ados
Ġpris ioneros
Ġinflu ido
Ġautom Ã¡tico
ilan dia
ĠG ib
tu be
ĠLa go
Ġbas uras
Ġgas olin
yo ff
Ġhos tel
ĠsÃ³l idos
Ġeslo gan
ad ona
ist urbios
il d
Ġsuper hÃ©ro
Ġparti Ã³
Ġba terÃŃas
Ġconstitu yente
Ġaden tro
l Ã©tico
ĠR onald
ĠH BO
ĠLe tizia
Ġsalv ado
Ġmemor able
ĠQuer ÃŃa
Ġmedic amento
Ġcaris ma
ocol mo
wau kee
ĠS ci
Ġdes mi
ĠG ara
Ġan h
et ales
Ġinde f
Ġnaveg aciÃ³n
Ġestupen da
Ġhorri ble
T T
Ġpar alizado
ĠF CC
gu sta
Ġdon aciÃ³n
Ġw ar
ĠNa cido
Se gu
Ġarchi piÃ©
ĠPrima vera
k h
Ġin co
Ġest Ã©tico
Ġpol o
ac erse
Ġdeci dÃŃ
Ġpe aje
Ġpal p
Ġdipu taciones
Ġconsecu tivas
Ġpase os
Ġdep rim
Ġaglu tin
ĠT ime
Ġpes ados
Ġvis uales
Ġve j
ho ven
ÃŃf icas
Ġavan zados
Ġred onda
Ġbil ba
Ġfich ar
Ġasom bro
Ġimpa gos
ĠfÃ³s iles
Ġescrutin io
y es
ĠAl mu
Ġch iste
Ġdo es
Ġquer idos
Cu Ã¡les
jim ori
Ġsec ciones
Ġaut ent
Ġfol cl
ti st
ma g
ĠD ado
ĠCh o
Ġhabi ta
ĠSal Ã³n
Ġ24 0
Ġic onos
Ġdivid ida
t Ã¡l
ĠSa inz
Ġconoz ca
Ġprefi ero
Ġcamin ando
Ġbac terias
ĠDia gonal
Ġdesvent aja
V a
Ġen Ã©r
ri miÃ³
ĠCon trol
Ġver dades
Ġmedi anas
Ġmarc aron
ĠMichel in
P ens
man ente
Ġnoso tras
Ġenvi ados
Ġdesap ro
ĠiP ad
nab is
e Ã±a
Ġen tier
br adas
Ġsal ÃŃan
Ġat ento
ĠNav al
Ġdol ores
Ġcelebra ba
Ġdesf il
Ġhin chas
Ġdebil ita
Ġaudiovis uales
ĠSegu ro
ĠBenjam in
entÃ¡ gono
ĠVizca ya
I L
Ġh il
qu ismo
ch or
ĠB ala
Ġpa gaba
Ġcer rarÃ¡
Ġconsecu tiva
Ġelim ina
Ġprogres ivamente
Ġinfec ciones
Ġenvid ia
Ġvid rio
berna bilidad
Ġe mi
Ġh ard
Ġexp lique
ĠÂ «
Ġsuper ando
Ġtr inch
Ġconver siÃ³n
Ġpedir Ã¡
ĠVic ent
200 6
Ġbro te
Ġcasti gado
z osa
Ġt ech
Ġh ala
Ã¡ for
ĠA gen
Ġpes imismo
Ġbo tÃ³n
Ġprotagon izar
Ġambi gÃ¼edad
Ġtur ÃŃsticas
amar tÃŃn
Ġirrevers ible
Ġbuta cas
E FE
qu al
Ġreg idora
Ġinf lam
Ġdemostr ando
Ġobserv ado
Ġalco h
Ġconsiderable mente
ĠCompaÃ± ÃŃa
ĠVolks wagen
p us
Ġel ocu
ig re
tr u
ĠRo ber
Ġautor re
Ġbusc amos
ĠEsp inosa
Ġlon ge
p ech
tr ic
ĠF OTO
Ġpe deras
Ġban dos
bro ok
ĠcompaÃ± eras
Ġba chillerato
Ġ13 5
Ġconvoc atorias
De CAT
Ġsug iriÃ³
ĠFos ter
C atal
Ġe ficientes
ad illo
ĠD io
tos a
Ġreci tal
Ġ- -
Ġcru zÃ³
Ġaten diendo
Ġmulti later
Ġproducir Ã¡
ĠCha po
S erÃŃa
h man
Ġp Ã³
Ġest ables
ĠA e
Ġac era
ĠH idalgo
ari ano
ĠIn donesia
ĠMu barak
san ge
Ġcoment aba
zco a
tigu o
Ġsu cum
Ġsu enan
ĠA cos
ĠO u
Ġcre ces
ĠAn ne
ĠX imo
Ġglo bo
Ġacce de
d ole
Ġb eg
Ġpre ferencia
Ġpo tes
ĠK iev
Ġch istes
Ġconden ada
ĠbritÃ¡n icas
ĠBen edicto
Ġdiver siÃ³n
ĠBl ue
c ron
to wn
Ġcom a
Ãº zcoa
ment as
ip res
ĠPregun tado
Ġconglom erado
ĠWik ileaks
Ġm ajes
ist ir
Ġab unda
bil ity
ĠÃ© stos
Ġplan tar
Ġdeclar aba
Ġejecu ciones
Ġlim itan
ĠAgu as
ĠGra m
Ġrelo jes
Ġdej aban
Ġprior i
ĠJul ian
vic epres
ĠAcu erdo
Ġvege taciÃ³n
ĠLava piÃ©s
t ts
ĠP entÃ¡gono
Ġpara dero
ĠT ir
mas car
Ġtras vase
ĠK ey
Ġne ver
Ġmode sta
Ġorganiz ados
Ġdespe jar
ish ment
ĠE mira
ter res
ĠO h
cal le
Ġevidente mente
Ġaprue be
Ġpreve ÃŃa
Ã³ ticos
Ġre mitir
ĠP C
ĠM E
Ġto can
Ã¡n eos
Ġsent ar
Ġsent ados
ĠMan u
Ġcri atura
ĠCa dena
Ġprovoc aciÃ³n
ĠBor bÃ³n
Ġbarcel onesa
Ġiner cia
ĠV ide
Ġsobre v
Ġad ulta
Ġcam er
Ġcos taba
ĠK un
Est aba
Ġamena zan
Ġrecuper arse
ash ion
Ġdur ing
Ġdul ces
ĠÃģr bitro
Ġperip lo
Ġd ri
ĠP rice
ĠK al
all eros
Ġhabi tan
Es per
Ġescrib en
ĠquÃŃm icos
ĠWood y
gar ia
so cial
ĠVal Ã¨ncia
Ġpresent adora
Ġpregun tÃ©
Ġtele di
Ġcuar teto
Ġpron Ã³sticos
Ġayud arÃ¡
Ġabandon aron
ĠFu jimori
pres s
Ġcrist ales
Ġadver tÃŃa
Ġcontun dentes
ĠnÃºc leos
Ġmutu a
Ġinterlocu tores
Ġs pe
ĠA re
tu a
Ġvo ta
hi la
Ġinn umerables
Ġelog ios
Ġvaria ciÃ³n
ĠPedr osa
v im
ĠA bierto
Ġcre adas
Ġcos tarÃ¡
ĠX III
ĠAbo ga
Ġp iro
Ġse ca
ĠP ia
ul es
Ġpas ara
pon en
Ġcor tado
Ġcol gar
qui Ã¡
ĠMe xic
dal ena
Ġvisit an
Ġsatisf echos
Ġpresupues tarias
Ġdes ech
tr Ã¡n
Ġco do
Ġtan da
og ÃŃa
ĠK elly
olog y
ĠDi ario
Ġcelebr arse
Ġagu jeros
Ġta qu
Ġrespe tado
Ġempren dido
Ġdesemb oc
ĠexplÃŃ cito
Ġanfit riÃ³n
Ġtram itar
f acto
Ġm ord
Ġt ac
Ġson re
Ġconden ar
rÃ¡n cfort
Ġpremi ado
Ġdesvel Ã³
Ġcusto di
Ġsacerdo tes
Ġbilater ales
ĠRoll ing
in arias
Ġd ados
ras burgo
Ġver gon
jo z
Ġles bi
Ġescri bo
Ġapoy aron
Ġpreten der
Ġpris iones
Ġdesarroll ada
Ġvar Ã³n
ĠmÃ³ d
Ġretrospec tiva
ĠAriz ona
Ġdegrada ciÃ³n
Ġg itanos
Ġpro ducida
Ġcar nes
Ġfal tado
Ġcab allero
Ġpin cel
Ġpers u
Ġbre ves
Par ece
Ġtable ta
Ġcorpor al
9 3
v aba
Ġs pa
ica ja
ce jal
Ã¡n icas
ĠEs cor
cl as
Ġprogra mado
Ġcontinu ada
Ġextre mas
Ġabandon ados
Ġsuspen diÃ³
ĠCastell ana
Ġenga Ã±
Ġhidro carburos
Ġprogen itores
r adora
Ġdeci dimos
Ġencontr arÃ¡
ĠQui que
Ġexpuls ados
Ġinex istente
ĠMic hoac
Ġpion eros
ĠChristop her
Ġcon ge
Ġexp orta
Ġmi xta
Ġw it
ĠPar ad
Ġsub director
Ġprotagon iza
Ġil usiones
Ġalmacen amiento
ĠPolit Ã©cnica
M is
ent arse
ĠP elle
Ġserv ÃŃa
Ġol e
Ġhel ado
Ġimprovis aciÃ³n
Ġseman ales
Ġsolid aria
ien ses
Ġpres enci
ĠV entas
Ġr ÃŃa
ĠLe tras
Ġrev uelo
Ġanti se
Ã¡m icos
Ġcorrespon sal
Ġinstal arse
ĠRus sell
Ġcoordin ar
AC I
c rib
z Ã¡n
Ġpe gar
ĠMar il
lu la
Ġ10 3
Ġref iero
Ġcolec cionistas
Ġregres ado
ĠEusk al
ĠclÃŃn icas
ĠBuena vida
Ġinquil inos
Ġcaud al
ch ando
Ġcre ados
Ġven drÃ¡
Ġacab en
Ġatar decer
6 1
Ġa tor
Ġa ven
ĠS atur
ada joz
tu arios
Ġfu ria
Ġpes ada
ĠdiseÃ± Ã³
Ġdolor oso
Ġbombar deo
Ġtremen damente
Ġsistem Ã¡ticamente
Ġanto ja
ĠFinanci era
ĠEstat ut
st ra
Ġex itos
Ġdi ab
Ġpas aje
Ġte Ã³rico
Ġvis ion
Ġbar ones
Ġtermin ales
Ġespec ÃŃficamente
Ġfues en
Ġtru co
Ġferrovi ario
e Ã±os
Ġg la
Ġca iga
Ġab rÃŃa
Ġneces itado
ĠTo tal
Ġbal ances
Ġdev ol
ys sen
Ġerrad icar
Ġnauf rag
i ko
Ã© e
di ble
ĠJ ay
ion ero
arc an
Ġhaber le
Ġpal m
ĠMor ena
Ġvin cula
ĠGer ard
Ġloc alizado
Ġfant Ã¡stica
ĠDist rito
di tos
el berg
ĠT eo
Ġtra taron
ĠEst rasburgo
Ġcar riles
ĠMar adona
Ġconv al
Ġol iva
Ġcompeti tivos
Ġm ÃŃt
ĠA qu
Ġhom ogÃ©n
Ġcri aturas
Ġform aban
Ġrecibir Ã¡n
Ġcaracter izado
Ġ195 5
ĠsÃŃn tesis
ĠEmpez Ã³
Ġantid isturbios
ĠL ife
Ġap ariciones
uy a
ĠComun idades
Ġampl ÃŃa
ĠCastell ano
Ġimpar tir
Ġextin gu
Ġincompa tible
st on
Ġsu iza
am es
ig i
ĠEst ocolmo
Ġcent ran
Ġfal lar
Ġpu Ã±
Ġ10 2
Ġfoto galerÃŃa
Ġform aron
ĠFor maciÃ³n
Ġextrem istas
Ġsubsid ios
ĠIba ka
Ġcosmo pol
ĠÃŃntegra mente
b uen
Ġv elas
Ġcu ente
Ġgran ad
gon Ã©s
Ġinteres ada
Ġfil traciones
lin s
ĠGio van
ĠWarri ors
Ġp izar
Ġm ajor
ma tismo
em y
Ġpel os
ĠAs socia
Ġvalor ada
Ġconsidera ban
Ġaprob aron
ĠTer cera
ĠViv es
Ġembara zadas
Ġarries gado
ĠRol and
Ġde bilidades
Ġres titu
Ġmar cados
Ġtras tornos
Ġante mano
Ġmon tes
ĠHar ris
Ġdivid ir
Ġdud ar
Ġaer ona
Ġeng lo
Ġfall ido
ĠDemocr Ã¡tico
Ġremun eraciÃ³n
Ġcentrocamp ista
c ci
Ġn ula
cu atro
ĠO ly
vo que
Ġtrans portes
ĠGu ard
Ġespeci fica
Ġtrim estres
MÃ¡ laga
B CE
U C
r ores
Ġper ipe
Ġedi tora
Ġaplic Ã³
gro und
Ġdesconoci miento
D C
y ff
ĠA ero
ĠO EA
Ġson riente
Ġcol os
Ġro llo
ĠZ ap
Ġtri pulaciÃ³n
ric ho
Ġmens aj
Ġalum nado
Ġsug ieren
Ġforest ales
ri ty
ĠU p
ĠSe x
Ġapoy ada
Ġreac cionÃ³
Ġimpon en
Ġarbi traje
Ġsolid ario
Sex ta
ĠF rÃ¡ncfort
Ġentr arÃ¡
Ġvista zo
Ġcorrespon dencia
ĠBro thers
Ġimple mentaciÃ³n
Ġpar an
ĠM r
Ġpre co
Ġver du
Ġcar gada
ĠGal ile
Ġinten sos
Ġtitu la
Ġcalifor n
em ia
Ġllev arlo
âĢ¦ ,
Ġcompe tente
Ġfil traciÃ³n
Ġtur nos
Ġvig entes
Al gunos
Ġdec ano
Ġtelevis or
temp orada
Ġdesahu cio
ĠLaur ent
h ard
p ue
Ġapro piaciÃ³n
Ġsa bi
Ġsim il
ĠTe atre
Ġgri tar
Ġesclar ecer
i ja
p ido
Ġre lu
am ante
ĠR enzi
ĠN O
Ġnos tÃ¡l
ĠMar ine
ĠCh amartÃŃn
ĠFor bes
Ġileg almente
Ġsem Ã¡for
Ġdescen dido
Ġgastron Ã³mica
Ġdesempe Ã±o
qu itos
Ġaf e
Ġlevan tarse
Ġpantal Ã³n
ĠMc L
Ġdi Ã©sel
Ġpre dis
Ġcomp ite
Ġtom aba
Ġmoder ados
Ġhipo te
Ġemble mÃ¡tico
Ġprostitu tas
Ġescla vos
8 4
Ġc oco
Ġpar ciales
ĠS k
Ġval en
Ġpoder ÃŃo
Ġdiver sa
Ġrepor tero
Ġsecues tr
Ġmetod ologÃŃa
Ã ´
Ġin se
Ġal bor
ĠJ in
ĠCh ur
ĠÃ¡ cido
Ġdescar tan
Ġmodific ado
Ġmach ismo
Ġinsin u
T SJ
ri ma
ul ando
Ġher man
ĠRo th
Ġrela tivos
Ġcomple tÃ³
Ġsup port
Ġdom icili
D i
Ġre organ
Ġb ÃŃ
Ġco ar
ĠCa Ã±ete
Ġatribu ir
Ġalarm ante
Ġin trans
ĠA ce
ĠL ong
Ġi mÃ¡n
Ġpre con
Ġab ander
Ġ10 4
pre cio
ĠCatal Ã¡
Ġprovoc ada
Ġmanda tarios
ĠSpa ce
ĠGeor gia
Ġmaqu ill
Ġrin de
Ġterres tre
8 3
Ġc im
Ġre edi
il s
Ġan ex
ĠMas s
Ġvac unas
ĠInterna cionales
Ġfracas os
Ġga is
Ġdecor ado
Ġinsa tisf
Ġto alla
Ġfuerte mente
ong yang
ĠCel tics
Ġcalcul an
Ġderrum be
C la
er i
Ġd adas
ĠS ign
Ġle o
ĠI ker
Ġqu itado
ez mann
Ġmen gu
Ġcambi arÃ¡
Ġmil en
bur y
Ġreca pit
ĠÃį n
ĠEspecial mente
Ġosci la
c ente
Ġa cha
am ing
Ġmi ti
Ġencuent ren
Ġinclu irÃ¡
Ġmucha cho
Ġmucha chos
atu re
Ġnum ber
Ġhuel gas
ĠCab rera
Ġescon den
Ġgir as
Ġsensa cional
Ġpatrocin adores
Ġinolvid able
Ġthro ugh
Ġomn ipres
Ġdespil f
ĠRÃł dio
A d
v adas
Ġcons uelo
ĠIn cl
oci na
Ġmom ent
Ġsan gu
Ġreclam aba
ER N
Ġperjud icar
ĠIsa ac
Gir ona
Ġf ias
ĠL iv
Ġdes vela
ĠB ie
ĠJ urado
Ġqu ios
uy Ã³
Ġorden anza
ĠPro mo
ĠRes ul
Ġcomplic ados
Ġopin an
Ġfactor ÃŃa
Ġenferm era
Ġsistem Ã¡tica
Hos pital
f Ã³n
ru g
ĠAs sange
Ġrepar tido
Ġreflex ion
ĠTrans parencia
Ġsho uld
Ġopon en
Ġperu ana
Ġderrib ar
Ġdesacel eraciÃ³n
Ġcon ciliaciÃ³n
Ġlleg adas
bor ra
ĠmÃ¡ ximas
Ġpin tado
Ġenfer ma
Ġexten so
ĠRec ur
Ġopera tiva
ĠAlba cete
ĠA segur
ĠV ella
Ġesc alo
Ġmedi ana
Ãį A
Ġale da
Ġpin tadas
Ġobs ervan
Ġgalle gas
Ġpul mÃ³n
Ġpenal tis
Ġgrab ados
Ġderiv ada
Ġpira tas
Ġpeat ones
mas iado
Ġad onde
vis ibles
ĠCo al
ĠPro yecto
Ġconj untos
Ġlevan tamiento
ĠSil vio
Ġconfor mar
ĠEstudi antes
Ġprove edor
Ġgigantes ca
osÃŃm il
Ġp om
es u
ĠM ec
Ġson oro
Ġdeci dan
Ġcan asta
Ġne garse
Ġaum entos
ĠSus an
Ġgana deros
Ġhin chada
oo oo
Mu chas
Ġriguros o
ĠSindica to
Ġadel ga
id Ã³
mi ro
he ad
Ġpal ad
culos is
Ġcatas trÃ³
sil encio
Ġde tecciÃ³n
Ġp irÃ¡mi
ĠEl is
Ġpat entes
Ġguard an
ĠHam Ã¡s
ĠBloom berg
j ones
Ġs ic
ĠA NC
Ġtra tarÃ¡
ba y
les s
Ġconside ro
Ġrebel dÃŃa
ĠLlam a
ĠPy ongyang
ĠMire ia
Ġf omento
Ġpre texto
Ġbi t
Ġdin Ã¡micas
ĠMas ter
Ġcontemp lan
Ġprohi bida
Ġcamar ero
Ġdemol iciÃ³n
Ġpsi quiÃ¡
re cu
Ġsu ro
Ġin adecu
Ġest and
ĠSe an
Ġw eek
Ġra yos
Ġvi Ã±e
ha us
Ġcelebr adas
Ġacer tado
Ġapor te
ĠSupre ma
Ġvice versa
ĠparadÃ³j icamente
Ġchir ingu
C ap
ĠF erg
ona zo
Ġbar riles
Ġgo ing
ĠFor ca
Ġsurg ir
Ġdesn uda
Ġescul tor
Ġprofesion alidad
Ġplebis cito
ĠDeclar aciÃ³n
igua ÃŃn
y l
Ġl laves
Ġf erv
ĠC las
oc es
Ġfor ense
hi an
Ġresp ecta
Ġ11 5
Ġconven cimiento
Ġrepar te
Ġapren diendo
Ġconvertir ÃŃa
Ġdisco grÃ¡fica
Ġsencil lez
ĠAu to
ĠLle ga
ĠBla ke
Ġrazon ables
Ġhem iciclo
Ġevolu cionado
g adores
Ġest abl
ĠL ab
ĠD O
Ġtr onos
Ġotor gado
Ġcum bres
Ġexpon en
J uan
M on
c le
Ã³ dromo
ĠR ecu
Ġcomp u
ĠUn icaja
Ġvis iones
Ġhor no
Ġand an
Ġfis co
Ġprestig iosa
Ġemble mÃ¡ticos
ĠtÃºn eles
ĠAboga cÃŃa
P M
Ġn arr
Ġcu enca
ĠEl ÃŃ
for me
Ġcontra ta
Ġcontra bando
Ġinf arto
Ġmon Ã³logo
Ġhubi esen
ĠTh yssen
Ġestren os
Ġvest ida
Ġprede cesor
Ġn acen
do b
ĠR an
Ġas oma
ĠCon cepciÃ³n
Ġposi cion
ĠAr thur
Ġdeclar aron
Ġdura mente
Ġagrade ce
Ġdelan tera
ĠFÃ¡ tima
m all
in cluso
Ġse vera
Ġf aro
Ġaf uera
Ġven da
alo a
Ġsingular idad
Ġconfig uraciÃ³n
ĠSpi elberg
Ġlob by
ĠmÃŃt ines
7 3
f fer
el las
Ġexp uestas
aban k
Ġtom o
Ġpens aban
ĠBan ca
Ġamena z
Ġelabor ados
ĠDemÃ³cra ta
V D
ig en
ĠRe forma
Ġat letismo
Ġrefug iado
Ġproces ado
Ġintro ducido
Ġjugue te
Ġadmira ble
Ġel enco
ĠB and
Ġconv oy
Ġmil icias
ect adas
Ġdetec tÃ³
Ġfortun as
Ġmutu o
Ġasequi ble
c amos
ci entos
Ġn iger
ĠE che
ĠP rada
Ġac cording
pe la
Ġpon emos
Ġemple an
Ġrecor ren
Ġbu fe
ĠHay a
Ġaut oma
Ġcru cero
Ġconsig na
Ã©l ites
Ġech an
ĠNeg ro
ĠRab at
Ġp ilar
Ġp ique
ÃŃ var
am an
Ġo ku
ĠM eg
Ġsol tÃ³
Ġoblig aba
Ġreco pil
rÃ³ geno
Ġpris as
Ġsencil las
ĠBla ir
Ġguion istas
Ġdiscrim in
ĠÃĵ pera
Ġatraves ar
Ġasent amientos
ĠOrden aciÃ³n
Ġinel udi
ĠPelle gr
k ara
or th
Ġh itos
Ġesp ÃŃas
Ġfuncion aba
Ġbenefici arse
Ġsustitu yÃ³
Ġarre b
Ġagrade ciÃ³
Ġincertid umbres
ĠPR D
Ġculmin Ã³
Ġneutr alidad
ĠtÃ³p ico
Ġrean ud
Ġyer no
ec as
Ġpas ajes
ĠPar la
ĠAs ens
Ġliter arias
Ġdesembar co
ĠRud y
Ġferrocar ril
ĠM Ã³stoles
Ġso ca
Ġju gos
Ġrep ent
Ġpl omo
Ġat enta
Ġdesp leg
... âĢĿ.
Ġvalor Ã³
Ġconce dida
ĠGab ri
Ġpele as
ĠcÃ©le bres
Ġe ri
Ġcon taron
ĠD uraciÃ³n
Ġqued Ã©
Ġcumpl ÃŃa
Ġanterior idad
gran te
Ġreserv ar
Ġelig en
Ġencier ro
Ġdemon ios
Ġlien zo
P ues
Ġde mago
Ã± anas
Ġro tura
Ġhabl aron
Ġactiv amente
Ġejer cido
Ġpien se
Ġincor rec
Ġce bol
Ġbailar ina
Ġmelan cÃ³
ĠSG AE
P rim
Ġque jÃ³
in v
ĠH acer
ui mos
ER C
Ġfas cismo
Ġcamp amentos
Ġfres ca
Ġaline aciÃ³n
Ġconstructor as
ĠinequÃŃ v
V iv
ri k
Ġsal ones
Ġinv itan
Ġsegun das
Ġambi ciones
Ġcru zada
Ġdev ast
Ġben Ã©f
Ġecolog ista
ĠBrig ada
or al
ÃŃ poli
ĠB asa
Ġar till
Ġcomple tan
Ġesper ada
Ġliber alizaciÃ³n
Ġbo te
ĠDef ensor
Ġcontribuy ente
ĠPon ce
Ġgre mio
Ġperteneci entes
" ;
Ġa que
ĠC H
Ġpo wer
Ġcas ada
Ġrev oluciones
Ġconsider adas
Ġconsig nas
Ġalar gar
ĠTorre jÃ³n
Ġconsa gr
ĠPun tuaciÃ³n
Ġinst antes
Ġdev uelve
cher ano
Ġexpuls ar
ĠWa ter
Ġcolon ias
Ġinstrument al
Ġpater nidad
ues tion
Ġser pi
Ġdic tÃ³
ĠBar ra
Ġsuce da
Ġdev olviÃ³
Ġfacil idades
Ġza ga
Ġsubray an
ĠCN N
Ġperforman ce
ĠarchipiÃ© lago
ĠN ich
im er
Ġte mo
et ta
Ġgal er
Ġdespe gue
Ġopera tivos
ĠGri ezmann
Ġalej ados
Ġgarantiz ada
Ġcoreo grafÃŃa
Ġferv or
v ora
Ġes la
Ġac ciden
ĠG oles
Ġdi ariamente
ĠLa den
Ġva por
Ġfamil y
Ġpoder osas
ĠDi jo
ĠÃ¡r bitros
Ġreve laciones
ĠestratÃ©g icas
Ġanticip adas
Ãº me
Ġdis identes
ĠAl var
Ġcar teras
ĠCh eca
Ġbar ril
Ġgo od
Ġevent uales
Ġlent itud
Ġmallor quÃŃn
Ġpar es
ur ces
ĠF ila
ĠV u
Ġsal tos
Ġch ic
Ġban quero
Ġproble mÃ¡tica
ĠPS G
Ġrev ueltas
ell erÃŃa
ĠMon ta
Ġpartid ista
ĠOrg Ã¡nica
j uez
s che
Ġp ir
Ġv arÃŃa
Ġre inado
Ġho use
Ġsemej antes
Ġtramp as
Ġencer rado
ĠStra uss
ue Ã±o
ro e
Ġco bar
Ġcal am
Ġespe j
[...]
