{"<s>":0,"<pad>":1,"</s>":2,"<unk>":3,"<mask>":4,"!":5,"\"":6,"#":7,"$":8,"%":9,"&":10,"'":11,"(":12,")":13,"*":14,"+":15,",":16,"-":17,".":18,"/":19,"0":20,"1":21,"2":22,"3":23,"4":24,"5":25,"6":26,"7":27,"8":28,"9":29,":":30,";":31,"<":32,"=":33,">":34,"?":35,"@":36,"A":37,"B":38,"C":39,"D":40,"E":41,"F":42,"G":43,"H":44,"I":45,"J":46,"K":47,"L":48,"M":49,"N":50,"O":51,"P":52,"Q":53,"R":54,"S":55,"T":56,"U":57,"V":58,"W":59,"X":60,"Y":61,"Z":62,"[":63,"\\":64,"]":65,"^":66,"_":67,"`":68,"a":69,"b":70,"c":71,"d":72,"e":73,"f":74,"g":75,"h":76,"i":77,"j":78,"k":79,"l":80,"m":81,"n":82,"o":83,"p":84,"q":85,"r":86,"s":87,"t":88,"u":89,"v":90,"w":91,"x":92,"y":93,"z":94,"{":95,"|":96,"}":97,"~":98,"¡":99,"¢":100,"£":101,"¤":102,"¥":103,"¦":104,"§":105,"¨":106,"©":107,"ª":108,"«":109,"¬":110,"®":111,"¯":112,"°":113,"±":114,"²":115,"³":116,"´":117,"µ":118,"¶":119,"·":120,"¸":121,"¹":122,"º":123,"»":124,"¼":125,"½":126,"¾":127,"¿":128,"À":129,"Á":130,"Â":131,"Ã":132,"Ä":133,"Å":134,"Æ":135,"Ç":136,"È":137,"É":138,"Ê":139,"Ë":140,"Ì":141,"Í":142,"Î":143,"Ï":144,"Ð":145,"Ñ":146,"Ò":147,"Ó":148,"Ô":149,"Õ":150,"Ö":151,"×":152,"Ø":153,"Ù":154,"Ú":155,"Û":156,"Ü":157,"Ý":158,"Þ":159,"ß":160,"à":161,"á":162,"â":163,"ã":164,"ä":165,"å":166,"æ":167,"ç":168,"è":169,"é":170,"ê":171,"ë":172,"ì":173,"í":174,"î":175,"ï":176,"ð":177,"ñ":178,"ò":179,"ó":180,"ô":181,"õ":182,"ö":183,"÷":184,"ø":185,"ù":186,"ú":187,"û":188,"ü":189,"ý":190,"þ":191,"ÿ":192,"Ā":193,"ā":194,"Ă":195,"ă":196,"Ą":197,"ą":198,"Ć":199,"ć":200,"Ĉ":201,"ĉ":202,"Ċ":203,"ċ":204,"Č":205,"č":206,"Ď":207,"ď":208,"Đ":209,"đ":210,"Ē":211,"ē":212,"Ĕ":213,"ĕ":214,"Ė":215,"ė":216,"Ę":217,"ę":218,"Ě":219,"ě":220,"Ĝ":221,"ĝ":222,"Ğ":223,"ğ":224,"Ġ":225,"ġ":226,"Ģ":227,"ģ":228,"Ĥ":229,"ĥ":230,"Ħ":231,"ħ":232,"Ĩ":233,"ĩ":234,"Ī":235,"ī":236,"Ĭ":237,"ĭ":238,"Į":239,"į":240,"İ":241,"ı":242,"Ĳ":243,"ĳ":244,"Ĵ":245,"ĵ":246,"Ķ":247,"ķ":248,"ĸ":249,"Ĺ":250,"ĺ":251,"Ļ":252,"ļ":253,"Ľ":254,"ľ":255,"Ŀ":256,"ŀ":257,"Ł":258,"ł":259,"Ń":260,"de":261,"Ġe":262,"Ġde":263,"Ġl":264,"os":265,"Ġp":266,"Ġa":267,"Ġc":268,"er":269,"en":270,"ar":271,"Ġs":272,"es":273,"on":274,"as":275,"ci":276,"ue":277,"an":278,"or":279,"ad":280,"Ġla":281,"que":282,"Ġm":283,"un":284,"Ã³":285,"Ġen":286,"al":287,"Ġque":288,"re":289,"in":290,"Ġel":291,"Ġt":292,"st":293,"Ġy":294,"ÃŃ":295,"Ġh":296,"ent":297,"Ġun":298,"ic":299,"Ġcon":300,"Ã¡":301,"Ġn":302,"Ã³n":303,"id":304,"ra":305,"ro":306,"Ġd":307,"Ġse":308,"Ġf":309,"om":310,"Ġlos":311,"ĠE":312,"ti":313,"Ġv":314,"Ġsu":315,"ta":316,"Ġes":317,"ciÃ³n":318,"âĢ":319,"te":320,"Ġdel":321,"ol":322,"ado":323,"Ġre":324,"ri":325,"am":326,"Ã©":327,"Ġin":328,"Ġha":329,"le":330,"Ġpar":331,"res":332,"Ġo":333,"to":334,"do":335,"Ġest":336,"Ã±":337,"is":338,"Ġal":339,"Ġpor":340,"ĠP":341,"ĠC":342,"Ġlas":343,"Ġcom":344,"ÃŃa":345,"bi":346,"ĠA":347,"ĠL":348,"ec":349,"mp":350,"Ġg":351,"Ġuna":352,"Ġno":353,"di":354,"ĠM":355,"ĠS":356,"la":357,"ist":358,"ur":359,"ab":360,"it":361,"il":362,"Ġb":363,"Ġpara":364,"qu":365,"ente":366,"Ġpro":367,"cion":368,"ul":369,"Ãº":370,"Ã¡s":371,"ĠâĢ":372,"ero":373,"ica":374,"cia":375,"el":376,"ma":377,"ch":378,"Ġdes":379,"ter":380,"ada":381,"ir":382,"io":383,"ig":384,"ido":385,"tr":386,"Ġcu":387,"da":388,"âĢĿ":389,"pa":390,"Ġac":391,"Ġlo":392,"ĠâĢľ":393,"ia":394,"Ġex":395,"at":396,"Ġ2":397,"ĠmÃ¡s":398,"mo":399,"Ġ1":400,"se":401,"idad":402,"lo":403,"ĠT":404,"ĠG":405,"ĠB":406,"ien":407,"Ġ(":408,"Ġme":409,"den":410,"ie":411,"go":412,"ĠEl":413,"us":414,"Ġcomo":415,"era":416,"ĠR":417,"ĠD":418,"Ġdi":419,"Ġmu":420,"tiv":421,"Ġi":422,"ce":423,"ran":424,"tor":425,"Ġto":426,"Ġj":427,"ales":428,"ados":429,"Ã¡n":430,"Ġan":431,"ico":432,"ando":433,"Ġper":434,"ciones":435,"00":436,"iz":437,"ento":438,"aj":439,"tos":440,"Ġso":441,"bre":442,"tes":443,"tu":444,"ĠLa":445,"ĠF":446,"aciÃ³n":447,"ida":448,"iÃ³n":449,"ĠaÃ±":450,"ĠN":451,"Ġle":452,"oc":453,"ici":454,"gu":455,"iv":456,"tra":457,"Ġsus":458,"ier":459,"Ġres":460,"ru":461,"mos":462,"ues":463,"Ġap":464,"ante":465,"tar":466,"ĠI":467,"ras":468,"bl":469,"des":470,"mi":471,"pe":472,"ĠJ":473,"Ã©n":474,"ĠEn":475,"Ġent":476,"Ġser":477,"Ġ\"":478,"ambi":479,"ĠU":480,"ones":481,"cu":482,"ca":483,"Ġpa":484,"Ġtra":485,"Ġpres":486,"paÃ±":487,"dad":488,"Ġqu":489,"Ġpre":490,"ten":491,"ĠH":492,"co":493,"ador":494,"um":495,"ez":496,"der":497,"Ġpo":498,"Ãºn":499,"ĠV":500,"con":501,"Ġimp":502,"Ġma":503,"encia":504,"rim":505,"uer":506,"Ġpas":507,"Ġar":508,"ĠEs":509,"du":510,"Ġas":511,"tro":512,"Ġsin":513,"ari":514,"no":515,"Ġpero":516,"Ġexp":517,"âĢĿ,":518,"Ġcas":519,"gun":520,"01":521,"ĠaÃ±os":522,"Ġca":523,"ĠEst":524,"Ġsi":525,"ara":526,"ber":527,"ver":528,"Ã©s":529,"Ġten":530,"mente":531,"Ġentre":532,"Ġpr":533,"ble":534,"za":535,"ora":536,"ĠO":537,"Ġemp":538,"cl":539,"ano":540,"ana":541,"dos":542,"ill":543,"ga":544,"ens":545,"Ġeste":546,"Ġlle":547,"tas":548,"ces":549,"aba":550,"po":551,"âĢĿ.":552,"ÃŃt":553,"ĠY":554,"Ġpol":555,"Ġcomp":556,"na":557,"uev":558,"ambiÃ©n":559,"adas":560,"Ġhan":561,"Ġsobre":562,"Ġcons":563,"Ġsol":564,"im":565,"ac":566,"Ġte":567,"ÃŃs":568,"Ġpue":569,"iden":570,"gar":571,"cial":572,"Ġtien":573,"Ġman":574,"ba":575,"for":576,"entes":577,"ista":578,"me":579,"Ġprim":580,"per":581,"tros":582,"icos":583,"bier":584,"Ġdis":585,"Ġr":586,"Ġinter":587,"Ġab":588,"cer":589,"oy":590,"ario":591,"Ġdos":592,"Ġ201":593,"br":594,"Ġson":595,"los":596,"son":597,"Ġcre":598,"itu":599,"Ġfor":600,"lan":601,"enta":602,"ĠtambiÃ©n":603,"pu":604,"ores":605,"asta":606,"ismo":607,"Ġmo":608,"aron":609,"Ġsal":610,"osi":611,"Ġfin":612,"Ġesc":613,"mas":614,"Ġau":615,"ina":616,"je":617,"Ġya":618,"baj":619,"fer":620,"ĠestÃ¡":621,"Ġob":622,"Ġci":623,"ech":624,"Ġhay":625,"pon":626,"Ġmuch":627,"ĠCon":628,"iemp":629,"ĠAl":630,"ĠUn":631,"Ġmar":632,"Ġdesde":633,"Ġor":634,"eg":635,"amente":636,"Ġju":637,"Ġfue":638,"amos":639,"icas":640,"Ġver":641,"Ġcar":642,"miento":643,"jo":644,"Ġco":645,"Ġnuev":646,"Ġesta":647,"les":648,"Ġtodo":649,"Ġam":650,"tivo":651,"idos":652,"),":653,"cional":654,"man":655,"ĠLos":656,"he":657,"uro":658,"ĠIn":659,"Ġperson":660,"Ġ3":661,"por":662,"Ġtan":663,"dr":664,"par":665,"ÃŃn":666,"ĠpolÃŃt":667,"ÃŃas":668,"las":669,"ĠÂ":670,"Ġli":671,"Ġni":672,"ve":673,"cul":674,"Ġhab":675,"ven":676,"esti":677,"bil":678,"obier":679,"fici":680,"ÃŃan":681,"cias":682,"Ġcuando":683,"Ġmuy":684,"paÃ±a":685,"vi":686,"cio":687,"Ġmill":688,"min":689,"Ġmedi":690,"rec":691,"das":692,"Ġmay":693,"\",":694,"entos":695,"Ġhasta":696,"antes":697,"uel":698,"Ġcor":699,"Ġcontra":700,"Ġtrabaj":701,"Ãºl":702,"ena":703,"Ġmun":704,"gra":705,"Ġgran":706,"tado":707,"Ġdeci":708,"Ġpart":709,"Ġmen":710,"ĠpaÃŃs":711,"Ġrec":712,"ona":713,"Ġah":714,"Ġcol":715,"Ġprop":716,"Ġmi":717,"jer":718,"ing":719,"Ġporque":720,"Ġpe":721,"Ġsig":722,"able":723,"obierno":724,"gan":725,"Ãºlti":726,"if":727,"uros":728,"Ġter":729,"Ãºbl":730,"eces":731,").":732,"Ġtiene":733,"ĠDe":734,"Ġmillones":735,"qui":736,"Ġ19":737,"aliz":738,"Ġcan":739,"lam":740,"ĠaÃ±o":741,"Ġfu":742,"Ġaf":743,"ĠÃ©":744,"ĠÂ¿":745,"arse":746,"ĠNo":747,"ren":748,"ĠÃºlti":749,"Ġnos":750,"so":751,"Ġad":752,"duc":753,"idades":754,"adr":755,"ĠMar":756,"ener":757,"arios":758,"ĠPero":759,"ust":760,"Ġcal":761,"em":762,"tura":763,"tal":764,"iones":765,"Ġsolo":766,"ay":767,"ino":768,"emos":769,"Ġseg":770,"Ġcam":771,"ios":772,"Ġpresiden":773,"av":774,"Ġlu":775,"000":776,"\".":777,"cal":778,"car":779,"ĠEspaÃ±a":780,"Ġop":781,"lar":782,"tir":783,"istas":784,"udi":785,"Ġtras":786,"ĠpÃºbl":787,"udad":788,"Ġbi":789,"Ġreg":790,"bo":791,"ja":792,"Ġdon":793,"Ġeuros":794,"atal":795,"Ġhace":796,"Ġmej":797,"ĠGobierno":798,"Ġcos":799,"lic":800,"ion":801,"ĠAn":802,"adores":803,"Ã±o":804,"eci":805,"anos":806,"Ġparte":807,"tiva":808,"ĠSe":809,"ud":810,"cha":811,"vo":812,"cip":813,"Ġem":814,"Ġ4":815,"Ã³m":816,"Ġdirec":817,"Ġay":818,"ris":819,"stitu":820,"Ġcent":821,"Ġhacer":822,"urante":823,"Ġro":824,"Ġpuede":825,"unto":826,"Ġmayor":827,"Ġvez":828,"Ġempres":829,"adrid":830,"Ã©r":831,"Ġuno":832,"gen":833,"Ġdic":834,"Ã±a":835,"dem":836,"ura":837,"xi":838,"Ġdonde":839,"ed":840,"tÃ³":841,"zo":842,"puÃ©s":843,"Ġera":844,"rib":845,"Ġesp":846,"Ġinv":847,"iÃ³":848,"Ġposi":849,"paÃ±ol":850,"Ġsegu":851,"arÃ¡":852,"va":853,"og":854,"ita":855,"Ġpasado":856,"Ġcambi":857,"Ġsec":858,"uso":859,"ĠPor":860,"Ġalgun":861,"endo":862,"unque":863,"et":864,"ĠMadrid":865,"Ġmes":866,"Ġtres":867,"ĠK":868,"tras":869,"ton":870,"Ġ200":871,"ular":872,"ĠCom":873,"ĠhabÃŃa":874,"Ġsido":875,"Ġfun":876,"oco":877,"oci":878,"Ġtiemp":879,"Ġtodos":880,"Ġdef":881,"arc":882,"Ġahora":883,"pues":884,"Ġ5":885,"til":886,"Ġne":887,"Ġmin":888,"Ġforma":889,"Ġcer":890,"Ġof":891,"gr":892,"idas":893,"Ġciudad":894,"Ġfuer":895,"sta":896,"ĠespaÃ±ol":897,"Ġprimer":898,"Ġrep":899,"ual":900,"ĠRe":901,"ecto":902,"li":903,"Ġviv":904,"Ġnues":905,"ĠW":906,"Ġfal":907,"Ġecon":908,"Ġese":909,"teri":910,"Ġoc":911,"nos":912,"uen":913,"itar":914,"Ġthe":915,"Ġmenos":916,"Ġhech":917,"vis":918,"Ġdeb":919,"laciÃ³n":920,"Ġconf":921,"Ġactu":922,"Ġinfor":923,"ĠdespuÃ©s":924,"Ġotros":925,"oria":926,"ala":927,"lica":928,"bar":929,"Ġmejor":930,"ĠâĢĶ":931,"Ġreci":932,"Ġpresidente":933,"can":934,"Ġw":935,"Ġch":936,"Ġmis":937,"Ã¡t":938,"Ġelec":939,"tan":940,"atro":941,"ĠsegÃºn":942,"siÃ³n":943,"Ġhist":944,"Ġna":945,"gos":946,"unta":947,"Ġmundo":948,"ital":949,"Ġdurante":950,"ĠSan":951,"Ġcin":952,"ĠCh":953,"tre":954,"Ġcada":955,"ami":956,"Ġpla":957,"iste":958,"ord":959,"ĠLas":960,"aban":961,"tur":962,"Ġincl":963,"uda":964,"Ġles":965,"ide":966,"Ġcaso":967,"Ġbien":968,"stru":969,"sa":970,"Ġneces":971,"Ġvida":972,"Ġgener":973,"demÃ¡s":974,"ĠdÃŃa":975,"âĢĶ":976,"Ġra":977,"ias":978,"Ġmom":979,"Ġpu":980,"ĠSu":981,"Ġtran":982,"Ġtiempo":983,"ĠestÃ¡n":984,"Ġval":985,"Ġmismo":986,"Ġesa":987,"Ġtu":988,"quier":989,"eron":990,"cil":991,"dido":992,"quÃŃ":993,"Ġev":994,"Ġcomun":995,"Ġsent":996,"Ã©c":997,"alidad":998,"taciÃ³n":999,"Ġ6":1000,"bilidad":1001,"pen":1002,"Ġsoci":1003,"Ġante":1004,"Ġedi":1005,"gres":1006,"Ġhi":1007,"tivos":1008,"Ġden":1009,"Ġpersonas":1010,"Ġdej":1011,"Ġantes":1012,"cho":1013,"Ġsab":1014,"tores":1015,"Ġprin":1016,"iempre":1017,"amil":1018,"ĠPar":1019,"Ġeso":1020,"Ġvol":1021,"ers":1022,"Ġri":1023,"Ġpes":1024,"Ġprimera":1025,"Ġfr":1026,"Ġplan":1027,"ĠEuro":1028,"Ġase":1029,"Ġven":1030,"Ġsocial":1031,"Ġotro":1032,"Ġprincip":1033,"iendo":1034,"Ġbaj":1035,"tin":1036,"Ġimpor":1037,"cen":1038,"Ġban":1039,"tel":1040,"Ġgra":1041,"Ġrespon":1042,"Ġhecho":1043,"ĠCar":1044,"Ġgru":1045,"tados":1046,"Ġquien":1047,"Ġespe":1048,"uy":1049,"Ã±os":1050,"Ġvo":1051,"jos":1052,"Ġllev":1053,"Ġunos":1054,"ĠasÃŃ":1055,"Ġmucho":1056,"Ġprof":1057,"almente":1058,"ros":1059,"ge":1060,"..":1061,"ece":1062,"ĠAr":1063,"Ġpartido":1064,"Ġhom":1065,"Ġapar":1066,"Ġva":1067,"El":1068,"ĠpolÃŃtica":1069,"Ġtoda":1070,"zar":1071,"ace":1072,"Ġaunque":1073,"ene":1074,"Ġcap":1075,"Ġmer":1076,"Ġpl":1077,"Ġpel":1078,"Ġfamil":1079,"raciÃ³n":1080,"ea":1081,"Ġtrans":1082,"Ġresul":1083,"eros":1084,"Ġmujer":1085,"ĠLo":1086,"Ġdist":1087,"Ġ7":1088,"Ġins":1089,"aje":1090,"ĠÃ":1091,"Ġinf":1092,"Ġentr":1093,"Ġsiempre":1094,"che":1095,"Ġmomento":1096,"unci":1097,"ÃŃcul":1098,"Ġproble":1099,"dic":1100,"ĠsÃŃ":1101,"Ġalgo":1102,"bir":1103,"dida":1104,"cciÃ³n":1105,"Ġir":1106,"ĠquÃ©":1107,"Ġlleg":1108,"Ġllam":1109,"Ġsitu":1110,"ok":1111,"Ã³mo":1112,"Ġrecu":1113,"Ġdere":1114,"Ġjue":1115,"tante":1116,"Ġnuevo":1117,"icia":1118,"Ġequi":1119,"Ġsino":1120,"Ġtanto":1121,"Ġproy":1122,"Ġsegun":1123,"Ġconv":1124,"Ġ-":1125,"La":1126,"Ġcul":1127,"Ġti":1128,"Ġpues":1129,"ĠÃ©l":1130,"olu":1131,"Ġsub":1132,"Ġcual":1133,"ĠLe":1134,"quel":1135,"cios":1136,"ĠAs":1137,"Ãºs":1138,"ĠPP":1139,"Ġpri":1140,"lu":1141,"Ġsuper":1142,"entar":1143,"Ġpon":1144,"ĠaquÃŃ":1145,"Ġgan":1146,"Ġtr":1147,"Ġpodr":1148,"pos":1149,"ecu":1150,"Ġvis":1151,"ĠVal":1152,"Ġproduc":1153,"Ġbar":1154,"amiento":1155,"Ġotra":1156,"mar":1157,"Ġseguir":1158,"icaciÃ³n":1159,"entras":1160,"Ġcuenta":1161,"van":1162,"Ġellos":1163,"ĠdÃŃas":1164,"Ġ8":1165,"Ġmon":1166,"Ã³r":1167,"cre":1168,"Ġve":1169,"ĠseÃ±":1170,"Ġconse":1171,"Ġcab":1172,"Ġserv":1173,"Ġu":1174,"ban":1175,"ĠSi":1176,"ele":1177,"Ġ10":1178,"Ġref":1179,"ĠEste":1180,"Ġ20":1181,"Ġbas":1182,"Ġorgan":1183,"Ġestudi":1184,"Ġlugar":1185,"ĠDes":1186,"Ġestos":1187,"ĠPa":1188,"ceso":1189,"Ġnor":1190,"dia":1191,"Ġtienen":1192,"Ġcasi":1193,"Ġpoco":1194,"Ġher":1195,"Ġtrabajo":1196,"eno":1197,"ĠQ":1198,"ĠJos":1199,"ĠeconÃ³m":1200,"Ġqued":1201,"ho":1202,"Ġinvesti":1203,"arias":1204,"fic":1205,"Ġvi":1206,"Ġeuro":1207,"diÃ³":1208,"Ġfo":1209,"Ġcuatro":1210,"Ġhor":1211,"ĠEstado":1212,"ancia":1213,"cos":1214,"vers":1215,"tic":1216,"Ġpoder":1217,"arcel":1218,"Ġtar":1219,"zas":1220,"Ġescri":1221,"ĠFran":1222,"cado":1223,"cri":1224,"eraciÃ³n":1225,"duci":1226,"Ġotras":1227,"arro":1228,"ĠCas":1229,"wit":1230,"Ġ9":1231,"Ġide":1232,"and":1233,"Ġeje":1234,"Ġrecon":1235,"ĠCu":1236,"ĠRo":1237,"anza":1238,"mana":1239,"ivers":1240,"amp":1241,"Ġmil":1242,"tido":1243,"ya":1244,"Ġmal":1245,"ieron":1246,"201":1247,"untos":1248,"terior":1249,"Ġhoy":1250,"Ġautor":1251,"Ġrela":1252,"Ġayer":1253,"ĠMan":1254,"Ġda":1255,"erv":1256,"cur":1257,"fr":1258,"risis":1259,"Ġcr":1260,"cas":1261,"ern":1262,"Ġz":1263,"mpl":1264,"witter":1265,"ep":1266,"Ġag":1267,"Ġapro":1268,"aria":1269,"eo":1270,"ĠÃºn":1271,"izaciÃ³n":1272,"Ġaquel":1273,"atos":1274,"Ġ15":1275,"Ġhaber":1276,"Ġcrisis":1277,"Ġdice":1278,"ĠprÃ³":1279,"Ġdifer":1280,"Ġmeses":1281,"ĠLu":1282,"Ġnada":1283,"Ġleg":1284,"ĠÃ¡":1285,"ĠMe":1286,"ĠpÃºblico":1287,"illa":1288,"ĠpaÃŃses":1289,"oso":1290,"ensa":1291,"Ġhistoria":1292,"Ġembar":1293,"Ġtom":1294,"Ġgu":1295,"gur":1296,"ĠUna":1297,"Ġexplica":1298,"icio":1299,"ama":1300,"bol":1301,"Ġejemp":1302,"omin":1303,"Ġcier":1304,"Ġint":1305,"ut":1306,"iem":1307,"Ġfinal":1308,"ril":1309,"rist":1310,"Ġexper":1311,"bro":1312,"ĠPS":1313,"Ġhum":1314,"cuent":1315,"ĠNe":1316,"arcelona":1317,"pre":1318,"Ġtener":1319,"Ġmuchos":1320,"ies":1321,"ÃŃst":1322,"Ġestado":1323,"Ġprofes":1324,"Ġdecl":1325,"Ġnego":1326,"Ġbus":1327,"ĠcompaÃ±":1328,"ĠlÃŃ":1329,"Ġrepres":1330,"Ġgente":1331,"Ġgrupo":1332,"ĠPara":1333,"Ġdest":1334,"ĠX":1335,"Ġley":1336,"Ġef":1337,"rig":1338,"Ġmedio":1339,"Ġmad":1340,"ĠTwitter":1341,"Ġtor":1342,"Ġand":1343,"Ġembargo":1344,"ĠademÃ¡s":1345,"bles":1346,"ĠPA":1347,"Ãį":1348,"Ġpens":1349,"ĠZ":1350,"book":1351,"âĢĻ":1352,"Ġpresent":1353,"Ġgrandes":1354,"Ġdoc":1355,"Ġsea":1356,"Ġhu":1357,"unca":1358,"Ġquier":1359,"Ġig":1360,"tad":1361,"tamente":1362,"Ġalgunos":1363,"ĠCatal":1364,"ĠcÃ³mo":1365,"acebook":1366,"Ġdar":1367,"ito":1368,"ĠBarcelona":1369,"Ġpubl":1370,"Ġlar":1371,"Ġespecial":1372,"Ġdirector":1373,"Ġacuer":1374,"gua":1375,"Ġequipo":1376,"ĠFacebook":1377,"ard":1378,"bres":1379,"Ġobje":1380,"Ġencon":1381,"osiciÃ³n":1382,"ap":1383,"Ġbuen":1384,"be":1385,"maciÃ³n":1386,"Ġart":1387,"Ġsiste":1388,"oca":1389,"Ġrev":1390,"Ġparti":1391,"cis":1392,"cep":1393,"ĠnÃº":1394,"minist":1395,"onces":1396,"com":1397,"tica":1398,"erg":1399,"tivas":1400,"Ġgeneral":1401,"Ġdin":1402,"Ġnom":1403,"Ġpal":1404,"Ġsan":1405,"ÃŃo":1406,"ĠTo":1407,"ĠJosÃ©":1408,"izo":1409,"Ã³g":1410,"Ġdecir":1411,"ĠEL":1412,"all":1413,"osa":1414,"Ġestar":1415,"Ġcinco":1416,"teg":1417,"Ġcambio":1418,"ĠSin":1419,"Ġprogra":1420,"Ġmuer":1421,"Ġfrente":1422,"Ġtrata":1423,"ĠPo":1424,"Ġtemp":1425,"ific":1426,"Ġmientras":1427,"ares":1428,"bra":1429,"encias":1430,"Ġ0":1431,"ĠGu":1432,"Ġfe":1433,"Ġrealiz":1434,"oles":1435,"Ġhabl":1436,"aciones":1437,"Ġcasa":1438,"Ġconver":1439,"Ġtodas":1440,"Ġinvestig":1441,"edad":1442,"ÃįS":1443,"Ġfis":1444,"Ġvia":1445,"ĠÃģ":1446,"Ġale":1447,"arrol":1448,"Ã³lo":1449,"ĠMa":1450,"ĠPAÃįS":1451,"Ġapoy":1452,"Ġestaba":1453,"embre":1454,"Ġprov":1455,"ine":1456,"Ġfuera":1457,"Ġrefor":1458,"omÃŃa":1459,"Ġcomple":1460,"ĠsituaciÃ³n":1461,"Ġcapa":1462,"Ġencuent":1463,"Ġemple":1464,"ĠJu":1465,"Ġfir":1466,"ich":1467,"Ġpueden":1468,"dÃŃa":1469,"ĠnÃºm":1470,"Ġdijo":1471,"uc":1472,"Ġentonces":1473,"Ġminist":1474,"Ġ12":1475,"Ġcentro":1476,"Ġall":1477,"Ġvuel":1478,"ĠEuropa":1479,"erÃŃa":1480,"Ġhabi":1481,"Ġpos":1482,"Ġjug":1483,"Ġconstru":1484,"ĠCor":1485,"ĠprÃ³xi":1486,"Ġgas":1487,"ĠAm":1488,"ĠaÃºn":1489,"Ġcele":1490,"Ġpregun":1491,"eza":1492,"bor":1493,"ell":1494,"mit":1495,"tantes":1496,"No":1497,"tiÃ³":1498,"Ġanti":1499,"Ġinde":1500,"ĠAy":1501,"ables":1502,"Ġejemplo":1503,"Ġempresa":1504,"Ġnueva":1505,"rir":1506,"Ġdif":1507,"bas":1508,"pi":1509,"Ġcontin":1510,"cimiento":1511,"Ã¡c":1512,"Ġesper":1513,"Ġpeque":1514,"ĠÃºltimos":1515,"Ġsemana":1516,"ĠMi":1517,"Ġis":1518,"enci":1519,"Ġinterna":1520,"ĠMon":1521,"Ġllegar":1522,"Ġofici":1523,"Ġempresas":1524,"Ġpad":1525,"let":1526,"dir":1527,"Ġacab":1528,"Ġjust":1529,"moc":1530,"Ġveces":1531,"Ġafir":1532,"Ġeurope":1533,"Ġsistema":1534,"Ġcatal":1535,"bros":1536,"tun":1537,"dica":1538,"ria":1539,"ÃŃculo":1540,"ĠÃºltimo":1541,"ĠNew":1542,"ĠSeg":1543,"ĠmayorÃŃa":1544,"fe":1545,"icios":1546,"aran":1547,"Es":1548,"Ġestas":1549,"Ġcontro":1550,"ect":1551,"olog":1552,"anci":1553,"mientos":1554,"ĠEstados":1555,"Ġcosas":1556,"Ġat":1557,"Ġfalta":1558,"Ã¡r":1559,"riÃ³":1560,"Ġfoto":1561,"Ġcompar":1562,"mÃ³":1563,"hi":1564,"icip":1565,"isiÃ³n":1566,"Ġnunca":1567,"Ġproyecto":1568,"ĠNa":1569,"dio":1570,"Ġtrav":1571,"Ġdesarrol":1572,"Ġasegur":1573,"Ġexplic":1574,"Ġsos":1575,"Ġactiv":1576,"Ġur":1577,"Ġdesp":1578,"Ġperio":1579,"ment":1580,"ĠserÃ¡":1581,"Ġclar":1582,"Ġpermi":1583,"cionales":1584,"Ġru":1585,"Ġconoci":1586,"Ġincluso":1587,"sos":1588,"Ġacuerdo":1589,"Ġunas":1590,"Ġk":1591,"Ġcualquier":1592,"Ġnuestro":1593,"Ġmanera":1594,"iso":1595,"uÃ±a":1596,"gado":1597,"Ġhizo":1598,"arÃŃa":1599,"Ġ18":1600,"Ġinstitu":1601,"estiÃ³n":1602,"pular":1603,"Ġprev":1604,"Ġsecre":1605,"tis":1606,"tario":1607,"rado":1608,"quil":1609,"Ġnacional":1610,"Ġtal":1611,"entas":1612,"Ġparece":1613,"Ġresp":1614,"Ġencontr":1615,"OE":1616,"ĠPue":1617,"Ġmanten":1618,"demos":1619,"Ġfueron":1620,"dencia":1621,"Ġtipo":1622,"ĠvÃŃ":1623,"jecu":1624,"atur":1625,"Ġdinero":1626,"tenciÃ³n":1627,"gon":1628,"mento":1629,"Ġpunto":1630,"uridad":1631,"ior":1632,"cin":1633,"ĠnÃºmero":1634,"Ġdebe":1635,"Ġimpres":1636,"Ġella":1637,"cel":1638,"ĠtravÃ©s":1639,"vÃŃa":1640,"Ġhe":1641,"Ġ11":1642,"Ġrecor":1643,"Ġcomer":1644,"Ġdirig":1645,"Ġyo":1646,"blig":1647,"Ġmisma":1648,"Ġtele":1649,"Ġnov":1650,"Ġdo":1651,"Ġhacia":1652,"Ġbu":1653,"gura":1654,"Ġima":1655,"ral":1656,"avor":1657,"stas":1658,"Ġconside":1659,"Ġmujeres":1660,"graf":1661,"Ġrefer":1662,"Ġ30":1663,"Ġth":1664,"Ġgen":1665,"ola":1666,"rio":1667,"iciÃ³n":1668,"âĢ¦":1669,"Ġcapital":1670,"Ġsue":1671,"ectos":1672,"ental":1673,"ĠJo":1674,"isto":1675,"Ġhoras":1676,"adie":1677,"eta":1678,"Ġmunicip":1679,"Ġrecur":1680,"uesta":1681,"Ġaum":1682,"Ġsa":1683,"Ġoblig":1684,"ĠGener":1685,"Ġfran":1686,"Ġus":1687,"Ġempez":1688,"zÃ³":1689,"ĠSo":1690,"ĠtenÃŃa":1691,"vil":1692,"Ġcompe":1693,"chos":1694,"ĠBar":1695,"ĠTambiÃ©n":1696,"Ġfuncion":1697,"Ã¡tico":1698,"Ġlogr":1699,"didas":1700,"ha":1701,"Ġgust":1702,"ui":1703,"olo":1704,"Ã¡l":1705,"ĠmÃºs":1706,"Ġinst":1707,"Ġho":1708,"Ġcl":1709,"Ġexpres":1710,"Ġespa":1711,"Ġdesa":1712,"rez":1713,"ĠMu":1714,"Ġpartidos":1715,"ĠCi":1716,"Ġtotal":1717,"Ġproceso":1718,"Ġmode":1719,"Ġdeber":1720,"cidad":1721,"Ġ2011":1722,"ribu":1723,"Ġconta":1724,"enas":1725,"Ġsom":1726,"Ġfavor":1727,"uego":1728,"Ġindepen":1729,"Ġ14":1730,"itos":1731,"Ġelecciones":1732,"ĠAh":1733,"bos":1734,"tico":1735,"Ġello":1736,"abor":1737,"Ġfinanci":1738,"pel":1739,"Ġposible":1740,"ĠUnidos":1741,"ĠmÃ¡":1742,"Ġviol":1743,"mado":1744,"Ã¡f":1745,"Ġmercado":1746,"Ġade":1747,"Ġdemoc":1748,"gas":1749,"Ġba":1750,"Ġalcan":1751,"dan":1752,"nes":1753,"tada":1754,"Ġproblema":1755,"ror":1756,"cido":1757,"Ġdatos":1758,"Ġsector":1759,"Ġpuntos":1760,"Ġinteres":1761,"ĠediciÃ³n":1762,"ĠGeneral":1763,"Ġdeclar":1764,"tec":1765,"Ġimportante":1766,"ĠThe":1767,"Ġdistin":1768,"ĠCataluÃ±a":1769,"Ġfon":1770,"ible":1771,"uerra":1772,"Ġreun":1773,"eciÃ³":1774,"men":1775,"zado":1776,"...":1777,"Ġvic":1778,"ĠNews":1779,"ĠJuan":1780,"Ġgol":1781,"ĠCo":1782,"Ġigual":1783,"Ġobra":1784,"uela":1785,"Ġbajo":1786,"Ġcompro":1787,"ĠPSOE":1788,"Ġseis":1789,"cor":1790,"visiÃ³n":1791,"igo":1792,"puesto":1793,"ĠInter":1794,"adora":1795,"Ġliber":1796,"turo":1797,"dez":1798,"cribir":1799,"ne":1800,"letter":1801,"Ġocur":1802,"cula":1803,"eras":1804,"Ġpie":1805,"turas":1806,"Ġanunci":1807,"Ġcondi":1808,"ĠAyunta":1809,"Ġfamilia":1810,"Ġ13":1811,"ĠAdemÃ¡s":1812,"Ġdepor":1813,"Ġtrad":1814,"ciden":1815,"olÃ³g":1816,"cent":1817,"dal":1818,"Ġalcal":1819,"ĠAle":1820,"Ġrecuer":1821,"ĠpolÃŃtico":1822,"ono":1823,"rup":1824,"rar":1825,"Ġfil":1826,"Ġutil":1827,"ĠHa":1828,"ĠartÃŃculo":1829,"taciones":1830,"Ġsociedad":1831,"Ġgo":1832,"tion":1833,"En":1834,"Ġfi":1835,"ivel":1836,"Ġcaus":1837,"Ġmuchas":1838,"Ġhabr":1839,"ĠMo":1840,"Ã©cn":1841,"Ġrealidad":1842,"Ġol":1843,"Ġminu":1844,"Ġextra":1845,"Ġ25":1846,"Ġmor":1847,"Ġhora":1848,"Ġjunto":1849,"ĠEsta":1850,"Ġofre":1851,"Ġorden":1852,"dera":1853,"Ġacus":1854,"erio":1855,"Ġesto":1856,"Ġesos":1857,"ĠNewsletter":1858,"icÃŃa":1859,"th":1860,"gue":1861,"ÃŃf":1862,"Ġinm":1863,"Ġfiscal":1864,"mple":1865,"ribun":1866,"ron":1867,"Ġtempor":1868,"imo":1869,"tran":1870,"ĠSal":1871,"Ġ17":1872,"eric":1873,"ĠpodrÃŃa":1874,"vid":1875,"izar":1876,"Ġdocum":1877,"Ġ16":1878,"Ġvalor":1879,"Ġsigue":1880,"ulo":1881,"Ġpalab":1882,"ĠÃºltima":1883,"iva":1884,"ĠFern":1885,"Ġlabor":1886,"Ġrepresent":1887,"Ġnivel":1888,"iene":1889,"Ġ2010":1890,"Ġraz":1891,"dial":1892,"ex":1893,"Ã¡m":1894,"Ġneg":1895,"Ġpen":1896,"mpli":1897,"Ġcontr":1898,"Ġnoche":1899,"Ġsupon":1900,"Ġexist":1901,"usiÃ³n":1902,"Ġrespons":1903,"iniÃ³n":1904,"Ġzona":1905,"ĠDesde":1906,"tÃ¡n":1907,"und":1908,"Ġpuer":1909,"Ġfac":1910,"ĠAsÃŃ":1911,"Ġproblemas":1912,"Ġarti":1913,"inos":1914,"Ġcolec":1915,"Ġcalle":1916,"Ġsegundo":1917,"inas":1918,"icamente":1919,"Ġtendr":1920,"ial":1921,"fa":1922,"Ġfuturo":1923,"bal":1924,"bado":1925,"ts":1926,"ilo":1927,"ivil":1928,"zos":1929,"ĠPuedes":1930,"ĠDi":1931,"leg":1932,"tiene":1933,"ĠSegÃºn":1934,"Ġencar":1935,"Ġpropio":1936,"Ġsuscribir":1937,"var":1938,"Ġbal":1939,"Ġfra":1940,"ĠdifÃŃ":1941,"ques":1942,"Ġlocal":1943,"Ġasegura":1944,"Ġconven":1945,"Ġmos":1946,"ĠAd":1947,"ingun":1948,"dades":1949,"ducir":1950,"tera":1951,"cÃŃa":1952,"ima":1953,"Ġquiere":1954,"ĠpÃºblica":1955,"ciÃ³":1956,"Ġcara":1957,"Ġindi":1958,"rea":1959,"ĠespaÃ±ola":1960,"gel":1961,"lor":1962,"Ġbo":1963,"Ġquer":1964,"Ġsuscribirte":1965,"ĠPe":1966,"ĠtÃ©cn":1967,"Ġexig":1968,"Ġlargo":1969,"jero":1970,"Ġsep":1971,"ĠmÃ©":1972,"Ġnoso":1973,"ĠAyuntamiento":1974,"Ġdentro":1975,"Ġauto":1976,"Ġafec":1977,"ug":1978,"enda":1979,"Ġcir":1980,"Ġnadie":1981,"Ġclas":1982,"Ġcine":1983,"Ġlado":1984,"iencia":1985,"ĠHay":1986,"greso":1987,"Ġactual":1988,"Ġmiem":1989,"Ġsur":1990,"Ġdomin":1991,"Ġtri":1992,"Ġ199":1993,"Ġpan":1994,"Ġmues":1995,"Ġinici":1996,"Ġpapel":1997,"ampoco":1998,"Ġvan":1999,"ĠMÃ©":2000,"ĠCan":2001,"Ġpaso":2002,"Ġata":2003,"Ġpuesto":2004,"ajes":2005,"rera":2006,"Ġhombre":2007,"dust":2008,"Ġhaya":2009,"ologÃŃa":2010,"ĠRa":2011,"est":2012,"Ġ22":2013,"Ġsociales":2014,"ĠBan":2015,"Ġtarde":2016,"Ġsac":2017,"dor":2018,"Ġpublic":2019,"zquier":2020,"arÃ¡n":2021,"Ġnosotros":2022,"jas":2023,"reg":2024,"Ġorig":2025,"Ġries":2026,"Ġmedia":2027,"Ġhemos":2028,"Ġestable":2029,"ĠLuis":2030,"puesta":2031,"ĠOr":2032,"ajoy":2033,"val":2034,"ĠseÃ±al":2035,"oluciÃ³n":2036,"eb":2037,"xico":2038,"Ġdem":2039,"Ġelector":2040,"Ġprograma":2041,"ese":2042,"Ġpopular":2043,"tagon":2044,"Ġsegunda":2045,"ĠComo":2046,"Ġcasos":2047,"ĠdecisiÃ³n":2048,"ivo":2049,"ĠRajoy":2050,"Ġseguridad":2051,"Ġdefin":2052,"Ġcur":2053,"una":2054,"Ġresto":2055,"ciales":2056,"ĠniÃ±os":2057,"Ġcri":2058,"Ġnombre":2059,"Ġabier":2060,"idente":2061,"Ġmanif":2062,"ĠtodavÃŃa":2063,"tbol":2064,"Ġorganiz":2065,"ck":2066,"Ġacom":2067,"ecer":2068,"Ġocas":2069,"Ġaut":2070,"ĠpolÃŃticos":2071,"Ġenc":2072,"Ġvarios":2073,"Ġnuestra":2074,"Ġsuf":2075,"yo":2076,"Ġon":2077,"ĠAhora":2078,"Ġsor":2079,"Ġbene":2080,"Ġconsegu":2081,"Ġestu":2082,"oma":2083,"Ġqui":2084,"imos":2085,"ves":2086,"iano":2087,"ula":2088,"mes":2089,"ĠNacional":2090,"Ġrefle":2091,"Ġperf":2092,"ĠCuando":2093,"Ġatra":2094,"Ġveci":2095,"ile":2096,"ingÃºn":2097,"ĠdÃ©c":2098,"Ġpriv":2099,"ional":2100,"ip":2101,"ĠâĢĵ":2102,"Ġclaro":2103,"cier":2104,"ĠCol":2105,"Ġases":2106,"Ġbuena":2107,"Ġejer":2108,"itat":2109,"Ġidea":2110,"Ġ21":2111,"biÃ³":2112,"Ġ2012":2113,"Ġponer":2114,"ulio":2115,"Ġocu":2116,"Ġmul":2117,"Ġservicios":2118,"ĠinvestigaciÃ³n":2119,"Ġlibro":2120,"ciaciÃ³n":2121,"ciendo":2122,"Ġprotagon":2123,"Ã±ana":2124,"bate":2125,"Ġporta":2126,"Ġalgunas":2127,"taron":2128,"Ġinver":2129,"ĠlÃŃn":2130,"iar":2131,"cti":2132,"Ġfa":2133,"Ġsiglo":2134,"ĠinformaciÃ³n":2135,"Ġciudadanos":2136,"iversidad":2137,"Ġpartir":2138,"Ġningun":2139,"op":2140,"ĠPro":2141,"ender":2142,"Ġconoc":2143,"ĠcrÃŃt":2144,"iga":2145,"Ġmat":2146,"ĠrelaciÃ³n":2147,"ric":2148,"toria":2149,"ĠdifÃŃcil":2150,"ĠMin":2151,"Ġtuvo":2152,"iado":2153,"dose":2154,"paciÃ³n":2155,"ork":2156,"Ġministro":2157,"anas":2158,"ĠMun":2159,"Ġjo":2160,"ĠÃºnico":2161,"Ġjun":2162,"uales":2163,"Ġsentido":2164,"ĠdÃ©":2165,"ĠMÃ©xico":2166,"Ġcomen":2167,"ĠAnton":2168,"venes":2169,"Ġregist":2170,"Ã³venes":2171,"nas":2172,"Ġrecl":2173,"Ġconte":2174,"iter":2175,"ÃŃamos":2176,"Ġesas":2177,"ĠIs":2178,"Ġinte":2179,"ĠeconomÃŃa":2180,"Ġnatur":2181,"diente":2182,"Ġderecho":2183,"Ġobras":2184,"tien":2185,"Ġsex":2186,"Ã¡tica":2187,"Ġtermin":2188,"anto":2189,"Ġpartici":2190,"Ġcumpl":2191,"Ġenfr":2192,"Ġsim":2193,"ĠEurope":2194,"bern":2195,"ifica":2196,"ĠhabÃŃan":2197,"lares":2198,"ĠsÃ³lo":2199,"ilar":2200,"uye":2201,"ĠjÃ³venes":2202,"Ġabs":2203,"ĠningÃºn":2204,"Ġtenido":2205,"Ġasist":2206,"elo":2207,"Ġavan":2208,"Ġconcl":2209,"ĠEE":2210,"ĠfÃ¡":2211,"Ġcontinu":2212,"Ġcla":2213,"bia":2214,"Ġizquier":2215,"Ġsiendo":2216,"Ġbenefici":2217,"curso":2218,"Ġpin":2219,"Ġobjetivo":2220,"Ġminutos":2221,"Ġcontrol":2222,"Ġ50":2223,"ĠpolÃŃticas":2224,"ĠllegÃ³":2225,"tero":2226,"Ġhos":2227,"tiz":2228,"ĠAunque":2229,"ocu":2230,"Ġiden":2231,"Ġmano":2232,"Ġconsidera":2233,"Ġpresu":2234,"Ġcli":2235,"Ġpat":2236,"atura":2237,"ĠapareciÃ³":2238,"tando":2239,"ĠmÃºsica":2240,"blo":2241,"ĠGeneralitat":2242,"Ġlan":2243,"ĠcampaÃ±a":2244,"Est":2245,"Ã¼":2246,"ĠmaÃ±ana":2247,"Ġterri":2248,"Ġcuar":2249,"iete":2250,"Ġestra":2251,"trÃ¡s":2252,"Ġcelebr":2253,"Ġreco":2254,"ĠBo":2255,"ĠUU":2256,"ĠeconÃ³mica":2257,"Ġlleva":2258,"Ġescu":2259,"Ġambi":2260,"Ġplante":2261,"Ġpoc":2262,"fo":2263,"ira":2264,"manas":2265,"Ġconce":2266,"ĠvÃŃcti":2267,"Ġcru":2268,"Ġpropia":2269,"Ã±as":2270,"Ġmedios":2271,"ĠserÃŃa":2272,"ribunal":2273,"Ġdescu":2274,"Ġmens":2275,"Ġdese":2276,"Ġfig":2277,"Ġampli":2278,"ÃŃcula":2279,"Ġ[":2280,"Ġfund":2281,"Ġluego":2282,"Ġserie":2283,"rump":2284,"ĠprÃ¡c":2285,"mon":2286,"Ġren":2287,"Ġje":2288,"Ġtec":2289,"tual":2290,"Ġrad":2291,"Ġespect":2292,"ĠQu":2293,"Ġquienes":2294,"voz":2295,"Ġpob":2296,"Ġnuevos":2297,"Ġinforme":2298,"ĠlÃŃder":2299,"ĠMor":2300,"ider":2301,"ĠPu":2302,"ĠCarlos":2303,"Ġellas":2304,"jar":2305,"Ġreal":2306,"Ġespacio":2307,"Ġpadre":2308,"Ã¡g":2309,"pas":2310,"unes":2311,"Ġindust":2312,"Ġmodelo":2313,"ger":2314,"gent":2315,"ĠCa":2316,"Ġguerra":2317,"Ġagua":2318,"Ġpesar":2319,"Ġdig":2320,"Ġgal":2321,"Ġinternacional":2322,"Ġmedidas":2323,"ĠahÃŃ":2324,"gn":2325,"Ġmuerte":2326,"ĠGal":2327,"Ġingres":2328,"iza":2329,"Ġcif":2330,"ulta":2331,"ducaciÃ³n":2332,"Ġescen":2333,"Ġdado":2334,"Ġ40":2335,"uniden":2336,"Ġkil":2337,"Ġdise":2338,"torio":2339,"ordin":2340,"ĠPol":2341,"ĠGran":2342,"arlo":2343,"Ġmas":2344,"xito":2345,"Ġdipu":2346,"udas":2347,"Ġrecord":2348,"chez":2349,"19":2350,"oce":2351,"Ġproce":2352,"cales":2353,"Ġreconoci":2354,"Ġpersonal":2355,"Ġsign":2356,"ĠdÃ³":2357,"Ġestre":2358,"ĠcompaÃ±ÃŃa":2359,"Ġdescon":2360,"Ġcont":2361,"Ġderechos":2362,"Ġ2013":2363,"Ġestadouniden":2364,"Ġprimero":2365,"Ġblan":2366,"ĠPer":2367,"ĠÃ©xito":2368,"Ġmostr":2369,"ĠIg":2370,"Ġacer":2371,"Ġder":2372,"Ã©rica":2373,"ĠRu":2374,"Ġpron":2375,"Ġdedic":2376,"lec":2377,"Ġportavoz":2378,"Ġeran":2379,"tidad":2380,"Ġjoven":2381,"dico":2382,"Ġprincipal":2383,"ĠEx":2384,"Qu":2385,"ĠMarÃŃa":2386,"Ġacep":2387,"tiembre":2388,"orio":2389,"Ġauton":2390,"Ġprue":2391,"ĠpolicÃŃa":2392,"Ġnuevas":2393,"portun":2394,"ĠConse":2395,"rupciÃ³n":2396,"Ġcuer":2397,"tÃŃn":2398,"au":2399,"racia":2400,"Ġpersona":2401,"Ġapoyo":2402,"Ġer":2403,"aja":2404,"Ġreforma":2405,"Ġjuego":2406,"Ġjuez":2407,"Ġevitar":2408,"Ġeleg":2409,"xto":2410,"Ġconj":2411,"od":2412,"ueva":2413,"ond":2414,"ĠespaÃ±oles":2415,"Ġmir":2416,"Ã¡nchez":2417,"Ġseptiembre":2418,"one":2419,"termin":2420,"Ġ*":2421,"ade":2422,"Ġtenemos":2423,"gÃºn":2424,"ĠPre":2425,"Ġpac":2426,"Ġsiete":2427,"tio":2428,"ĠprÃ³ximo":2429,"Ġarte":2430,"Ġ2014":2431,"ĠSÃ¡nchez":2432,"ĠEntre":2433,"Ġhijos":2434,"entado":2435,"ecen":2436,"ĠCent":2437,"Ġdeuda":2438,"Ġdebate":2439,"ĠComun":2440,"Ġriesgo":2441,"Ġejecu":2442,"Ġenfer":2443,"orn":2444,"Los":2445,"culo":2446,"Ġenero":2447,"siones":2448,"Ġgaran":2449,"Ġ24":2450,"Ġdici":2451,"Ġtecn":2452,"Ġapor":2453,"Ġcarrera":2454,"Ġjulio":2455,"Ġcierto":2456,"Ġsorp":2457,"Ġimpresa":2458,"iernes":2459,"ĠMas":2460,"Ġanterior":2461,"ĠpelÃŃcula":2462,"metros":2463,"taria":2464,"ĠAntonio":2465,"Ġmetros":2466,"Ġcrecimiento":2467,"ĠTras":2468,"fi":2469,"bu":2470,"Ġvisto":2471,"tud":2472,"mite":2473,"ĠmÃ¡xi":2474,"cera":2475,"Ġmedida":2476,"Ġmadre":2477,"Ġoportun":2478,"Ġprimeros":2479,"Ġpreten":2480,"tubre":2481,"Ġvolver":2482,"Ġresultado":2483,"Ġinten":2484,"Ġaband":2485,"Ġcapacidad":2486,"Ġ2015":2487,"gin":2488,"Ġalter":2489,"ly":2490,"ĠTe":2491,"Ġcerca":2492,"Ġtur":2493,"Ġhubi":2494,"char":2495,"ĠCal":2496,"Ġdiciembre":2497,"Ġimagen":2498,"viÃ³":2499,"ĠTor":2500,"%.":2501,"Ġsolu":2502,"ierra":2503,"Ġapenas":2504,"Ġmayo":2505,"Ġil":2506,"Ġfuentes":2507,"ĠpoblaciÃ³n":2508,"Ġpreocu":2509,"Ġconsider":2510,"Ġobs":2511,"si":2512,"Ġcamino":2513,"Ġdio":2514,"Ġhablar":2515,"rÃ³":2516,"Ġpasar":2517,"ĠCons":2518,"ĠâĢĺ":2519,"ĠallÃŃ":2520,"ire":2521,"lub":2522,"respon":2523,"Ġgobierno":2524,"Ġsuce":2525,"her":2526,"Ġjunio":2527,"Ġsen":2528,"taba":2529,"Ã¡p":2530,"Ã¡ndez":2531,"uls":2532,"ev":2533,"Ġinclu":2534,"Ġocho":2535,"quiera":2536,"Ġmarcha":2537,"Ġrecha":2538,"Ġ23":2539,"ĠOp":2540,"Ġll":2541,"Ġargu":2542,"Ġoctubre":2543,"tific":2544,"Ġvig":2545,"Ġlec":2546,"Ġmit":2547,"table":2548,"ĠdÃ³lares":2549,"Ġconstitu":2550,"unda":2551,"elas":2552,"Ġtampoco":2553,"vent":2554,"Ġdepen":2555,"Ġayud":2556,"Ġsalud":2557,"Ġadminist":2558,"rido":2559,"uestas":2560,"Ġform":2561,"Ġmus":2562,"ase":2563,"ĠhistÃ³r":2564,"Ġedifici":2565,"tim":2566,"Ġamena":2567,"Ġalguna":2568,"Ġvarias":2569,"Ġred":2570,"ĠValencia":2571,"Ġmovi":2572,"ĠYo":2573,"Ġvas":2574,"Ġpagar":2575,"Ġperiodi":2576,"rimon":2577,"Ġprovoc":2578,"Ġnove":2579,"Ã©g":2580,"ĠaÃ±ad":2581,"tora":2582,"pro":2583,"Ġservicio":2584,"ĠoposiciÃ³n":2585,"ll":2586,"Ġmilitar":2587,"Ġdeman":2588,"ĠUniversidad":2589,"just":2590,"Ġsemanas":2591,"ĠÃ©p":2592,"Ġpueblo":2593,"Ġmanifes":2594,"ĠacompaÃ±":2595,"Ġtemporada":2596,"ĠgestiÃ³n":2597,"Ġvivien":2598,"Ġmiembros":2599,"Ġagu":2600,"Ġperman":2601,"ke":2602,"Ã¡fico":2603,"ĠConstitu":2604,"Ġrecib":2605,"ĠOb":2606,"Ġninguna":2607,"Ġdejar":2608,"ĠtÃŃt":2609,"Ġos":2610,"Ġconden":2611,"Ġcandida":2612,"entan":2613,"Ã©m":2614,"gl":2615,"Ġrespecto":2616,"Ġhacen":2617,"ĠCiudad":2618,"ĠalgÃºn":2619,"Ġconten":2620,"ĠMer":2621,"Ġprodu":2622,"arcÃŃa":2623,"Ġcondiciones":2624,"Ġta":2625,"ĠMinist":2626,"ĠdirecciÃ³n":2627,"iembre":2628,"Ġincre":2629,"Ġmarzo":2630,"ablo":2631,"uras":2632,"Ġtrabajadores":2633,"alizaciÃ³n":2634,"Ġsup":2635,"ĠallÃ¡":2636,"ĠFe":2637,"ka":2638,"Ġprepar":2639,"ĠcaÃŃ":2640,"ficiente":2641,"Ġmanos":2642,"ĠParlam":2643,"Ġmantener":2644,"Ġ'":2645,"ĠGarcÃŃa":2646,"ĠFrancia":2647,"ĠformaciÃ³n":2648,"Ġrecuper":2649,"brero":2650,"riz":2651,"Ġsabe":2652,"Ġinicia":2653,"30":2654,"Ġconfir":2655,"Ġrepar":2656,"Ġgrupos":2657,"americ":2658,"ĠSon":2659,"Ġcargo":2660,"ueves":2661,"Ġnoviembre":2662,"QuÃ©":2663,"Ġ198":2664,"Ġambos":2665,"Ġinterven":2666,"echa":2667,"Ġpalabras":2668,"Ãł":2669,"enso":2670,"Ġafirma":2671,"Ġmuestra":2672,"Ġampliar":2673,"Ġestamos":2674,"Ġprecio":2675,"Ġconsig":2676,"Ġanim":2677,"ĠÃºnica":2678,"Ġpasa":2679,"ecta":2680,"Ġpare":2681,"tid":2682,"Ġ100":2683,"Ġrespe":2684,"Ġpromo":2685,"Ġasp":2686,"Ã©rez":2687,"Ġcabeza":2688,"Ġcampo":2689,"iego":2690,"ĠpÃºblicos":2691,"Ġ/":2692,"Ġgracias":2693,"jes":2694,"ĠManuel":2695,"Ġamor":2696,"Ġespera":2697,"zan":2698,"Ġcalidad":2699,"Ġrecuerda":2700,"estiv":2701,"Ġuso":2702,"Ġterror":2703,"pez":2704,"gram":2705,"guien":2706,"Ġmoder":2707,"Ġayuda":2708,"Ġprensa":2709,"Ġsaber":2710,"Ġverdad":2711,"Ġdeten":2712,"Ġnatural":2713,"Ġestudio":2714,"Ġdicho":2715,"net":2716,"end":2717,"Ġelectoral":2718,"Ġconflic":2719,"esa":2720,"esta":2721,"Ġinterpre":2722,"arra":2723,"Ġextre":2724,"Ġhijo":2725,"Ġresultados":2726,"Ġdemas":2727,"lad":2728,"ĠPÃ©rez":2729,"pital":2730,"Ġpelig":2731,"ĠCam":2732,"icado":2733,"ko":2734,"Ġgri":2735,"ches":2736,"cados":2737,"Ġlegis":2738,"Ġresponsable":2739,"Ġnorte":2740,"ĠlÃŃnea":2741,"arr":2742,"alu":2743,"Ġdestac":2744,"Ġlibertad":2745,"Ġentren":2746,"did":2747,"ian":2748,"Ġsecretario":2749,"pan":2750,"Ġresponsa":2751,"Ġsens":2752,"Ġdetermin":2753,"ianza":2754,"Ġdie":2755,"vieron":2756,"Ġalcalde":2757,"Ġempleo":2758,"imiento":2759,"ĠatenciÃ³n":2760,"Ġinstru":2761,"ĠkilÃ³":2762,"Ġaprob":2763,"Ġenerg":2764,"cÃ³":2765,"Ġvisit":2766,"Ġviolencia":2767,"%,":2768,"Ġresta":2769,"ical":2770,"coles":2771,"Ġdetal":2772,"Ãºtbol":2773,"Ġampl":2774,"Ġdiferentes":2775,"Ġjudi":2776,"Ġalto":2777,"Ġentrev":2778,"Ġqueda":2779,"igos":2780,"ritÃ¡n":2781,"Ġfondo":2782,"grafÃŃa":2783,"bel":2784,"Ġsir":2785,"Ġsalir":2786,"Ġdesarrollo":2787,"Ġizquierda":2788,"Ġpropie":2789,"Ġconcre":2790,"ĠSa":2791,"Ġmejores":2792,"Ġbe":2793,"Â¿":2794,"ale":2795,"ice":2796,"Ġmodo":2797,"Ġesf":2798,"Ġviernes":2799,"Ġconvoc":2800,"Ġcosa":2801,"ciente":2802,"âĢĶ,":2803,"Ġalim":2804,"Ãºa":2805,"Ã©rcoles":2806,"Ġparticip":2807,"mÃ¡n":2808,"ĠÂ¡":2809,"Ġcolabor":2810,"2017":2811,"lante":2812,"Ġcomunidad":2813,"avier":2814,"Ġutiliz":2815,"Ã³nica":2816,"Ġapren":2817,"Ã³pez":2818,"ĠTrump":2819,"Ġhombres":2820,"ign":2821,"lin":2822,"Ġimpues":2823,"TA":2824,"Ġmitad":2825,"uncia":2826,"Ġthat":2827,"Ġmateri":2828,"Ġ2009":2829,"ĠGon":2830,"mania":2831,"tencia":2832,"Ġlunes":2833,"seo":2834,"Ġinvers":2835,"ĠLÃ³pez":2836,"ÃŃstica":2837,"Ġhabla":2838,"ner":2839,"dientes":2840,"Ã¡bado":2841,"ĠBa":2842,"Ġrespuesta":2843,"dero":2844,"pec":2845,"Ġposibilidad":2846,"Ġfundam":2847,"ĠBer":2848,"tilla":2849,"Ġexcl":2850,"Ġgobern":2851,"Ġ27":2852,"bilidades":2853,"Ġprincipio":2854,"Ġliter":2855,"Ġdemos":2856,"Ġvista":2857,"Ġpadres":2858,"ĠNueva":2859,"Ġpese":2860,"ĠYork":2861,"Ġpresencia":2862,"Ġfuerza":2863,"Ġpropuesta":2864,"ĠfÃ¡cil":2865,"lig":2866,"genes":2867,"itario":2868,"mio":2869,"ĠMartÃŃn":2870,"ĠBr":2871,"ruc":2872,"Ġcorrespon":2873,"ĠbritÃ¡n":2874,"Ġcentral":2875,"ĠorganizaciÃ³n":2876,"alizar":2877,"Ġvolun":2878,"ĠmÃŃ":2879,"iro":2880,"Ġfron":2881,"ĠCongreso":2882,"teriores":2883,"Ġcandid":2884,"Ġprecis":2885,"Ġescenario":2886,"Ġactividad":2887,"Ġjefe":2888,"cima":2889,"ĠeconÃ³mico":2890,"ĠAdminist":2891,"Ġtit":2892,"ĠaÃ±ade":2893,"Ġconocer":2894,"asa":2895,"esiÃ³n":2896,"Ġunivers":2897,"ĠinterÃ©s":2898,"iados":2899,"Ġconvertir":2900,"tural":2901,"Ġnecesita":2902,"Ġprincipales":2903,"xic":2904,"Ġcivil":2905,"uelo":2906,"ĠseÃ±ala":2907,"Ġbase":2908,"Ġabril":2909,"mentos":2910,"ĠEso":2911,"Ġrecursos":2912,"ĠComunidad":2913,"Cu":2914,"Ġmucha":2915,"ĠPed":2916,"ĠJor":2917,"Ġ197":2918,"Ġdenunci":2919,"Ġprecios":2920,"Ġprotes":2921,"ĠGonz":2922,"cina":2923,"Ġalguien":2924,"eas":2925,"mor":2926,"Ġsolici":2927,"Ġdispon":2928,"ĠtelevisiÃ³n":2929,"Ġiba":2930,"puestos":2931,"Ġsalida":2932,"gosto":2933,"Ġpers":2934,"Ġabsolu":2935,"iel":2936,"ĠFrancis":2937,"Ġplazo":2938,"ib":2939,"Ġdemocracia":2940,"Ġpueda":2941,"ĠConsejo":2942,"Ġglo":2943,"Ġnoti":2944,"Ġ2008":2945,"Ã³vil":2946,"Ġhici":2947,"Ġlen":2948,"reno":2949,"Ġclub":2950,"Ġesca":2951,"Ġcultura":2952,"Ġabandon":2953,"Ã©di":2954,"ĠPablo":2955,"Ġsigui":2956,"Ġabog":2957,"ĠkilÃ³metros":2958,"lez":2959,"Ġnorm":2960,"ĠPodemos":2961,"ĠSus":2962,"Ġverano":2963,"Ġfebrero":2964,"Ġcoin":2965,"ĠUE":2966,"ĠfÃºtbol":2967,"Ġlibre":2968,"Ġsupone":2969,"Ġnuestros":2970,"ĠcorrupciÃ³n":2971,"ĠFue":2972,"ulos":2973,"ĠFer":2974,"itado":2975,"rÃ¡n":2976,"Ġ2016":2977,"echo":2978,"tivamente":2979,"ĠcatalÃ¡n":2980,"ĠCrist":2981,"Ġexperiencia":2982,"ĠmÃŃn":2983,"Ġagosto":2984,"bert":2985,"Ġllega":2986,"rios":2987,"ole":2988,"onas":2989,"Ġdisf":2990,"Ã©nd":2991,"torno":2992,"ĠMig":2993,"gada":2994,"Ġ26":2995,"ngel":2996,"Ġconserv":2997,"Ġllevar":2998,"Ġdefensa":2999,"Ġextran":3000,"tadas":3001,"Ġmenor":3002,"ĠÃ©poca":3003,"Ġenor":3004,"ĠAlemania":3005,"rimonio":3006,"Ġsocialista":3007,"ĠJa":3008,"Ġtiempos":3009,"Ġemo":3010,"Ġalta":3011,"Ġfinales":3012,"Ġplaza":3013,"estr":3014,"Ġnecesidad":3015,"ĠvÃŃctimas":3016,"Se":3017,"Ġcontrario":3018,"Ġdivers":3019,"Ġduda":3020,"10":3021,"ix":3022,"Ġfuerte":3023,"Ġlista":3024,"Ġparlam":3025,"ĠrÃ¡p":3026,"50":3027,"Ġdomingo":3028,"ĠcuestiÃ³n":3029,"jeros":3030,"Ã¡mara":3031,"inar":3032,"bable":3033,"Ġtrabajar":3034,"Ġnegocio":3035,"Ġvecinos":3036,"gre":3037,"Ġbarrio":3038,"Ġsuel":3039,"Ġestrateg":3040,"Ġcandidato":3041,"Ġpid":3042,"tarse":3043,"estival":3044,"Ġoficial":3045,"Ġpris":3046,"ĠQue":3047,"ĠTribunal":3048,"ificaciÃ³n":3049,"Ġacceso":3050,"ĠinversiÃ³n":3051,"ĠpodÃŃa":3052,"Ġalum":3053,"Ġprovin":3054,"quitec":3055,"Ġges":3056,"Ã³l":3057,"Ġaplic":3058,"Ġingresos":3059,"Ġvie":3060,"Ġfamilias":3061,"ĠBen":3062,"Ġejerci":3063,"Ġconst":3064,"ĠDav":3065,"estion":3066,"Ġganar":3067,"Ġlevan":3068,"Ġespecialmente":3069,"viv":3070,"20":3071,"ĠTodo":3072,"dente":3073,"icular":3074,"ĠSer":3075,"ĠdejÃ³":3076,"vech":3077,"Ġpocos":3078,"Ġesfuer":3079,"Ġactualidad":3080,"Ġautoridades":3081,"guez":3082,"Ã§":3083,"Ã¡st":3084,"Ġestaban":3085,"acto":3086,"ionales":3087,"Ġregres":3088,"berto":3089,"Ġtradi":3090,"ĠNav":3091,"ĠEjecu":3092,"irse":3093,"Ġcontar":3094,"ĠGo":3095,"cierto":3096,"Ġluz":3097,"iente":3098,"Ġreciente":3099,"zÃ³n":3100,"Ġestadounidense":3101,"reo":3102,"Ġmayores":3103,"Ġestruc":3104,"portes":3105,"Ġdeben":3106,"Ġvivir":3107,"Ġhubiera":3108,"Ġreclam":3109,"ĠFrancisco":3110,"rantes":3111,"Ġjueves":3112,"Ġdiscurso":3113,"Ã©tico":3114,"Ġdesc":3115,"Ġcentros":3116,"Ġ28":3117,"Ġtema":3118,"Ġjorn":3119,"Ġpeor":3120,"ĠopiniÃ³n":3121,"Ġmartes":3122,"ĠMiguel":3123,"gÃ³":3124,"ĠMÃ¡s":3125,"Ġblo":3126,"ĠMinisterio":3127,"ĠAt":3128,"ĠFernÃ¡ndez":3129,"dieron":3130,"ducciÃ³n":3131,"Ġmexic":3132,"Ġcat":3133,"ĠYa":3134,"ĠMundial":3135,"illo":3136,"iedo":3137,"ki":3138,"ĠRes":3139,"Ġencontrar":3140,"Ġimposi":3141,"Ġcuentas":3142,"Ġcausa":3143,"ĠÃģngel":3144,"diendo":3145,"Ġviene":3146,"ĠPres":3147,"Ġcree":3148,"Ġllegado":3149,"Ġespeci":3150,"ĠPedro":3151,"alo":3152,"Ġconjunto":3153,"Ġproductos":3154,"Ġ60":3155,"lÃŃ":3156,"para":3157,"Ġital":3158,"icidad":3159,"Por":3160,"Ġim":3161,"rados":3162,"Si":3163,"chas":3164,"Ġentrada":3165,"xim":3166,"miso":3167,"Ġdev":3168,"Ġpermite":3169,"Ġvir":3170,"Ġvuelta":3171,"Ġsignifica":3172,"Ġagentes":3173,"Ġmarca":3174,"Ġcoleg":3175,"ĠeducaciÃ³n":3176,"Ġencima":3177,"Ġcuerpo":3178,"Ġcrear":3179,"Ġlibros":3180,"olver":3181,"ĠDiego":3182,"Ġconsecu":3183,"ila":3184,"amientos":3185,"ĠHasta":3186,"Ġvent":3187,"Ġdiario":3188,"orÃŃa":3189,"Ġofer":3190,"ducido":3191,"ite":3192,"tividad":3193,"Ġredes":3194,"ĠasegurÃ³":3195,"deres":3196,"ĠTh":3197,"ancias":3198,"ĠJust":3199,"ĠOpiniÃ³n":3200,"Ġconvertido":3201,"ĠpÃ¡g":3202,"Ġreac":3203,"Ġderecha":3204,"Ġcambiar":3205,"lla":3206,"onal":3207,"Ġhaciendo":3208,"Ġsocialistas":3209,"Ġense":3210,"Ã©tica":3211,"ĠUniÃ³n":3212,"stagram":3213,"ĠTer":3214,"izÃ¡":3215,"Ġinstituciones":3216,"Ġencuentra":3217,"deo":3218,"anciaciÃ³n":3219,"Ġtir":3220,"Ġpregunta":3221,"ĠChina":3222,"ĠRey":3223,"hn":3224,"Ġact":3225,"ĠMari":3226,"udades":3227,"Ġcuanto":3228,"ĠproducciÃ³n":3229,"Ġedad":3230,"inal":3231,"ĠInstagram":3232,"ĠUr":3233,"Ġtel":3234,"Ġvin":3235,"Ġcontemp":3236,"ĠIgles":3237,"Ġpermit":3238,"Ã¡lez":3239,"Ġdemostr":3240,"eraciones":3241,"Ġclave":3242,"Ġencuentro":3243,"Ġfel":3244,"Ġparticular":3245,"ĠregiÃ³n":3246,"Ġjuz":3247,"ĠLi":3248,"Ġmag":3249,"Ġteatro":3250,"Ġhacerlo":3251,"gentina":3252,"Ã³s":3253,"ĠautonÃ³m":3254,"ĠGonzÃ¡lez":3255,"Ġdiferencia":3256,"dedor":3257,"ĠmiÃ©rcoles":3258,"ĠreuniÃ³n":3259,"Ġorigen":3260,"ardo":3261,"ĠdeberÃŃa":3262,"ĠrazÃ³n":3263,"Ġfru":3264,"Ġfacil":3265,"ĠEuropea":3266,"Ġlim":3267,"Ġsupuesto":3268,"Ġbor":3269,"lado":3270,"ĠBras":3271,"ĠEjecutivo":3272,"ĠCos":3273,"Ġapunta":3274,"Ġrecom":3275,"ant":3276,"Ġlucha":3277,"2016":3278,"Ġdemasiado":3279,"Ġjur":3280,"Ġconseguir":3281,"ĠtÃ©r":3282,"Ġamigos":3283,"Ġantigu":3284,"omas":3285,"ff":3286,"Ġexiste":3287,"ĠTra":3288,"entÃ³":3289,"Ġapun":3290,"Ġacaba":3291,"ecido":3292,"Ġproyectos":3293,"Ġjugar":3294,"media":3295,"ĠpÃºblicas":3296,"ude":3297,"ĠposiciÃ³n":3298,"ardia":3299,"Ġciudades":3300,"Ġvoz":3301,"ultura":3302,"Ġasum":3303,"ĠdÃ©cadas":3304,"Ġalterna":3305,"dicos":3306,"ĠcomÃºn":3307,"umo":3308,"ĠPas":3309,"Ġaquellos":3310,"Âº":3311,"Ġnecesario":3312,"ĠHol":3313,"idencia":3314,"Ã¡ndose":3315,"entaciÃ³n":3316,"Ġfondos":3317,"Ġfies":3318,"itan":3319,"porte":3320,"Ġdemocr":3321,"logo":3322,"Ġmanda":3323,"Ġaprovech":3324,"villa":3325,"ĠReal":3326,"ĠComisiÃ³n":3327,"Ġrepu":3328,"parta":3329,"ivos":3330,"Ġobten":3331,"ĠsÃ©":3332,"Ġaso":3333,"ĠEcon":3334,"Ġdan":3335,"adamente":3336,"Ġnueve":3337,"forma":3338,"onos":3339,"Ġcabo":3340,"igue":3341,"cito":3342,"Ġdeportivo":3343,"ĠFernando":3344,"Ġconsul":3345,"Ġefec":3346,"Ġdific":3347,"Ġsil":3348,"ierte":3349,"Ġtro":3350,"quis":3351,"anÃŃa":3352,"ĠÃºltimas":3353,"Ġarquitec":3354,"entÃŃf":3355,"Ġperder":3356,"Ġbol":3357,"ĠquiÃ©n":3358,"Ġcaden":3359,"titud":3360,"tell":3361,"Ã©f":3362,"tia":3363,"Ġindic":3364,"blic":3365,"irtiÃ³":3366,"Ġmomentos":3367,"Ġacto":3368,"cionado":3369,"Ġconcent":3370,"Ġens":3371,"ĠInstitu":3372,"Ġdefini":3373,"ĠconstrucciÃ³n":3374,"Ġmundial":3375,"Ġsean":3376,"ĠParlamento":3377,"ĠtendrÃ¡":3378,"ecÃŃa":3379,"Ġsum":3380,"Ġocasiones":3381,"ĠDel":3382,"Ġinstal":3383,"ĠsÃ¡bado":3384,"Ġhistor":3385,"ĠGre":3386,"ĠfÃŃs":3387,"irÃ¡":3388,"ĠfinanciaciÃ³n":3389,"pol":3390,"Ġbuscar":3391,"iana":3392,"Ġcomb":3393,"Ġdeja":3394,"Ġtomar":3395,"ĠhabrÃŃa":3396,"ĠMientras":3397,"rique":3398,"cÃ©s":3399,"Ġrele":3400,"Ġmiedo":3401,"Ġcreo":3402,"12":3403,"ticiÃ³n":3404,"Ġpodemos":3405,"Ġlocales":3406,"Ġcambios":3407,"imen":3408,"Ġfigura":3409,"Ġdesapar":3410,"Ġpudi":3411,"Ġdisco":3412,"yÃ³":3413,"Ġcomunidades":3414,"ĠAndal":3415,"Ġexten":3416,"ĠHab":3417,"ĠBrasil":3418,"izado":3419,"ĠtÃ©rmin":3420,"ĠJavier":3421,"Ġderro":3422,"Ġviaje":3423,"Ġaplica":3424,"ĠFu":3425,"Ġado":3426,"Ġdiez":3427,"ĠcomunicaciÃ³n":3428,"ĠNi":3429,"Ġfalle":3430,"Ġjugadores":3431,"Ġquieren":3432,"Ġobst":3433,"Ġgolpe":3434,"Ġsorpren":3435,"ong":3436,"Ġgrave":3437,"rile":3438,"Ġsuficiente":3439,"Ġdispar":3440,"jado":3441,"tuvo":3442,"ĠAmÃ©rica":3443,"Ġcomien":3444,"ĠBe":3445,"ĠhabrÃ¡":3446,"illas":3447,"Ġvotos":3448,"ĠvÃŃa":3449,"cionar":3450,"Ġartista":3451,"rada":3452,"Ġentender":3453,"ĠmÃ³vil":3454,"jÃ³":3455,"ĠInternet":3456,"Ġdescar":3457,"Ġbusca":3458,"Ã¨":3459,"Ġnorma":3460,"ĠRos":3461,"ĠBanco":3462,"este":3463,"Ġclase":3464,"ple":3465,"ÃŃguez":3466,"ÃŃstico":3467,"Ġabrir":3468,"Ġsentencia":3469,"Ġdisp":3470,"ity":3471,"Ã©gimen":3472,"ick":3473,"Ġcuyo":3474,"Ġestrategia":3475,"Ġvel":3476,"Ġgrande":3477,"Ġlejos":3478,"mis":3479,"Ġdisfru":3480,"Ġvac":3481,"cepciÃ³n":3482,"Ġdu":3483,"Ġcuya":3484,"Ġpier":3485,"Ġpien":3486,"entales":3487,"via":3488,"culos":3489,"Ġprote":3490,"Ġconsum":3491,"Ġbel":3492,"ines":3493,"itales":3494,"Ġhechos":3495,"quiv":3496,"ĠpequeÃ±o":3497,"Ġpensar":3498,"ĠDavid":3499,"Ġincor":3500,"Ġedificio":3501,"mer":3502,"Ġromp":3503,"Ġefecto":3504,"Ġmiles":3505,"Ġprofesor":3506,"drÃŃguez":3507,"cra":3508,"ash":3509,"Ġinterior":3510,"Ġjusticia":3511,"Ġtercer":3512,"Ġactor":3513,"ĠdiseÃ±":3514,"idores":3515,"Ġlaboral":3516,"Ġalre":3517,"ĠSolo":3518,"ĠNor":3519,"ĠFor":3520,"rismo":3521,"Ġsiquiera":3522,"ĠRus":3523,"ÃŃr":3524,"ĠcÃ¡r":3525,"Ġbaja":3526,"ĠprÃ³ximos":3527,"Ã¡ticos":3528,"ĠdemÃ¡s":3529,"ĠRodrÃŃguez":3530,"Ġpuerta":3531,"ĠBlan":3532,"ĠpasÃ³":3533,"ĠpÃ©r":3534,"Ġtre":3535,"Ġretir":3536,"ticas":3537,"itaria":3538,"Ġcomercial":3539,"Ġ80":3540,"ÃŃm":3541,"Ġresulta":3542,"dap":3543,"gal":3544,"Ġdejado":3545,"Ġnovela":3546,"Ġsiguen":3547,"Ã¡nd":3548,"Ġelabor":3549,"Ġhospital":3550,"Ġjudicial":3551,"ĠParÃŃs":3552,"Ġrelig":3553,"cidente":3554,"laz":3555,"pl":3556,"jud":3557,"ĠSol":3558,"ĠRam":3559,"ĠclÃ¡s":3560,"Ġbanda":3561,"ĠLond":3562,"Ġvoc":3563,"Ġelim":3564,"Ġimportantes":3565,"Ġmunicipal":3566,"Ġreducir":3567,"Ġinsist":3568,"Ġ2007":3569,"itas":3570,"Ġtesti":3571,"Ġadv":3572,"ans":3573,"ĠGar":3574,"Ġconfianza":3575,"Ġveh":3576,"Ġsindica":3577,"mbi":3578,"ĠHer":3579,"Ġventa":3580,"iere":3581,"II":3582,"talia":3583,"tt":3584,"Ġtraslad":3585,"teras":3586,"Ġtengo":3587,"Ġinmig":3588,"ĠexplicÃ³":3589,"Ġacudi":3590,"Ġahor":3591,"estruc":3592,"Ġnie":3593,"Ġaumento":3594,"ĠDespuÃ©s":3595,"ĠPartido":3596,"Ġgusta":3597,"Ġresponsabilidad":3598,"Ġdra":3599,"Ġajust":3600,"Ġpasada":3601,"ĠCasa":3602,"ÃŃculas":3603,"ler":3604,"Ġmadrile":3605,"ĠÃ¡rea":3606,"Ġentidad":3607,"uri":3608,"11":3609,"ĠObama":3610,"Ġimpu":3611,"onia":3612,"ĠCivil":3613,"ĠcientÃŃf":3614,"ĠTen":3615,"Ġelem":3616,"Ġdom":3617,"Ġdeclara":3618,"Ġjuicio":3619,"Ġconsejero":3620,"tarios":3621,"Las":3622,"ĠcreaciÃ³n":3623,"Ġvalenci":3624,"Ġadap":3625,"uencias":3626,"Ġpedir":3627,"Ġcrim":3628,"ĠHo":3629,"glÃ©s":3630,"Ġhubo":3631,"ĠAgu":3632,"Ġtriun":3633,"Ġsosten":3634,"Ġprobable":3635,"Ġsede":3636,"ucÃŃa":3637,"Ġmovimiento":3638,"Ġmantiene":3639,"ĠoperaciÃ³n":3640,"Ġido":3641,"ĠacciÃ³n":3642,"Ġtierra":3643,"Ġsiguiente":3644,"dra":3645,"ps":3646,"Ġ29":3647,"rin":3648,"ĠtÃŃtulo":3649,"Ġfamos":3650,"Ġdoble":3651,"Ġmensaje":3652,"âĢľ":3653,"ĠrÃ©gimen":3654,"onte":3655,"ĠdÃ©fici":3656,"inado":3657,"Ġrelaciones":3658,"ĠversiÃ³n":3659,"Ã¡genes":3660,"Ġdefien":3661,"Ġexpertos":3662,"Ġindustria":3663,"Ġprincipios":3664,"ĠmÃ¡ximo":3665,"Ġfuerzas":3666,"Ġreferencia":3667,"Ġzonas":3668,"Ġtexto":3669,"Ġ196":3670,"Ġaire":3671,"Ġep":3672,"tÃ³n":3673,"ÃŃos":3674,"ime":3675,"dimiento":3676,"ĠcaÃŃda":3677,"Ġcontac":3678,"ĠAc":3679,"Ġsober":3680,"Ġadop":3681,"ĠSevilla":3682,"Ġdemanda":3683,"ĠatrÃ¡s":3684,"Ġenferme":3685,"Ã©nero":3686,"Ġplata":3687,"Ġmismos":3688,"Ġestuvo":3689,"Ġentrar":3690,"ĠVen":3691,"atu":3692,"vaciÃ³n":3693,"ĠDurante":3694,"ĠAdministraciÃ³n":3695,"cesiÃ³n":3696,"Ġdecisiones":3697,"ĠquedÃ³":3698,"Ġpropon":3699,"ciaciones":3700,"Ġ70":3701,"ĠdÃ©cada":3702,"bajo":3703,"Ġvictoria":3704,"ĠexposiciÃ³n":3705,"ota":3706,"ĠÃ³r":3707,"Ġasunto":3708,"Ġperdido":3709,"Ãºblica":3710,"obiernos":3711,"Ã¡logo":3712,"ĠDan":3713,"Ã³nde":3714,"ÃŃculos":3715,"desa":3716,"ĠPla":3717,"Ġit":3718,"Ġconflicto":3719,"Ġprome":3720,"Ġvive":3721,"are":3722,"tismo":3723,"Ġmercados":3724,"Ġoportunidad":3725,"Ġcome":3726,"ĠAndalucÃŃa":3727,"ĠDeportes":3728,"Ġileg":3729,"Ġbom":3730,"udo":3731,"Ġintereses":3732,"Ġestad":3733,"bur":3734,"Ġenorme":3735,"Ġrefug":3736,"Ġperten":3737,"Ġcifra":3738,"Ġdura":3739,"anes":3740,"Lo":3741,"ĠVic":3742,"icciÃ³n":3743,"ear":3744,"Ġimagin":3745,"Ġpartes":3746,"ĠimÃ¡genes":3747,"Ġcalles":3748,"ĠBol":3749,"Ġiniciativa":3750,"Ġentorno":3751,"Me":3752,"Ġgasto":3753,"Ġenfrent":3754,"Ġestudios":3755,"Ġdescub":3756,"Ġperiodo":3757,"rac":3758,"Ġpermitir":3759,"Ġreno":3760,"Ġhotel":3761,"Ġimpuls":3762,"ieza":3763,"ĠItalia":3764,"mano":3765,"ibles":3766,"Ġartistas":3767,"Ġmater":3768,"ĠHoy":3769,"Ġcomis":3770,"dar":3771,"ĠcÃ¡rcel":3772,"Ġconsumo":3773,"ĠSocial":3774,"partamento":3775,"ismos":3776,"Ġpleno":3777,"Ġhabitantes":3778,"onso":3779,"Ġindependen":3780,"arrador":3781,"dentes":3782,"Ġinforma":3783,"Ġaz":3784,"Ġcoste":3785,"ĠdÃ©ficit":3786,"tina":3787,"Ġsustitu":3788,"Ġoper":3789,"Ġcantidad":3790,"Ġinmedia":3791,"ĠniÃ±o":3792,"ĠJohn":3793,"Ġacog":3794,"Ġpresente":3795,"Ġcrea":3796,"Ġhumanos":3797,"ĠLondres":3798,"Ġdol":3799,"ĠInterna":3800,"epres":3801,"omo":3802,"Ġaten":3803,"deral":3804,"Ġvisita":3805,"Ġind":3806,"Ġverda":3807,"ome":3808,"Ġbancos":3809,"Ġentidades":3810,"Ġcompra":3811,"Ġpareja":3812,"Ġfirma":3813,"tista":3814,"ivas":3815,"jan":3816,"ĠPal":3817,"Ġfer":3818,"Ġpun":3819,"isis":3820,"Ġejercicio":3821,"cionados":3822,"Ġnum":3823,"Ġelev":3824,"Ġpros":3825,"Ġpis":3826,"tiendo":3827,"ry":3828,"tarÃ¡":3829,"cenas":3830,"Ġimportan":3831,"ĠFin":3832,"Ġtitular":3833,"Ġpudo":3834,"IB":3835,"ĠparticipaciÃ³n":3836,"Ġsala":3837,"ĠPorque":3838,"usa":3839,"ĠempezÃ³":3840,"tum":3841,"Ġpersonajes":3842,"raciones":3843,"terÃŃa":3844,"Ġproteg":3845,"Ġpatr":3846,"Ġmem":3847,"ĠBil":3848,"Ġofrece":3849,"Ġeuropeos":3850,"Ġfrances":3851,"Ġcoche":3852,"Ġmez":3853,"ĠLat":3854,"ĠEse":3855,"Ġescritor":3856,"Ġparo":3857,"Ġid":3858,"Ġcoinci":3859,"Ġcurso":3860,"ith":3861,"Hay":3862,"ĠfrancÃ©s":3863,"Ġresponsables":3864,"Ġpuso":3865,"Ġ2017":3866,"ĠperiÃ³":3867,"erte":3868,"Ġproces":3869,"Ġagr":3870,"telig":3871,"ĠAlgun":3872,"cienda":3873,"Ġcapaz":3874,"ĠRafa":3875,"Al":3876,"lecciÃ³n":3877,"Ġindivid":3878,"Ġentrevista":3879,"erva":3880,"Ġindependencia":3881,"gados":3882,"Ġpalabra":3883,"Ġprueba":3884,"Ġmodi":3885,"dÃ³":3886,"Ġaquella":3887,"Ġusu":3888,"Ġcirc":3889,"Ġestilo":3890,"ĠsoluciÃ³n":3891,"Ġpoten":3892,"Ġclientes":3893,"uiÃ³":3894,"Ġsubra":3895,"Ġprecisamente":3896,"Ġactividades":3897,"ĠUnido":3898,"Ġprimeras":3899,"Ġmenores":3900,"Ġnega":3901,"Ġarran":3902,"Ġlegisla":3903,"ĠEsto":3904,"Ġsomos":3905,"ĠcrÃ©di":3906,"ÃŃsticas":3907,"Ġhija":3908,"Ġaudi":3909,"Ġfre":3910,"ER":3911,"Ġmonta":3912,"quÃ©":3913,"Ġweb":3914,"gencia":3915,"Ġarri":3916,"Ġacciones":3917,"Ġtransfor":3918,"ĠSanta":3919,"ĠON":3920,"ferencia":3921,"bamos":3922,"Ġrecibir":3923,"Ã¡lisis":3924,"Ġcoloc":3925,"cientes":3926,"bran":3927,"Ġlig":3928,"ajas":3929,"Ġcultural":3930,"Ġvoto":3931,"Ġsimple":3932,"Ġbur":3933,"ĠEsa":3934,"200":3935,"Ġacum":3936,"Ġcuadr":3937,"Ġpresidenta":3938,"Ġconcep":3939,"idar":3940,"Ġsuelo":3941,"adoras":3942,"Ġpone":3943,"Ġjornada":3944,"Ġtorno":3945,"ĠpequeÃ±a":3946,"ĠinglÃ©s":3947,"ĠConstituciÃ³n":3948,"Ġconduc":3949,"cter":3950,"ĠReino":3951,"ticos":3952,"Ġcomplic":3953,"Ġrepe":3954,"Ġfecha":3955,"ĠLiga":3956,"Ġrepresenta":3957,"ĠespectÃ¡":3958,"ĠpresiÃ³n":3959,"Ġquin":3960,"Ġdespe":3961,"Ġdicen":3962,"Ġfab":3963,"Ġdeleg":3964,"Ġ35":3965,"Ġdefen":3966,"Ġllama":3967,"Ġrecup":3968,"Ġeuropea":3969,"Ġenvi":3970,"Ġimposible":3971,"ington":3972,"Ġpolici":3973,"Ġpantal":3974,"ty":3975,"ĠtÃ©cnico":3976,"Ġimpacto":3977,"Ġintegr":3978,"De":3979,"Ġpuedan":3980,"hu":3981,"Ġpobre":3982,"ww":3983,"ĠÃŃn":3984,"Ġabierto":3985,"del":3986,"ĠanunciÃ³":3987,"Ġarro":3988,"han":3989,"ĠValenci":3990,"ĠMad":3991,"ĠbÃ¡s":3992,"Ġcontrato":3993,"ĠUno":3994,"Ġtercera":3995,"uerto":3996,"ĠDÃŃa":3997,"Ġmec":3998,"Ġinternacionales":3999,"ju":4000,"ĠestÃ©":4001,"ĠArgentina":4002,"pres":4003,"ĠselecciÃ³n":4004,"menta":4005,"Ġconci":4006,"tino":4007,"Ġcomunicado":4008,"reas":4009,"tizar":4010,"Ġsuerte":4011,"ĠhacÃŃa":4012,"ĠHe":4013,"Ġrit":4014,"Ġoferta":4015,"Ġescrito":4016,"ĠNarrador":4017,"ĠAb":4018,"ins":4019,"ĠVer":4020,"torial":4021,"ĠfunciÃ³n":4022,"Ġcub":4023,"ye":4024,"olÃ³gico":4025,"ĠAudi":4026,"Ġresist":4027,"Ġequiv":4028,"Ġcaracter":4029,"aro":4030,"Ġvalores":4031,"dÃŃan":4032,"ĠOs":4033,"ĠenseÃ±":4034,"Ġagra":4035,"frica":4036,"Ġpeso":4037,"ĠMos":4038,"Ġhuel":4039,"Ġadelante":4040,"ĠprisiÃ³n":4041,"ĠZa":4042,"Ġefectos":4043,"500":4044,"Ġdisc":4045,"Ġmesa":4046,"ĠJusticia":4047,"ĠdecidiÃ³":4048,"ĠBal":4049,"Ġcircun":4050,"Ġbusc":4051,"dios":4052,"Ġbueno":4053,"rael":4054,"drÃ¡":4055,"tig":4056,"Ġemb":4057,"Ã©l":4058,"Ġpago":4059,"Ġlimp":4060,"Ġcomprome":4061,"ĠtelÃ©f":4062,"yos":4063,"ĠHacienda":4064,"ĠtenÃŃan":4065,"Ġprofesionales":4066,"Ġcita":4067,"iares":4068,"Ġsoy":4069,"ĠCiudadanos":4070,"Ġsosp":4071,"ĠInstituto":4072,"Ġterritorio":4073,"rer":4074,"CE":4075,"ĠpelÃŃculas":4076,"Ġsust":4077,"ĠXX":4078,"ĠÃī":4079,"Ġllegada":4080,"Ġmovil":4081,"Ġreca":4082,"Ġmediante":4083,"Ġacabar":4084,"Ġpaz":4085,"zada":4086,"Ġbastante":4087,"Ġideas":4088,"Ġnuestras":4089,"ĠserÃ¡n":4090,"ate":4091,"Ġconcej":4092,"ĠEm":4093,"aya":4094,"Ġperiodista":4095,"Ġrecibido":4096,"arla":4097,"Ġrepro":4098,"Ġhon":4099,"quer":4100,"Ġvicepres":4101,"Ã¡cter":4102,"Ġpresupuesto":4103,"ĠllevÃ³":4104,"ĠAnd":4105,"Ġcadena":4106,");":4107,"ster":4108,"Ġpremio":4109,"Ġconocido":4110,"ĠcomisiÃ³n":4111,"ĠocasiÃ³n":4112,"Ġimpuestos":4113,"Ġust":4114,"Ġalrededor":4115,"Ġcumplir":4116,"Ġadmi":4117,"cular":4118,"Ġsepar":4119,"Ġbatal":4120,"ĠcomenzÃ³":4121,"Ġexperim":4122,"ĠLey":4123,"Ã³p":4124,"Ġmejorar":4125,"ensiÃ³n":4126,"Ġdenuncia":4127,"Ġindustri":4128,"ĠautÃ³n":4129,"Ġcifras":4130,"Ġamar":4131,"Ġintens":4132,"Ġataque":4133,"ĠFel":4134,"tienen":4135,"Ġrenta":4136,"Ġolvid":4137,"icaciones":4138,"ĠMal":4139,"Ġras":4140,"Ġagres":4141,"ribe":4142,"Ġhas":4143,"ĠcarÃ¡cter":4144,"Ġentra":4145,"Ġprohi":4146,"Ġpropuestas":4147,"ÃŃsimo":4148,"Ġpacto":4149,"Ġ90":4150,"Ġcic":4151,"Ġandalu":4152,"Ġrecortes":4153,"ĠAlf":4154,"ĠÃ¡mbi":4155,"ĠdeclaraciÃ³n":4156,"Ġtemas":4157,"Ġsuperior":4158,"Ġps":4159,"Ġmargen":4160,"quez":4161,"ĠquerÃŃa":4162,"Ġeta":4163,"Ġce":4164,"ĠintenciÃ³n":4165,"Ġglobal":4166,"ĠpolÃ©m":4167,"Ġaus":4168,"ĠCentro":4169,"Ġcoordin":4170,"ĠJunta":4171,"Ġcerc":4172,"ĠMariano":4173,"Ġvivienda":4174,"rito":4175,"ecuencias":4176,"Ġprior":4177,"iles":4178,"Ġpase":4179,"Ġurban":4180,"ĠgÃ©nero":4181,"ĠAna":4182,"Ġincorpor":4183,"Ġhabitual":4184,"brar":4185,"Ġpresentar":4186,"ull":4187,"atoria":4188,"Ġmemoria":4189,"Ġintelig":4190,"âĢĵ":4191,"itor":4192,"Ġcatalana":4193,"Ġalumnos":4194,"Ã§a":4195,"Ã©st":4196,"Ġpersonaje":4197,"usos":4198,"Ġpropor":4199,"ĠgeneraciÃ³n":4200,"ĠGalicia":4201,"ÃŃdo":4202,"Ġrepublic":4203,"Con":4204,"rag":4205,"Ġsilen":4206,"Ġpropios":4207,"ĠAlberto":4208,"ĠHace":4209,"Ġescena":4210,"Ġcuarto":4211,"Ġhicieron":4212,"Ġdibu":4213,"Ġconsecuencias":4214,"ĠpodrÃŃan":4215,"Ġacce":4216,"idor":4217,"quÃŃa":4218,"ator":4219,"como":4220,"Ġadelan":4221,"tÃŃa":4222,"Ġsencil":4223,"ĠcompaÃ±eros":4224,"Ġmoda":4225,"ste":4226,"CÃ³mo":4227,"tales":4228,"ivin":4229,"inaciÃ³n":4230,"Ġintro":4231,"Ġbienes":4232,"Ġpruebas":4233,"undaciÃ³n":4234,"Ġexterior":4235,"Ġpop":4236,"ĠintervenciÃ³n":4237,"ses":4238,"Ġrema":4239,"ĠPaÃŃs":4240,"Ġpuestos":4241,"Ġprevisto":4242,"ĠPala":4243,"leo":4244,"ĠacabÃ³":4245,"ĠactuaciÃ³n":4246,"Ġdeclaraciones":4247,"Ġllamado":4248,"ĠjurÃŃ":4249,"2018":4250,"ĠdetrÃ¡s":4251,"ĠPrim":4252,"Ġinform":4253,"Ġbanco":4254,"Ġcompromiso":4255,"Un":4256,"rieron":4257,"atorio":4258,"ecciÃ³n":4259,"ĠdecÃŃa":4260,"Ġdebido":4261,"ĠGuerra":4262,"ciar":4263,"Ġreconoc":4264,"Ġdelante":4265,"erse":4266,"Ġimportancia":4267,"Ġreconoce":4268,"deraciÃ³n":4269,"Ġemerg":4270,"Ġfamiliar":4271,"ĠTodos":4272,"Ġmone":4273,"Ġorg":4274,"Ġinfra":4275,"ĠMich":4276,"tif":4277,"Ġinau":4278,"trÃ³":4279,"ĠGa":4280,"15":4281,"Ġav":4282,"itÃ³":4283,"Ġfracas":4284,"Ġvamos":4285,"Ã¡ticas":4286,"ĠMes":4287,"Ġlugares":4288,"Ġequipos":4289,"ood":4290,"Ġderi":4291,"ĠpidiÃ³":4292,"Ġconoce":4293,"Ġcritic":4294,"ĠopciÃ³n":4295,"ense":4296,"Ġmala":4297,"ĠMartÃŃnez":4298,"gran":4299,"rad":4300,"Ġtenga":4301,"ificar":4302,"Ġamigo":4303,"ĠRec":4304,"Ġempleados":4305,"bili":4306,"itarios":4307,"ĠFis":4308,"wn":4309,"Ġapre":4310,"ĠOl":4311,"ĠRafael":4312,"adal":4313,"usk":4314,"Ġincluye":4315,"ĠBel":4316,"Ġeuropeo":4317,"Ġmunicipales":4318,"Ġdesta":4319,"ĠSÃŃ":4320,"Ġcargos":4321,"ĠtrÃ¡fico":4322,"Ġdiv":4323,"tida":4324,"Ġrazones":4325,"Ġdefens":4326,"ĠpequeÃ±os":4327,"Ġestoy":4328,"Ġescuela":4329,"orta":4330,"Ġseguro":4331,"Ġpronto":4332,"Ġaler":4333,"capa":4334,"Ġtratar":4335,"Ġfinalmente":4336,"Ġano":4337,"iaciÃ³n":4338,"itÃ©":4339,"anda":4340,"Ġdue":4341,"Ġdecidir":4342,"Ġprofesional":4343,"osos":4344,"ĠcuÃ¡n":4345,"Ġdecre":4346,"Ġfestival":4347,"yas":4348,"Ġincon":4349,"Ġlegal":4350,"Ġllamada":4351,"ĠPIB":4352,"Ġparlament":4353,"ajo":4354,"Ġdetec":4355,"Ġdelito":4356,"Ġvoluntad":4357,"amble":4358,"Ġnota":4359,"ĠAz":4360,"ĠenergÃŃa":4361,"riendo":4362,"pado":4363,"ume":4364,"ĠSeguridad":4365,"ĠpodrÃ¡":4366,"Ġreivin":4367,"ĠlÃŃderes":4368,"Ġofrecer":4369,"Ġesfuerzo":4370,"Ġadecu":4371,"Ġmaes":4372,"brado":4373,"Â¡":4374,"jÃ©r":4375,"rue":4376,"manos":4377,"ticamente":4378,"riente":4379,"Ġnegro":4380,"Ġcarta":4381,"ham":4382,"alizado":4383,"Ġ31":4384,"Ġbre":4385,"Ġojos":4386,"Ġdispu":4387,"bio":4388,"duca":4389,"ĠprotecciÃ³n":4390,"Ġayudas":4391,"ĠJes":4392,"Ġ2006":4393,"Ġcenten":4394,"plic":4395,"Ġtes":4396,"Ġobserv":4397,"ices":4398,"Ġdestru":4399,"Ġregional":4400,"dado":4401,"ĠRusia":4402,"ibilidad":4403,"ĠPen":4404,"Ġsacar":4405,"Ġ|":4406,"Ġnumeros":4407,"Ġconstruir":4408,"Ġwith":4409,"ĠDer":4410,"Ġlograr":4411,"Ġdistintos":4412,"pes":4413,"AR":4414,"ulas":4415,"Ġocul":4416,"Ġalma":4417,"Ġnar":4418,"ĠBrus":4419,"Ã©ctr":4420,"Ġagen":4421,"ĠTele":4422,"Ġgalle":4423,"Ġdefender":4424,"ienen":4425,"Ġintentar":4426,"Ġcampe":4427,"iver":4428,"ĠGra":4429,"tisf":4430,"Ġritmo":4431,"Ġafron":4432,"Ġaero":4433,"ribuy":4434,"Ġretra":4435,"ĠColom":4436,"Ġeconom":4437,"Ġescol":4438,"jera":4439,"ĠRom":4440,"tuales":4441,"Ġtren":4442,"Ġbro":4443,"ĠInternacional":4444,"Ġconseguido":4445,"ĠCamp":4446,"Ġfras":4447,"ashington":4448,"Ġexplo":4449,"ĠSupre":4450,"ipe":4451,"laciones":4452,"ĠquizÃ¡":4453,"Ġcora":4454,"teles":4455,"Ġfamiliares":4456,"Ġdefiende":4457,"ĠSte":4458,"Ġinicio":4459,"ĠEra":4460,"Ġsostiene":4461,"Ġlarga":4462,"Ġcorre":4463,"Ġavis":4464,"Ġalcanzar":4465,"ĠrecuperaciÃ³n":4466,"Ġpodido":4467,"Ġdim":4468,"encial":4469,"Ġpreci":4470,"Ġparque":4471,"Ġfas":4472,"olÃ³gica":4473,"teca":4474,"gÃ¼":4475,"tiago":4476,"col":4477,"Ġviviendas":4478,"tieron":4479,"ĠSigue":4480,"ayo":4481,"Ġjusto":4482,"Ġdistintas":4483,"ĠVenez":4484,"ates":4485,"Ġdecidido":4486,"Ġpena":4487,"eran":4488,"Ġingen":4489,"Ġrecuperar":4490,"Ġterreno":4491,"Ġalar":4492,"Ġjugador":4493,"eor":4494,"ĠrecibiÃ³":4495,"ĠBruselas":4496,"ES":4497,"Ġdocumento":4498,"Ġidentific":4499,"ardi":4500,"Ġrode":4501,"iera":4502,"ĠDos":4503,"Ġpeligros":4504,"ley":4505,"Ġwh":4506,"Ġbra":4507,"Ġpremi":4508,"ĠDipu":4509,"ĠtecnologÃŃa":4510,"Ġpretende":4511,"ĠpresentÃ³":4512,"ĠAu":4513,"ĠafirmÃ³":4514,"diz":4515,"Ġimpon":4516,"ecinos":4517,"Ġcolor":4518,"ristas":4519,"Ġves":4520,"Ġtrabajos":4521,"Ġreflex":4522,"Ġreformas":4523,"Ġpul":4524,"ĠWashington":4525,"abel":4526,"tiende":4527,"AS":4528,"Ġfiesta":4529,"Ġespec":4530,"cla":4531,"ĠanÃ¡lisis":4532,"Ġinflu":4533,"ĠdÃ³nde":4534,"ĠprÃ¡ctica":4535,"ph":4536,"Ġpide":4537,"Ġrealizar":4538,"Ġcasas":4539,"ĠHu":4540,"Ġprogramas":4541,"ĠCru":4542,"Ġsimilar":4543,"tarÃŃa":4544,"Ġespecie":4545,"Ġveloci":4546,"Ġsalv":4547,"Ġbloque":4548,"Ã³rm":4549,"ĠcompaÃ±ÃŃas":4550,"Ġdiputados":4551,"rÃŃa":4552,"Ġdirigentes":4553,"Ġgastos":4554,"Ġdesen":4555,"ĠFundaciÃ³n":4556,"jÃ©rcito":4557,"Ġincluy":4558,"ĠSil":4559,"06":4560,"Ġ300":4561,"Ġperiodistas":4562,"nidad":4563,"Ġporcent":4564,"ht":4565,"Ġquedado":4566,"ĠEr":4567,"cidos":4568,"ded":4569,"Ġproducto":4570,"Ġfutbol":4571,"Ġurb":4572,"Ġrecog":4573,"Ġmotivo":4574,"ĠSuper":4575,"Ġextraordin":4576,"Ġesperar":4577,"ĠVenezuela":4578,"Ġespacios":4579,"resa":4580,"fin":4581,"enos":4582,"ĠcrÃŃticas":4583,"Ġpuertas":4584,"Ġblanco":4585,"ted":4586,"Ġdro":4587,"Ġexclus":4588,"Ã©ndum":4589,"Ġelectr":4590,"Ġvio":4591,"ctor":4592,"ĠPat":4593,"Ġdor":4594,"vel":4595,"ĠEconomÃŃa":4596,"ĠSantiago":4597,"mpleo":4598,"ĠreducciÃ³n":4599,"ĠAtl":4600,"Ġmagist":4601,"Ġpopulares":4602,"ĠMil":4603,"Ġbeb":4604,"san":4605,"ĠETA":4606,"uestra":4607,"ĠVecinos":4608,"Ġfen":4609,"Ġdiferente":4610,"Ġfan":4611,"ĠvÃŃdeo":4612,"ack":4613,"Ġenter":4614,"Ġconsecuencia":4615,"umen":4616,"llas":4617,"Ġinmo":4618,"Ġeduca":4619,"Ġcolectivo":4620,"ĠJun":4621,"Ġviajes":4622,"Ġisla":4623,"Ġdirecto":4624,"Ġprima":4625,"ultades":4626,"Ġtradicional":4627,"Ġpresidencia":4628,"tedr":4629,"Ġcontratos":4630,"Ġanteriores":4631,"ĠEnrique":4632,"Ġimplic":4633,"Ġmiembro":4634,"Ġrebaj":4635,"Ġarmas":4636,"ish":4637,"Ġamenaza":4638,"edores":4639,"uesto":4640,"onda":4641,"Ġdistribu":4642,"cida":4643,"ĠvolviÃ³":4644,"ĠreferÃ©ndum":4645,"ramos":4646,"Ġdirectamente":4647,"Ġcircunst":4648,"Ġinfan":4649,"Ġrue":4650,"Ġllevado":4651,"anzas":4652,"Ġhuman":4653,"Ġdiputado":4654,"pÃ³":4655,"Ġcarre":4656,"iedad":4657,"didos":4658,"Ġdelitos":4659,"Ġtasa":4660,"ondo":4661,"Ġprefer":4662,"Ġidentidad":4663,"ĠBor":4664,"Ġalquil":4665,"Ġment":4666,"Ġambas":4667,"ificado":4668,"Ġanal":4669,"Ġintent":4670,"Ġses":4671,"Ġabogado":4672,"Ġselec":4673,"zaron":4674,"ĠPolicÃŃa":4675,"ifor":4676,"Ġdestino":4677,"Ġpresenta":4678,"ĠlogrÃ³":4679,"Ġexpe":4680,"Ġlogrado":4681,"40":4682,"igual":4683,"Ġmateria":4684,"fas":4685,"lvar":4686,"ĠconvirtiÃ³":4687,"ĠDirec":4688,"ĠPopular":4689,"ĠDu":4690,"Ġcentr":4691,"Ġcomida":4692,"Ġbeneficios":4693,"Ġambiente":4694,"don":4695,"etas":4696,"Ġobjetivos":4697,"aliza":4698,"ĠespaÃ±olas":4699,"ega":4700,"ĠbalÃ³n":4701,"Ġfrecu":4702,"ural":4703,"izada":4704,"Ġgig":4705,"Ġavent":4706,"Ġprogres":4707,"fÃŃa":4708,"18":4709,"ĠEmp":4710,"Ġfundamental":4711,"Ġcomprar":4712,"su":4713,"ĠBarÃ§a":4714,"adi":4715,"Ġsectores":4716,"Ġdur":4717,"Ġplanes":4718,"Ġbru":4719,"Ġprivado":4720,"-,":4721,"drÃŃa":4722,"Ġllevan":4723,"ĠTur":4724,"ciona":4725,"ĠAntes":4726,"sen":4727,"Ġbras":4728,"VA":4729,"Ã³mez":4730,"Ġlengu":4731,"ĠPatio":4732,"Ġencontra":4733,"Ġocurre":4734,"ĠcorazÃ³n":4735,"Ġsufr":4736,"ĠganÃ³":4737,"Ġmulti":4738,"Ġpeligro":4739,"ĠaplicaciÃ³n":4740,"ker":4741,"Ġtantos":4742,"Ġza":4743,"ĠER":4744,"cate":4745,"Ġempezar":4746,"Ġwas":4747,"Ġsindicatos":4748,"ela":4749,"Ġventas":4750,"Ġexplicar":4751,"emen":4752,"ĠPuig":4753,"ĠGuardia":4754,"Ġsuma":4755,"Ġayudar":4756,"arial":4757,"ĠLle":4758,"Ġapos":4759,"Ġnoticia":4760,"Ġconsol":4761,"ĠespectÃ¡culo":4762,"Ġdudas":4763,"Ġprotagonista":4764,"edades":4765,"ĠAso":4766,"rom":4767,"ĠdiÃ¡logo":4768,"regular":4769,"ĠinstituciÃ³n":4770,"piraciÃ³n":4771,"ĠJorge":4772,"Ġdec":4773,"mitir":4774,"ĠDa":4775,"ĠDÃŃaz":4776,"ĠÃģlvar":4777,"Ġarm":4778,"Ġactriz":4779,"olesc":4780,"ĠJe":4781,"Ġmaterial":4782,"Ġdirectora":4783,"Ġquedan":4784,"tistas":4785,"Ġobstante":4786,"Ã³nico":4787,"Ġenv":4788,"Ġcierre":4789,"Ġby":4790,"Ġfinanciera":4791,"Ġescuch":4792,"Ã©ndose":4793,"ĠSupremo":4794,"Cuando":4795,"ĠSobre":4796,"viera":4797,"ĠelÃ©ctr":4798,"Ġinno":4799,"ĠCab":4800,"Ġetapa":4801,"Ġcuesti":4802,"Ġmuseo":4803,"Ġactores":4804,"Ġcelebra":4805,"Ġapuesta":4806,"Ġencuentran":4807,"uelas":4808,"Ġvincul":4809,"ĠRep":4810,"Ġentrenador":4811,"Ġsuele":4812,"usiones":4813,"Ġvelocidad":4814,"Ġrespeto":4815,"Ġparticipar":4816,"Ġempren":4817,"Ġexcep":4818,"IS":4819,"Ġestudiantes":4820,"Ġrepresentantes":4821,"ulado":4822,"Ġbatalla":4823,"Ġpiezas":4824,"ks":4825,"ive":4826,"Ġfiscales":4827,"ĠÃ¡r":4828,"Ġsexual":4829,"orÃ¡n":4830,"Ġcatalanes":4831,"Ġhis":4832,"Ġposibles":4833,"ĠHar":4834,"Ġresolver":4835,"Ġsatisf":4836,"ĠmÃŃnimo":4837,"Ġrevista":4838,"duce":4839,"Ġretras":4840,"ĠhistÃ³rico":4841,"Ġadjud":4842,"ĠsensaciÃ³n":4843,"ĠSch":4844,"ĠtelÃ©fono":4845,"Ġcierta":4846,"Ġtrim":4847,"Ġinicial":4848,"Ġpreguntas":4849,"izÃ¡s":4850,"Ġcompeti":4851,"adÃ¡":4852,"Ġganado":4853,"ĠvisiÃ³n":4854,"Ġcriter":4855,"tri":4856,"Ġfuego":4857,"Ã³logo":4858,"Ġ45":4859,"Ġvender":4860,"ĠTa":4861,"Ġaerop":4862,"ont":4863,"Ġvuelve":4864,"Ġinvestiga":4865,"ĠTran":4866,"Ġhogar":4867,"ĠCÃ¡mara":4868,"Ġnegocios":4869,"Ġhacerse":4870,"cimientos":4871,"use":4872,"Ġcambiado":4873,"ĠCada":4874,"ĠJam":4875,"Ġpocas":4876,"ĠColombia":4877,"Ġfren":4878,"Ġmig":4879,"Ġdep":4880,"ĠBro":4881,"Ġusted":4882,"ĠPese":4883,"ĠInterior":4884,"Ġdolor":4885,"ĠSoci":4886,"ĠVill":4887,"ĠMat":4888,"Ġreligios":4889,"arca":4890,"ĠfÃ³rm":4891,"Ġregu":4892,"Ġbil":4893,"14":4894,"Ġescribir":4895,"Ġvari":4896,"Ġrespal":4897,"ĠmÃ©dico":4898,"versaciÃ³n":4899,"Ġespectadores":4900,"Ġempresarios":4901,"ĠJoan":4902,"Ġmilitares":4903,"ĠMancera":4904,"Ġja":4905,"Ġirregular":4906,"ĠcolaboraciÃ³n":4907,"Ġitaliano":4908,"ĠnegociaciÃ³n":4909,"amblea":4910,"VE":4911,"illos":4912,"ĠGÃ³mez":4913,"ĠPlan":4914,"Ġtranquil":4915,"ang":4916,"Yo":4917,"Ġentrega":4918,"Ġindica":4919,"Ġcantante":4920,"ĠalemÃ¡n":4921,"ĠfenÃ³m":4922,"ÃŃtica":4923,"ĠpÃ¡ginas":4924,"Ġconfor":4925,"Ġtipos":4926,"ĠIglesias":4927,"Ġinversiones":4928,"Ġgestion":4929,"teros":4930,"Ġerror":4931,"25":4932,"iales":4933,"ĠasociaciÃ³n":4934,"DE":4935,"Ġsilencio":4936,"berg":4937,"later":4938,"Ġescas":4939,"Ġ500":4940,"Ġrevel":4941,"Ġlic":4942,"ĠZapa":4943,"Ġliteratura":4944,"fes":4945,"Ġtem":4946,"Ġprivada":4947,"dÃ³n":4948,"ĠSen":4949,"Ġusuarios":4950,"Ġbrasile":4951,"Ġhumano":4952,"iento":4953,"quina":4954,"ĠTom":4955,"Ġvul":4956,"ĠBuen":4957,"NV":4958,"pir":4959,"ni":4960,"Ġlidera":4961,"ĠaÃ±adiÃ³":4962,"Ġmismas":4963,"Ġoperaciones":4964,"turales":4965,"ĠMc":4966,"Ġros":4967,"ĠTu":4968,"Ġdespa":4969,"Ġtransporte":4970,"Ġgana":4971,"Ġsitio":4972,"Ġfinanciero":4973,"Ġinfraestruc":4974,"Ġefica":4975,"Ġescon":4976,"To":4977,"Ġhabido":4978,"Ġprovincia":4979,"ĠtÃ©rminos":4980,"Ġexhi":4981,"Ġenten":4982,"Ġestren":4983,"Ġhipo":4984,"iencias":4985,"Ġcrist":4986,"Ġnaturaleza":4987,"Ġcandidatos":4988,"Ġmetro":4989,"Ġconvertirse":4990,"Ġmarco":4991,"ĠAudiencia":4992,"jerÃŃa":4993,"ĠPSC":4994,"Ġadver":4995,"ĠcrÃ©dito":4996,"Ġantiguo":4997,"Ġdestin":4998,"ĠMuseo":4999,"ĠValenciana":5000,"Ġfase":5001,"Ã³st":5002,"ĠmillÃ³n":5003,"ĠFiscal":5004,"Ġmusical":5005,"Ġcompetencia":5006,"tiza":5007,"vin":5008,"Ġadolesc":5009,"ĠTampoco":5010,"lÃŃn":5011,"ĠcondiciÃ³n":5012,"Ġpublicado":5013,"land":5014,"Ġencan":5015,"ere":5016,"cr":5017,"Ġescal":5018,"Ġnormal":5019,"Ġcorrec":5020,"manes":5021,"Ġconocimiento":5022,"Ġsale":5023,"Ġexistencia":5024,"Ġtribunal":5025,"Ġfuncionarios":5026,"Ġposibilidades":5027,"Ġinmigrantes":5028,"Ġarch":5029,"ame":5030,"ĠJordi":5031,"ĠsaliÃ³":5032,"Ġpedido":5033,"Ġniveles":5034,"ĠRepÃºblica":5035,"Ġviven":5036,"Ġformas":5037,"cÃ©":5038,"Ġazul":5039,"Ġestrella":5040,"ĠNic":5041,"Ġcatedr":5042,"pira":5043,"Ġmarc":5044,"Ġconsideran":5045,"Ġmane":5046,"Ġtray":5047,"menes":5048,"Ġfunda":5049,"estre":5050,"Ġ195":5051,"ĠDo":5052,"Ġbuenos":5053,"Ġgenerales":5054,"ĠÃģfrica":5055,"Ġbon":5056,"Ġaper":5057,"ĠpeticiÃ³n":5058,"Ġerr":5059,"ĠdeclarÃ³":5060,"Ġargent":5061,"ĠÃ¡mbito":5062,"Ġconcurso":5063,"Ġreto":5064,"Ġexpor":5065,"Ġtradu":5066,"ĠAlgunos":5067,"nia":5068,"Ġexisten":5069,"entaria":5070,"bras":5071,"Ġdesaf":5072,"Ġestructura":5073,"Ġcerrar":5074,"Ġautores":5075,"Ġameric":5076,"Ġtranspar":5077,"Ġduro":5078,"Ġton":5079,"Ġpresentado":5080,"visiones":5081,"Ġdiver":5082,"ĠRiv":5083,"Ġdificultades":5084,"Ġvuelto":5085,"Ġproduce":5086,"Ġconsulta":5087,"Ġtendencia":5088,"Ġaltura":5089,"Ġdesigual":5090,"ĠBu":5091,"zz":5092,"Ġequil":5093,"Ġimplica":5094,"pero":5095,"Ġub":5096,"ĠseÃ±alÃ³":5097,"ĠvÃŃctima":5098,"Ġleer":5099,"Ġsola":5100,"Ġabierta":5101,"Ġintento":5102,"ĠAp":5103,"Ġcateg":5104,"Ġfotos":5105,"ĠcrÃŃtica":5106,"Ġnombres":5107,"Ġhermano":5108,"Ġrey":5109,"Ġdestaca":5110,"Ġenfermedad":5111,"Ġesposa":5112,"Ã¡ndal":5113,"Ġacuerdos":5114,"Ġhayan":5115,"ariciÃ³n":5116,"bao":5117,"ĠBern":5118,"rÃ¡":5119,"ĠMac":5120,"esper":5121,"ĠJesÃºs":5122,"Ġexpresidente":5123,"Ġcontribu":5124,"ella":5125,"Ġdipl":5126,"Ġquiero":5127,"cluso":5128,"ĠEspaÃ±ol":5129,"jeron":5130,"Ġprofun":5131,"Ġfederal":5132,"uta":5133,"Ġinmobili":5134,"AN":5135,"ianos":5136,"ĠlÃŃneas":5137,"Ġcanciones":5138,"Ġmandato":5139,"Ġacos":5140,"Ġcocina":5141,"acer":5142,"deos":5143,"Ġul":5144,"Ġhumor":5145,"Ġanual":5146,"Ġcoop":5147,"Ġreserv":5148,"Ġconcierto":5149,"ĠFo":5150,"Ġrestaurante":5151,"Ġsospech":5152,"lie":5153,"Ġcosta":5154,"mites":5155,"aller":5156,"Ġqueremos":5157,"Ġorganizaciones":5158,"tiles":5159,"venciÃ³n":5160,"Ġrealmente":5161,"Ġbril":5162,"ĠpresentaciÃ³n":5163,"45":5164,"ĠprÃ³xima":5165,"Ġcompr":5166,"todo":5167,"ĠJosep":5168,"Ġleyes":5169,"uf":5170,"Ġcontes":5171,"Ġagencia":5172,"Ġpronunci":5173,"omos":5174,"13":5175,"ĠbritÃ¡nico":5176,"Ġvino":5177,"Ġsurg":5178,"ĠparecÃŃa":5179,"ĠeconÃ³micos":5180,"Ġine":5181,"Ġ36":5182,"Ġplataforma":5183,"ĠdiseÃ±o":5184,"Ġcomporta":5185,"ance":5186,"Ġ2005":5187,"Ġtrama":5188,"Ġepiso":5189,"ĠGrecia":5190,"Ġcoal":5191,"Ġconviv":5192,"Ġpobreza":5193,"ĠEducaciÃ³n":5194,"ĠDomin":5195,"ĠFelipe":5196,"Ġunidad":5197,"Ġmilit":5198,"ieran":5199,"irÃŃa":5200,"ĠprÃ¡cticamente":5201,"ĠpÃ©rdida":5202,"ĠMÃ¡":5203,"ĠperiÃ³dico":5204,"ĠBos":5205,"Ġenf":5206,"tÃ¡":5207,"Ġrepor":5208,"Ġlocalidad":5209,"Ġdistancia":5210,"atar":5211,"Ġlengua":5212,"vera":5213,"ane":5214,"ĠNos":5215,"Ġrival":5216,"Ġech":5217,"crip":5218,"int":5219,"Ġactivos":5220,"ĠcapÃŃt":5221,"Ġsuces":5222,"Ġtoma":5223,"ĠEstos":5224,"mir":5225,"Ġdesarroll":5226,"ĠelecciÃ³n":5227,"Ġvoy":5228,"Ġpuedo":5229,"Ġdenomin":5230,"ĠEuropeo":5231,"Ġconcepto":5232,"Ġparecen":5233,"Ġarras":5234,"Ġdebajo":5235,"Ġexcel":5236,"Ġdiscre":5237,"ges":5238,"mina":5239,"Ġsaben":5240,"16":5241,"ĠLor":5242,"Ġdigital":5243,"ĠPNV":5244,"llo":5245,"ĠDef":5246,"Ġactitud":5247,"ĠCultura":5248,"Ġdiri":5249,"laga":5250,"Ġinfl":5251,"ĠcÃ³":5252,"ĠexpresiÃ³n":5253,"ritu":5254,"ĠAsociaciÃ³n":5255,"rente":5256,"Ġprol":5257,"IC":5258,"Ġsocios":5259,"Ġacord":5260,"Ġmarido":5261,"tador":5262,"Ġperfil":5263,"Ġelementos":5264,"uegos":5265,"Ġevidente":5266,"nor":5267,"ĠPortu":5268,"Ġposterior":5269,"Ġare":5270,"Ġperci":5271,"Ġrebo":5272,"ĠnaciÃ³":5273,"olina":5274,"Ġcorto":5275,"Ġempresario":5276,"edor":5277,"Ġradio":5278,"rupo":5279,"Ġllegan":5280,"Ġafectados":5281,"ĠresoluciÃ³n":5282,"Ġhal":5283,"ĠlÃ³g":5284,"Ġfactura":5285,"Ġmotivos":5286,"ĠsueÃ±o":5287,"ĠSebas":5288,"Ġcoches":5289,"ĠSur":5290,"Ġrescate":5291,"Ġet":5292,"Ġhomen":5293,"asco":5294,"ĠeconÃ³micas":5295,"Ġalternativa":5296,"Ġorganismo":5297,"Ġcontexto":5298,"leta":5299,"Ġcontenido":5300,"tena":5301,"terrÃ¡n":5302,"Ġtrabajando":5303,"ĠcolecciÃ³n":5304,"ucle":5305,"Ġ32":5306,"ĠBre":5307,"ĠTrans":5308,"ĠFa":5309,"Ġmuertos":5310,"ĠZapatero":5311,"Ġtrabaja":5312,"Ġori":5313,"Ġllegaron":5314,"Ġguer":5315,"ĠâĢľÂ¿":5316,"timo":5317,"Ġacre":5318,"sas":5319,"Ġfabric":5320,"Ġpsic":5321,"ĠrÃ¡pido":5322,"Ġpenal":5323,"Ġintelec":5324,"Ġsuspen":5325,"Ãºsque":5326,"Ġclara":5327,"Ġrealizado":5328,"Ġnorteameric":5329,"Ġaparece":5330,"ientes":5331,"Ġfich":5332,"Ġrecordar":5333,"Ġpropiedad":5334,"Ġarre":5335,"Ġactos":5336,"ters":5337,"Ġpais":5338,"Ġhaga":5339,"ĠpodrÃ¡n":5340,"ĠJul":5341,"onald":5342,"Ġmejora":5343,"Ġanimales":5344,"ivamente":5345,"ĠRed":5346,"ĠAllÃŃ":5347,"Ġempieza":5348,"Ġmanifies":5349,"Ġcasti":5350,"tonces":5351,"Ġlanz":5352,"ĠestarÃ¡":5353,"Ã©rpre":5354,"ĠevoluciÃ³n":5355,"Ġcoment":5356,"Ġplena":5357,"Ġconsejo":5358,"ĠharÃ¡":5359,"Ġmirada":5360,"Ġfrontera":5361,"alaciones":5362,"Ġturismo":5363,"ĠSebasti":5364,"Ten":5365,"Ġoro":5366,"Ġirre":5367,"Ġindependiente":5368,"tible":5369,"Ġmecan":5370,"fÃ©":5371,"Ġtab":5372,"caba":5373,"Ġfunciones":5374,"Ġcere":5375,"ĠGas":5376,"ĠBilbao":5377,"ĠbÃºsque":5378,"Ġrecorrido":5379,"ĠCiU":5380,"Ġapla":5381,"ĠCopa":5382,"Ġdetalles":5383,"ÃŃp":5384,"Ġrequier":5385,"ĠÃ¡n":5386,"Ġdesf":5387,"Ġbuenas":5388,"Ġaumentar":5389,"Ġpilo":5390,"Ġeuropeas":5391,"onÃŃa":5392,"Ġaltos":5393,"Ġpasando":5394,"ecre":5395,"Ġabsoluta":5396,"17":5397,"Ġcompren":5398,"ĠescÃ¡ndal":5399,"Ġrenunci":5400,"22":5401,"ĠGobiernos":5402,"Ġclases":5403,"Ġatrac":5404,"ueve":5405,"oro":5406,"ĠCosta":5407,"kel":5408,"Ġsociedades":5409,"entemente":5410,"ĠEusk":5411,"ĠvehÃŃculos":5412,"uno":5413,"ĠmÃ©dicos":5414,"Ġcircu":5415,"ĠtradiciÃ³n":5416,"ĠSerg":5417,"Ġinstitucional":5418,"Ġmagn":5419,"sto":5420,"ĠseÃ±or":5421,"Ġ33":5422,"itud":5423,"Ġinversores":5424,"Ġaclar":5425,"ĠPan":5426,"Ġrelato":5427,"Ġrecurso":5428,"Ġesperanza":5429,"quie":5430,"Ġilust":5431,"Ġabor":5432,"Ġcreen":5433,"Ġedificios":5434,"ĠtÃŃtulos":5435,"Ġsome":5436,"Ġsubir":5437,"batir":5438,"ĠcÃ¡mara":5439,"Ġfar":5440,"iti":5441,"Ġimpuesto":5442,"itados":5443,"remos":5444,"Ġga":5445,"Ġplanta":5446,"ĠConstitucional":5447,"Ġago":5448,"ariamente":5449,"Ġpatrimonio":5450,"ierno":5451,"Ġperspec":5452,"Ġsuperar":5453,"Ġcliente":5454,"Ġincom":5455,"enten":5456,"Ġvar":5457,"Ġgoles":5458,"ĠSh":5459,"Ġvasco":5460,"Ġgrab":5461,"Ġinfer":5462,"Ġcontacto":5463,"Ġabord":5464,"ĠcontemporÃ¡n":5465,"Ġcuestiones":5466,"Una":5467,"ciertos":5468,"Ġestadounidenses":5469,"ĠraÃŃ":5470,"ĠMedi":5471,"Ġconcejal":5472,"Ġoriginal":5473,"Ġhistorias":5474,"Ġdesper":5475,"Pero":5476,"Ġjam":5477,"Ġobtener":5478,"Ġorgul":5479,"Ġtratamiento":5480,"Ġpropias":5481,"Ã±ado":5482,"Ġresiden":5483,"ĠMen":5484,"we":5485,"ĠcÃ¡n":5486,"Ġdecenas":5487,"ĠHern":5488,"Ġrespec":5489,"Ã¡bamos":5490,"Ġjueces":5491,"Ġnav":5492,"Ġmovimientos":5493,"Ġanunciado":5494,"Ġrestaur":5495,"oj":5496,"Ġantigua":5497,"Ãºan":5498,"Ġcreado":5499,"Ġafi":5500,"vante":5501,"irre":5502,"Ġ2004":5503,"ilio":5504,"Ġausencia":5505,"Ġjuzgado":5506,"ĠLeÃ³n":5507,"ĠcanciÃ³n":5508,"Ġmuerto":5509,"Ġquiso":5510,"Ġmunicipio":5511,"Ġcuesta":5512,"Ġoficiales":5513,"icante":5514,"ĠCristina":5515,"ĠJim":5516,"Ġpantalla":5517,"jeta":5518,"bes":5519,"deras":5520,"zgo":5521,"ĠFal":5522,"Ġsabemos":5523,"ÃŃfico":5524,"puestas":5525,"ĠpolÃ©mica":5526,"ĠOtro":5527,"Ġaseguran":5528,"Ġincremento":5529,"Ġestim":5530,"Ġfotograf":5531,"oz":5532,"Ġotor":5533,"Ġpuesta":5534,"ĠÃīl":5535,"ĠSam":5536,"ĠBur":5537,"tidos":5538,"Ġtex":5539,"ĠHum":5540,"ĠautÃ©n":5541,"ney":5542,"ĠAf":5543,"Ġprodujo":5544,"Ġofrec":5545,"Ġcomercio":5546,"ĠadministraciÃ³n":5547,"Ġdescan":5548,"Ġprotesta":5549,"Ġast":5550,"Ġpresupues":5551,"ĠLatina":5552,"king":5553,"Ġvotar":5554,"Ġreconocimiento":5555,"torios":5556,"ĠtendrÃ¡n":5557,"idado":5558,"Ġprac":5559,"Ġ400":5560,"ĠNorte":5561,"Ġhave":5562,"Ġproducir":5563,"Ġpolic":5564,"Ġvein":5565,"ĠMay":5566,"ĠIU":5567,"Ġtus":5568,"uncio":5569,"Ġprobablemente":5570,"Ġtengan":5571,"Ġfirm":5572,"Ġjuntos":5573,"Ġnacionales":5574,"ws":5575,"Ġtribun":5576,"Ġabre":5577,"Ġformar":5578,"Ġtrimestre":5579,"ĠAnte":5580,"ĠpÃ¡gina":5581,"09":5582,"ky":5583,"ombi":5584,"gro":5585,"inc":5586,"ini":5587,"ĠrÃŃo":5588,"Ġaccidente":5589,"Ġcau":5590,"Ġalcaldesa":5591,"Ġaj":5592,"ĠFuentes":5593,"Ġporcentaje":5594,"Ġcomunic":5595,"Ġacel":5596,"Ġcolegio":5597,"iores":5598,"Ġsit":5599,"ĠSalud":5600,"ĠIgna":5601,"Ġactuales":5602,"Ġger":5603,"ÃŃes":5604,"Ġ2018":5605,"ĠBus":5606,"Ġrevis":5607,"ilares":5608,"Ġnoticias":5609,"Ġgenera":5610,"Ġcaer":5611,"ĠtÃ©cnica":5612,"umbre":5613,"Ġ193":5614,"ĠmÃ¡xima":5615,"Ġconstante":5616,"Ġvigil":5617,"ĠBas":5618,"Ġcompon":5619,"Ġciencia":5620,"Ġgarantizar":5621,"Ġabst":5622,"Ġafecta":5623,"wood":5624,"ĠcoaliciÃ³n":5625,"Ġaspir":5626,"Ġincen":5627,"ĠMessi":5628,"Ġplaneta":5629,"05":5630,"ĠCruz":5631,"Ġfundad":5632,"ĠfenÃ³meno":5633,"rami":5634,"Ġinstalaciones":5635,"Ġdocumental":5636,"Ġactuar":5637,"Ġutilizar":5638,"ĠGol":5639,"Ġdrama":5640,"ket":5641,"itada":5642,"ficientes":5643,"Ġcostes":5644,"Ġproducido":5645,"ires":5646,"ĠbÃºsqueda":5647,"Ġmatrimonio":5648,"Ġsocio":5649,"tudes":5650,"Ġdando":5651,"ĠGab":5652,"Ġalguno":5653,"Ġtuvieron":5654,"Ġtribu":5655,"ĠXunta":5656,"len":5657,"Ġatre":5658,"ĠBlanca":5659,"Ġhomenaje":5660,"ĠChile":5661,"Ġasuntos":5662,"Ġexces":5663,"Ġprocl":5664,"Ġextranjeros":5665,"Ġpartida":5666,"Ġsirve":5667,"Ġopciones":5668,"cero":5669,"Ġvaca":5670,"Ġespal":5671,"Ġmic":5672,"ĠrevoluciÃ³n":5673,"Ġrefugiados":5674,"ĠespÃŃ":5675,"ĠSant":5676,"ĠAlonso":5677,"Ġacerca":5678,"ĠDaniel":5679,"Ġhel":5680,"bido":5681,"Ġnecesidades":5682,"Ġculpa":5683,"ĠperdiÃ³":5684,"biendo":5685,"Ġocurrido":5686,"Ġelegir":5687,"Ġdetenido":5688,"Ġcandidatura":5689,"Ġdepartamento":5690,"Ġinc":5691,"Ã¡fica":5692,"Ġmadru":5693,"Ġinvestigadores":5694,"ĠCastell":5695,"Ġinquie":5696,"Ã±ar":5697,"Ġropa":5698,"sion":5699,"eso":5700,"ĠCap":5701,"Ġescuchar":5702,"ĠIglesia":5703,"Ġtiendas":5704,"Ġhermanos":5705,"ĠEntonces":5706,"ĠAndr":5707,"ĠIgnacio":5708,"Ġoptim":5709,"Ġconvierte":5710,"ĠMur":5711,"Ġcamis":5712,"ÃŃsima":5713,"vill":5714,"Ġconstitucional":5715,"Ġvicepresidente":5716,"ĠGi":5717,"Ġnu":5718,"Ġsubida":5719,"Ġpasos":5720,"%)":5721,"ĠEjÃ©rcito":5722,"Ġdiferencias":5723,"Ġpref":5724,"Ġadministra":5725,"ee":5726,"Ġcompleto":5727,"teo":5728,"ĠGer":5729,"demia":5730,"ples":5731,"Ġfrancesa":5732,"ĠdebÃŃa":5733,"echos":5734,"Ġherrami":5735,"ĠAust":5736,"ĠCanal":5737,"Ġintensidad":5738,"Ġelegido":5739,"Ġrebel":5740,"ĠpequeÃ±as":5741,"ĠEstÃ¡":5742,"ĠreciÃ©n":5743,"Ġcrecer":5744,"Ġmexicano":5745,"tizaciÃ³n":5746,"tima":5747,"ĠciudadanÃŃa":5748,"ĠHan":5749,"Ġzapa":5750,"Ġfemen":5751,"Ġcuestion":5752,"Ġpele":5753,"ĠWill":5754,"Ġcontamin":5755,"ĠCuba":5756,"Ġdia":5757,"cambi":5758,"Ġsangre":5759,"Ġcuentan":5760,"Ġrestr":5761,"ĠSpa":5762,"ĠPortugal":5763,"In":5764,"Ġdiscu":5765,"GT":5766,"Ġigualdad":5767,"ximas":5768,"Ġenem":5769,"Ġconsist":5770,"ĠOtra":5771,"acciÃ³n":5772,"Ġfle":5773,"Ġanuncio":5774,"ĠVan":5775,"Ġtama":5776,"Ġasoci":5777,"ĠCentral":5778,"ĠMel":5779,"Ġsobreviv":5780,"Ġpartid":5781,"ĠacompaÃ±ado":5782,"uelta":5783,"uos":5784,"ĠAma":5785,"Ġllevaba":5786,"ĠIncluso":5787,"ĠAtlÃ©tico":5788,"ĠGeor":5789,"''":5790,"ĠFab":5791,"ĠMÃ¡laga":5792,"Ġestabilidad":5793,"Ġplaya":5794,"ĠtÃ©cnicos":5795,"ĠTal":5796,"ĠTorres":5797,"Ġdieron":5798,"Ġhuelga":5799,"Ġarriba":5800,"Ġobjeto":5801,"Ġfrase":5802,"ĠFiscalÃŃa":5803,"Ġapertura":5804,"ologÃŃas":5805,"Ġrein":5806,"esÃŃa":5807,"bierto":5808,"Ġfrom":5809,"MI":5810,"Ġplantilla":5811,"ĠLuego":5812,"Ġgira":5813,"ĠMedio":5814,"Ġtalento":5815,"atas":5816,"Ġreve":5817,"Ġadi":5818,"Ġemis":5819,"tencias":5820,"Ġparecer":5821,"Ġexac":5822,"Ġpolicial":5823,"ĠescribiÃ³":5824,"risa":5825,"Ġrig":5826,"Ġrelacion":5827,"Ġimpro":5828,"Ġceleb":5829,"ĠsabÃŃa":5830,"ĠReg":5831,"ĠrepresentaciÃ³n":5832,"yen":5833,"ĠconversaciÃ³n":5834,"ĠCÃ¡":5835,"cien":5836,"ĠAlicante":5837,"Ġempe":5838,"Ġconcreto":5839,"ĠabriÃ³":5840,"Ġincu":5841,"Ġcomplejo":5842,"Ġ&":5843,"ĠDis":5844,"Ġcuan":5845,"Ġdeporte":5846,"Ġcompa":5847,"ĠficciÃ³n":5848,"arte":5849,"Ġnegociaciones":5850,"ĠpolicÃŃas":5851,"ĠPi":5852,"Ġ2003":5853,"Ġasi":5854,"ĠcÃ¡l":5855,"Ġsuelen":5856,"Ġgraves":5857,"amo":5858,"ĠAquÃŃ":5859,"tÃ©g":5860,"Ġresponde":5861,"ON":5862,"Ġexige":5863,"Ġmara":5864,"cindi":5865,"Ġconcur":5866,"Ġprestig":5867,"ft":5868,"ĠcontinÃºa":5869,"rigo":5870,"Ġtono":5871,"Ġreper":5872,"ĠocurriÃ³":5873,"Ġnucle":5874,"ienda":5875,"Ġpista":5876,"osas":5877,"Ã±ez":5878,"Ġalquiler":5879,"Ġsuperfici":5880,"amento":5881,"Ġcausas":5882,"Ġdesem":5883,"ĠrecordÃ³":5884,"aturas":5885,"Ġaceptar":5886,"Ġadmite":5887,"Ġtelevis":5888,"Ġriesgos":5889,"Ġcircunstancias":5890,"Ġcaja":5891,"Ġtum":5892,"osotros":5893,"ĠOc":5894,"ĠIsrael":5895,"Ġestrellas":5896,"Ġopera":5897,"Ġrock":5898,"Ġdocumentos":5899,"Ġcuad":5900,"UP":5901,"Ġquerido":5902,"Ġautom":5903,"Ġaeropuerto":5904,"Ġfuente":5905,"Ġinaugur":5906,"Ġmoral":5907,"Ġpacientes":5908,"Ġencontrado":5909,"Ġdefinitiva":5910,"Ġprofesores":5911,"Ġbec":5912,"eles":5913,"Ġexpecta":5914,"Ġlider":5915,"Ġcapaces":5916,"Ġdisfrutar":5917,"Ġcuales":5918,"deros":5919,"Ġindustrial":5920,"Ġderrota":5921,"Ġinspir":5922,"Ġtienda":5923,"Ġvaya":5924,"Ġterrorismo":5925,"Ġdecreto":5926,"Ġreda":5927,"bul":5928,"Ġsituaciones":5929,"Ġflu":5930,"ĠAst":5931,"ĠII":5932,"Ġdesconoci":5933,"Ġlegislatura":5934,"ĠmostrÃ³":5935,"elos":5936,"Ġsistemas":5937,"ĠcÃ¡":5938,"Ġnormas":5939,"ĠfÃ³rmula":5940,"ĠespÃŃritu":5941,"ĠniÃ±a":5942,"Ġasumir":5943,"apÃ³n":5944,"ĠCastro":5945,"Ġocup":5946,"ĠTim":5947,"AC":5948,"iller":5949,"Ġaspectos":5950,"Ġturistas":5951,"Ġpieza":5952,"dados":5953,"Ġsimp":5954,"ure":5955,"Ġ34":5956,"OS":5957,"Ġencab":5958,"reras":5959,"ĠJames":5960,"Ã³sito":5961,"Ġesco":5962,"07":5963,"Ġdesarrollar":5964,"Ġcumple":5965,"Ġ+":5966,"Ġpotencial":5967,"Ġinfluencia":5968,"alizada":5969,"yn":5970,"pora":5971,"ĠlÃŃmite":5972,"Ġrefleja":5973,"ĠconsiguiÃ³":5974,"//":5975,"osiciones":5976,"Ġconcluye":5977,"Ġactuaciones":5978,"ificÃ³":5979,"hol":5980,"trol":5981,"Ġsiente":5982,"oya":5983,"ĠprevÃ©":5984,"Ġprotagonistas":5985,"Ġsufrido":5986,"taban":5987,"Ġtriunfo":5988,"ĠIr":5989,"Ġrecuerdo":5990,"adÃ©m":5991,"Ġsorpresa":5992,"Ġprece":5993,"Ġhol":5994,"izÃ³":5995,"Ġbeneficio":5996,"unya":5997,"Ġfunciona":5998,"Ġcomet":5999,"hora":6000,"Ġele":6001,"Ġgrado":6002,"Ġbanc":6003,"Ġfantas":6004,"://":6005,"ĠRivera":6006,"Ġsegura":6007,"Ġsalvo":6008,"Ġacceder":6009,"Ġcocin":6010,"Ġlament":6011,"ĠSebastiÃ¡n":6012,"ĠEstas":6013,"grÃŃa":6014,"metro":6015,"Ġhar":6016,"bieron":6017,"ĠConsell":6018,"ĠAgencia":6019,"Ġexpan":6020,"nar":6021,"Ġilegal":6022,"igu":6023,"amÃ©rica":6024,"Ġcomenta":6025,"uelos":6026,"Ġpobres":6027,"Ġembaj":6028,"ĠSiria":6029,"mÃ³cra":6030,"Ġcolombi":6031,"Ġec":6032,"Ġoportunidades":6033,"Ġconciertos":6034,"Ġpensiones":6035,"ĠtensiÃ³n":6036,"Ġinci":6037,"Ġtas":6038,"Ġfortal":6039,"ĠCarmen":6040,"ĠsesiÃ³n":6041,"Ġham":6042,"Ġdeseo":6043,"icales":6044,"Ġdesplaz":6045,"Ġmadrugada":6046,"Ġais":6047,"Ġexplos":6048,"ĠTeatro":6049,"Des":6050,"Ġagenda":6051,"ĠRuiz":6052,"Ġportu":6053,"Ġrenov":6054,"ĠHist":6055,"Ġmensajes":6056,"uran":6057,"Ġtrist":6058,"ĠCer":6059,"ben":6060,"arle":6061,"ĠEuskadi":6062,"21":6063,"rillo":6064,"Ġagre":6065,"Ġrum":6066,"Ġincapa":6067,"Ġargumento":6068,"Ġcontribuy":6069,"Ġasegurado":6070,"Ġcartel":6071,"Ġaspecto":6072,"Ġacusado":6073,"medi":6074,"Ġgratu":6075,"ĠVÃŃ":6076,"Ġprofund":6077,"ĠtendrÃŃa":6078,"ĠTanto":6079,"Ġserio":6080,"Ã©nez":6081,"Ġataques":6082,"Ġ37":6083,"Ã¡z":6084,"ys":6085,"blos":6086,"ĠIsabel":6087,"Ġtantas":6088,"Ġ75":6089,"entados":6090,"ik":6091,"Ġmenudo":6092,"Ġrecibe":6093,"ĠdeberÃŃan":6094,"Ġlimi":6095,"Ġrechazo":6096,"Ġ38":6097,"Ġresponder":6098,"ting":6099,"bios":6100,"Ã©cord":6101,"Ġmunicipios":6102,"Ġtarea":6103,"ĠCatalunya":6104,"Ġdictad":6105,"tillo":6106,"arato":6107,"Ġacerc":6108,"Ġdismin":6109,"Ġvotantes":6110,"Ġcomplicado":6111,"Ġelectorales":6112,"Ġpiel":6113,"ĠXV":6114,"Ġcarga":6115,"Ġasesin":6116,"graciÃ³n":6117,"ĠFlor":6118,"Ġagrade":6119,"Ġpiso":6120,"Ġprocesos":6121,"ĠOrgan":6122,"ezol":6123,"ĠacadÃ©m":6124,"ĠfotografÃŃa":6125,"saciones":6126,"vido":6127,"Ġerrores":6128,"Ġtienes":6129,"Ġ2000":6130,"Ġcientos":6131,"Ġmodelos":6132,"Ġguard":6133,"ionado":6134,"ultad":6135,"ogle":6136,"Ġllen":6137,"bla":6138,"Ġruta":6139,"Ġveter":6140,"Ġadul":6141,"Ġsecreto":6142,"Ġlujo":6143,"Ġmeta":6144,"Ġcens":6145,"ĠDiputaciÃ³n":6146,"Ġlenguaje":6147,"Ġset":6148,"pecial":6149,"Ġfeliz":6150,"Ġcualquiera":6151,"Ġinjust":6152,"Ġ150":6153,"cat":6154,"Ġpremios":6155,"tral":6156,"Ġdirecta":6157,"Ġregular":6158,"wa":6159,"ĠnÃºmeros":6160,"Ġprotestas":6161,"ays":6162,"Ġlectura":6163,"Ã¡zquez":6164,"Ġventaja":6165,"vileg":6166,"Ġevalu":6167,"Ġciudadano":6168,"gando":6169,"ĠtamaÃ±o":6170,"Ġjard":6171,"Ġplazas":6172,"ĠBerlÃŃn":6173,"Ġtriunf":6174,"ĠcelebraciÃ³n":6175,"Ġpuerto":6176,"An":6177,"orÃŃas":6178,"ĠDios":6179,"andro":6180,"ÃŃsticos":6181,"Ġpresid":6182,"Ġviejo":6183,"Ġquedar":6184,"Ġverde":6185,"08":6186,"Ġpriva":6187,"Ġdepende":6188,"Ġpropone":6189,"rista":6190,"Ġvide":6191,"chi":6192,"Ġadvierte":6193,"Ġvenezol":6194,"Ġboca":6195,"ĠhistÃ³rica":6196,"Ġnecesaria":6197,"vas":6198,"blio":6199,"04":6200,"ĠSar":6201,"Ġreconocer":6202,"Ġtaller":6203,"cic":6204,"bÃ³":6205,"garon":6206,"Ġdirige":6207,"ĠLes":6208,"Ġinspec":6209,"Ġmira":6210,"ĠDon":6211,"mÃ¡s":6212,"Ġfuertes":6213,"Ġpresos":6214,"ĠPaul":6215,"Ġextranjero":6216,"Ġpiensa":6217,"Ġcuadrados":6218,"Ġdiplom":6219,"sal":6220,"ĠVia":6221,"Ġsanidad":6222,"ĠONU":6223,"ĠrÃ©cord":6224,"Ġconcluy":6225,"Ġcamp":6226,"23":6227,"ĠQui":6228,"inta":6229,"ĠSab":6230,"Ġcomerciales":6231,"Ġmodific":6232,"mÃ¡tico":6233,"icciones":6234,"ĠfiscalÃŃa":6235,"Ġorigin":6236,"Ġdiversos":6237,"ĠdisposiciÃ³n":6238,"Ġpractic":6239,"idez":6240,"Ġ194":6241,"Ġuniversidad":6242,"nal":6243,"tÃ©":6244,"Ã¡rez":6245,"Ġacu":6246,"Ġprevi":6247,"ther":6248,"Ġing":6249,"ĠGrupo":6250,"Ġencuestas":6251,"ĠinspiraciÃ³n":6252,"Ġseguidores":6253,"Ġsecund":6254,"ĠBank":6255,"Ġartes":6256,"Ġvolumen":6257,"Ġperfec":6258,"Ġhtt":6259,"ĠclÃ¡sico":6260,"rano":6261,"Ġninguno":6262,"ibrio":6263,"ĠCre":6264,"Ġtanta":6265,"ĠMario":6266,"ĠCastilla":6267,"Ġconsenso":6268,"Ġrecientemente":6269,"ĠBla":6270,"vez":6271,"ĠServ":6272,"oler":6273,"Ġfuncionamiento":6274,"fÃ³nica":6275,"Ġret":6276,"Ġtiro":6277,"Ġdesas":6278,"Ġprivileg":6279,"Ġinvi":6280,"ĠMuchos":6281,"olÃ³gicos":6282,"Ġcrimen":6283,"Ġfraude":6284,"Ġempu":6285,"Ġhonor":6286,"Ġguion":6287,"Ġfranqu":6288,"ĠRamÃ³n":6289,"24":6290,"ĠMir":6291,"Ġpuedes":6292,"ĠAra":6293,"lÃ³":6294,"ĠSalv":6295,"Ġconciencia":6296,"cieron":6297,"Ġsuyo":6298,"Ġaguas":6299,"Ġautob":6300,"ĠKa":6301,"ĠVasco":6302,"Ġdaba":6303,"ĠAlex":6304,"Ġpala":6305,"Ġllu":6306,"ĠFestival":6307,"Ġderiv":6308,"tualmente":6309,"Ġcondena":6310,"Ġreparto":6311,"jÃ³n":6312,"Ġaval":6313,"Ġaprender":6314,"ĠFranco":6315,"Ġmostrar":6316,"gip":6317,"segu":6318,"arre":6319,"tamos":6320,"Ġfracaso":6321,"Ġasesina":6322,"Ġestablecer":6323,"ĠVilla":6324,"Ġjuega":6325,"ĠNie":6326,"rimiento":6327,"trÃ³leo":6328,"Ġcabal":6329,"Ġoch":6330,"Ġargentino":6331,"maras":6332,"Ġloc":6333,"Ġnot":6334,"tz":6335,"Ġrecoge":6336,"Ġdirigente":6337,"Para":6338,"ĠencontrÃ³":6339,"mej":6340,"Ġnarra":6341,"ĠcÃº":6342,"ĠaviÃ³n":6343,"dro":6344,"ĠEdu":6345,"ĠtÃ©rmino":6346,"ĠdemocrÃ¡tica":6347,"digo":6348,"Ġactualmente":6349,"Ġreducido":6350,"ĠprÃ³ximas":6351,"Ġvalenciano":6352,"ĠGoogle":6353,"ĠmuriÃ³":6354,"Ġacostum":6355,"ĠsÃŃn":6356,"idamente":6357,"ĠcomitÃ©":6358,"Ġrazon":6359,"Ġpermanente":6360,"tÃ³graf":6361,"ore":6362,"Ġafrontar":6363,"Ġiban":6364,"quen":6365,"ĠlÃŃmites":6366,"Ġsomet":6367,"Ġesperan":6368,"ĠvÃŃas":6369,"Ġseguido":6370,"ioso":6371,"cro":6372,"ĠTiene":6373,"ĠFuer":6374,"ĠpreocupaciÃ³n":6375,"quia":6376,"Ġidi":6377,"ĠTri":6378,"ĠpublicÃ³":6379,"torias":6380,"ĠestratÃ©g":6381,"Ġcum":6382,"Ġinformes":6383,"ĠprÃ¡cticas":6384,"sin":6385,"Ġaquello":6386,"mÃ¡tica":6387,"Ġrecal":6388,"Ġsucede":6389,"ĠImp":6390,"Ġbanca":6391,"xo":6392,"Ġinfantil":6393,"Ġopin":6394,"ĠjamÃ¡s":6395,"Ġdescenso":6396,"Ġdesap":6397,"bral":6398,"vic":6399,"Ġentiende":6400,"ĠtrÃ¡":6401,"Ġvoces":6402,"Ġrece":6403,"Nos":6404,"uestro":6405,"Ġsimplemente":6406,"ĠEspaÃ±ola":6407,"Ġintercambi":6408,"ĠUnivers":6409,"Ġpresupuestos":6410,"Ġmarcas":6411,"Ġmarch":6412,"Ġconversaciones":6413,"gica":6414,"Ġestatal":6415,"Ġsusp":6416,"Ġretro":6417,"usieron":6418,"Ġdelegado":6419,"Ġpublicidad":6420,"gia":6421,"Ġdelan":6422,"ĠIra":6423,"Ġestadio":6424,"pia":6425,"ĠJapÃ³n":6426,"Ġgenerar":6427,"PS":6428,"Ġimprescindi":6429,"olucion":6430,"ĠsÃŃm":6431,"Ġcastell":6432,"Ġminuto":6433,"Ġpelo":6434,"Ġpagos":6435,"ciles":6436,"ĠInt":6437,"Ġrea":6438,"Mi":6439,"Ġignor":6440,"Ġconex":6441,"mplimiento":6442,"Ġtribunales":6443,"Ġteniendo":6444,"Ġabandonar":6445,"Ġcontrolar":6446,"ĠDomingo":6447,"cismo":6448,"Ġmuestran":6449,"Ġtemper":6450,"Ġtrabajan":6451,"Ġguar":6452,"Ġaplicar":6453,"Ġministerio":6454,"ĠestaciÃ³n":6455,"umi":6456,"mun":6457,"Ġexter":6458,"Ġverdadera":6459,"Ġautoridad":6460,"ĠAlej":6461,"ĠÃģngeles":6462,"Ġpersonales":6463,"ĠfundaciÃ³n":6464,"Ġtea":6465,"ficaciÃ³n":6466,"Ġnegoci":6467,"habil":6468,"26":6469,"ieren":6470,"dedores":6471,"puestamente":6472,"Ġpec":6473,"tional":6474,"Ã¡mica":6475,"Ġenga":6476,"Ġsem":6477,"imas":6478,"emp":6479,"Ġcontrad":6480,"Ġigles":6481,"Ġpapeles":6482,"Ġlatino":6483,"Ġrebotes":6484,"ael":6485,"Ġpod":6486,"Ġ48":6487,"ĠAguirre":6488,"Ġsoluciones":6489,"Ġinteligencia":6490,"Ġnecesitan":6491,"line":6492,"Ġasom":6493,"Ġproyec":6494,"Ġtocar":6495,"ĠpetrÃ³leo":6496,"Ġrepresentante":6497,"ĠAmbi":6498,"ĠDepartamento":6499,"Ġtrayec":6500,"Ġvidas":6501,"ĠRoma":6502,"Ġpueblos":6503,"Ġsoberan":6504,"Ġimpe":6505,"rum":6506,"Ġdiversas":6507,"Ġpromes":6508,"Ġalcance":6509,"Ġmol":6510,"Ġfactor":6511,"Ġpreocupa":6512,"Ġpanor":6513,"tron":6514,"ds":6515,"Ġinteresante":6516,"Ġciviles":6517,"ĠSiempre":6518,"Ġconocida":6519,"ĠbritÃ¡nica":6520,"Ġprimarias":6521,"Ġsalido":6522,"Ġocupa":6523,"Ġresid":6524,"Ġaquellas":6525,"ĠViv":6526,"Ġpendiente":6527,"ĠÃ³p":6528,"Ġinteg":6529,"ĠcompaÃ±ero":6530,"Ġdispuesto":6531,"Ġfol":6532,"Ġanuales":6533,"Ġasesor":6534,"ĠfÃ¡br":6535,"ĠSim":6536,"Ġcerrado":6537,"28":6538,"ĠÃ¡l":6539,"Ã©ro":6540,"Ġasign":6541,"Ġtestimon":6542,"Ġalimentos":6543,"Ġperiod":6544,"Ġcompartir":6545,"ĠRic":6546,"ĠSenado":6547,"Ġdecis":6548,"Ġasesinato":6549,"iam":6550,"ĠInf":6551,"ĠÃ¡ra":6552,"ĠCreo":6553,"ĠestÃ©n":6554,"Ġ65":6555,"yendo":6556,"jada":6557,"Ġsentir":6558,"dis":6559,"Ġestudiar":6560,"Ġconvocatoria":6561,"izados":6562,"Ġriv":6563,"Ġmezcla":6564,"Ġvacaciones":6565,"Ġentus":6566,"Ġlleno":6567,"Ġciclo":6568,"uma":6569,"Ġhosp":6570,"Ġgesto":6571,"Ġbos":6572,"Ġcomportamiento":6573,"ĠNadal":6574,"27":6575,"gano":6576,"Ġdarle":6577,"Ġvivido":6578,"Ġinsiste":6579,"Ġargument":6580,"Ġvigor":6581,"anta":6582,"Ġparal":6583,"ĠvotaciÃ³n":6584,"Ġaconte":6585,"ĠdaÃ±o":6586,"Ġcarretera":6587,"lle":6588,"ĠquizÃ¡s":6589,"mu":6590,"itarias":6591,"Ġimpul":6592,"pp":6593,"Ġcompens":6594,"ĠaprobÃ³":6595,"Ġrequiere":6596,"zando":6597,"Ġcuyos":6598,"Ġsexo":6599,"Ġconqu":6600,"Ġparlamentario":6601,"Ġvecino":6602,"ĠAsamblea":6603,"Ã¨n":6604,"Ġproteger":6605,"Ġconsciente":6606,"ĠXI":6607,"Ġremo":6608,"Ġflo":6609,"misos":6610,"ĠFabra":6611,"venida":6612,"Ġsubs":6613,"erÃŃas":6614,"Ġreclama":6615,"ĠOtros":6616,"Ġbases":6617,"Ġescala":6618,"quÃŃn":6619,"certid":6620,"Ġhumana":6621,"Ġpasan":6622,"Ġocciden":6623,"art":6624,"ĠConsist":6625,"Ġplantea":6626,"ĠpÃ©rdidas":6627,"Ġcompetencias":6628,"Ġalco":6629,"Ġochenta":6630,"Ġterminar":6631,"Ġabra":6632,"AL":6633,"istÃ¡n":6634,"ĠSegun":6635,"ĠdeberÃ¡":6636,"Ġcelebrar":6637,".âĢĿ":6638,"ĠVI":6639,"ĠSanidad":6640,"adura":6641,"Ġusar":6642,"ĠBÃ¡r":6643,"Ġaceler":6644,"ĠpasiÃ³n":6645,"Ġprocedimiento":6646,"Ġobligado":6647,"Ġgusto":6648,"Ġexplican":6649,"ficial":6650,"Ġislam":6651,"ĠmadrileÃ±o":6652,"ĠSergio":6653,"uld":6654,"ĠcÃ¡ncer":6655,"Ġexam":6656,"Ġnegra":6657,"Ġmist":6658,"Ġconec":6659,"ĠpodÃŃan":6660,"Ġhere":6661,"Ġ03":6662,"Ġimper":6663,"Ġdoctor":6664,"Ġpermitido":6665,"Ġdictadura":6666,"Ġreales":6667,"Ġextremo":6668,"leza":6669,"Ã¡stico":6670,"icil":6671,"Ġescuelas":6672,"Ġafric":6673,"lores":6674,"ĠsÃŃmbol":6675,"burgo":6676,"ĠSpain":6677,"Ġportugu":6678,"Ġiniciativas":6679,"Ġconfes":6680,"Ġgobiernos":6681,"Ã£":6682,"Ġestima":6683,"ĠJer":6684,"Ġfres":6685,"Ġaprobado":6686,"Ġexperto":6687,"ĠreconociÃ³":6688,"Ġpopul":6689,"Ġrestos":6690,"Ġcanal":6691,"Ġesfuerzos":6692,"Ġcongreso":6693,"ĠnaciÃ³n":6694,"Ġespecta":6695,"ĠSantos":6696,"ĠvehÃŃculo":6697,"inho":6698,"Ġdesn":6699,"cioso":6700,"Ġparecido":6701,"zados":6702,"Ġsing":6703,"Ġplantas":6704,"caria":6705,"ĠNada":6706,"Ġinfraestructuras":6707,"gust":6708,"Ġpositivo":6709,"Ġnormativa":6710,"mentar":6711,"ĠPues":6712,"ĠJoa":6713,"cura":6714,"Ha":6715,"Ġdemostrar":6716,"Ġguitar":6717,"Ġdedicado":6718,"had":6719,"Ġsho":6720,"Ġcreciente":6721,"tente":6722,"ÃŃna":6723,"Ġsegundos":6724,"Ġdiscip":6725,"Ġresuel":6726,"ĠDonald":6727,"Ġembara":6728,"ĠMichael":6729,"Ġcajas":6730,"Ġcabe":6731,"Ġsupuestamente":6732,"Ġregal":6733,"ĠNadie":6734,"Ġluch":6735,"Ġafect":6736,"ĠBCE":6737,"ĠERC":6738,"2015":6739,"Ġconclu":6740,"Ġestatu":6741,"Ġvisitantes":6742,"ĠcategorÃŃa":6743,"Ġoficina":6744,"Ġcontinente":6745,"Ġpelota":6746,"ĠBra":6747,"ĠIng":6748,"cidentes":6749,"ĠmisiÃ³n":6750,"Ġencargado":6751,"ĠAlgo":6752,"ĠreacciÃ³n":6753,"Ġchav":6754,"ĠFil":6755,"imismo":6756,"Ġcero":6757,",âĢĿ":6758,"Ġbio":6759,"ĠGri":6760,"Ġliderazgo":6761,"Ġconvir":6762,"tions":6763,"olas":6764,"Ġincertid":6765,"entro":6766,"Ġtradicionales":6767,"Ġministra":6768,"trado":6769,"Ġrepetir":6770,"Ġtransparencia":6771,"Ġalemana":6772,"lywood":6773,"ĠcrÃŃtico":6774,"AM":6775,"cipe":6776,"ĠGir":6777,"Ġ43":6778,"gencias":6779,"ĠpublicaciÃ³n":6780,"Ġbreve":6781,"ĠAyer":6782,"Ġasociaciones":6783,"Ġjudiciales":6784,"tÃŃ":6785,"IN":6786,"Le":6787,"tega":6788,"ĠDefensa":6789,"ĠdemÃ³cra":6790,"Ġdifun":6791,"olÃ³gicas":6792,"Ġvienen":6793,"Ġposiciones":6794,"Ġfrag":6795,"Ġclima":6796,"ĠAndrÃ©s":6797,"Ġtrayectoria":6798,"Ġfronteras":6799,"Ġuniversidades":6800,"Ġexpectativas":6801,"ĠFrente":6802,"Ġculturales":6803,"into":6804,"ĠÃ¡rbol":6805,"cionistas":6806,"Ġvisitar":6807,"ĠHernÃ¡ndez":6808,"Ġindign":6809,"29":6810,"garse":6811,"Ã³mico":6812,"Ġpreocup":6813,"ĠBB":6814,"Ġdesempleo":6815,"ĠfotÃ³graf":6816,"ĠNunca":6817,"Ġdebemos":6818,"Ġincluido":6819,"Ġasal":6820,"FE":6821,"Ġfirmas":6822,"Ġabogados":6823,"Ġproto":6824,"Ġempresarial":6825,"Ġcapit":6826,"ĠentrÃ³":6827,"Ġrueda":6828,"03":6829,"iada":6830,"inter":6831,"Ġdeclarado":6832,"Ġadqui":6833,"ĠMartin":6834,"oll":6835,"cran":6836,"Ġ55":6837,"tesis":6838,"ĠJuegos":6839,"Ġganas":6840,"ĠaÃ©":6841,"ĠClin":6842,"Ġforman":6843,"Ġsubven":6844,"Ġcolores":6845,"Ġarres":6846,"ĠRod":6847,"Qui":6848,"Ġsuperviv":6849,"ĠtÃº":6850,"ĠescÃ¡ndalo":6851,"gente":6852,"Ġreglas":6853,"Ġconsiste":6854,"Ġesencial":6855,"Ġargumentos":6856,"Ġfamoso":6857,"Ġfactores":6858,"ĠterminÃ³":6859,"Ġdejan":6860,"Ġglob":6861,"Ġalber":6862,"omento":6863,"Ġimporta":6864,"vern":6865,"xa":6866,"Ġevento":6867,"ĠArtur":6868,"Ġhablando":6869,"ĠcÃ¡maras":6870,"osofÃŃa":6871,"Ġdisposi":6872,"ĠaprobaciÃ³n":6873,"ĠEd":6874,"Ġacon":6875,"Ġlibr":6876,"ĠPR":6877,"Ġgr":6878,"Ġrobo":6879,"Ġrup":6880,"Ġbandera":6881,"Ġwww":6882,"Ġfrust":6883,"ĠfÃŃsico":6884,"Ġtomado":6885,"izaciones":6886,"Ġ2001":6887,"Ġabajo":6888,"Ġpasaj":6889,"Ġcondenado":6890,"quillo":6891,"Ġcuarta":6892,"Ġhaberse":6893,"Ġradical":6894,"ĠCel":6895,"Ġasistencia":6896,"ĠInv":6897,"ĠONG":6898,"Ġnarco":6899,"Ġejecutivo":6900,"ĠTorre":6901,"Ġpoeta":6902,"Ġtotalmente":6903,"ĠconcentraciÃ³n":6904,"Ġindis":6905,"ĠElla":6906,"ÂŃ":6907,"Ġ04":6908,"bum":6909,"ĠVicente":6910,"fal":6911,"ĠAca":6912,"Ġmusul":6913,"Ġbienestar":6914,"by":6915,"up":6916,"pula":6917,"Ġreme":6918,"terrÃ¡neo":6919,"ĠPon":6920,"Ġdato":6921,"Ã£o":6922,"Ġresistencia":6923,"ise":6924,"ĠConsistorio":6925,"Ġaust":6926,"Ġpeg":6927,"tidades":6928,"Ġdesigualdad":6929,"Ġcreer":6930,"ĠhÃ¡":6931,"Ġajuste":6932,"Ġhun":6933,"Ġ39":6934,"Ġofrecen":6935,"timos":6936,"biciÃ³n":6937,"âĢĶ.":6938,"ĠTres":6939,"queza":6940,"Ġmonum":6941,"Ġandaluz":6942,"Ġaun":6943,"Ġpade":6944,"lara":6945,"ĠChrist":6946,"Ġmaqu":6947,"ĠinterpretaciÃ³n":6948,"Ġmirar":6949,"Ġdetenidos":6950,"02":6951,"mada":6952,"Ġfiestas":6953,"ĠChar":6954,"Ġran":6955,"ĠrespondiÃ³":6956,"ĠHollywood":6957,"ĠAlbert":6958,"Ġcentrales":6959,"Ġresidencia":6960,"ĠdistribuciÃ³n":6961,"Ġobliga":6962,"ĠFre":6963,"Ġtorn":6964,"ĠAlejandro":6965,"voc":6966,"ĠfÃŃsica":6967,"iten":6968,"ĠsufriÃ³":6969,"Ġcentenar":6970,"ĠMoreno":6971,"Ġdirigido":6972,"Ġrequis":6973,"ĠexcepciÃ³n":6974,"Ġproclam":6975,"Ġromper":6976,"elle":6977,"demont":6978,"ĠprÃ©st":6979,"ĠcientÃŃficos":6980,"ĠmÃºlti":6981,"Ġdistinto":6982,"Ġmantienen":6983,"Ġnoventa":6984,"ung":6985,"Ġflam":6986,"Ġcercan":6987,"Ġsigu":6988,"Ġsimilares":6989,"ĠmanifestaciÃ³n":6990,"endas":6991,"ĠParlament":6992,"oni":6993,"Ġconsiderado":6994,"ĠCla":6995,"Ġabo":6996,"ĠCC":6997,"ĠWe":6998,"Ġpaseo":6999,"Ġmantuvo":7000,"ĠÃ¡reas":7001,"Ġwho":7002,"Ġquedarse":7003,"Ġsalas":7004,"gaciÃ³n":7005,"laterra":7006,"atus":7007,"Ġtoca":7008,"ĠÃº":7009,"Ġamplio":7010,"ĠcafÃ©":7011,"ingÃ¼":7012,"Ġarquitectura":7013,"Ġvivo":7014,"teral":7015,"Ġnacido":7016,"Ġobjetos":7017,"Ġpudiera":7018,"ĠcuÃ¡l":7019,"rando":7020,"ĠKo":7021,"Ã©rpretes":7022,"guen":7023,"oli":7024,"Ġllamar":7025,"Ġreuniones":7026,"Ġahorro":7027,"Ġfinancieros":7028,"Ġorganizado":7029,"ĠJimÃ©nez":7030,"Ġacudir":7031,"ĠSuperior":7032,"Ġinformado":7033,"Ġdiscrim":7034,"Ġcomienza":7035,"ugh":7036,"itaciÃ³n":7037,"Ġamplia":7038,"Ġexplor":7039,"ĠWal":7040,"uraciÃ³n":7041,"Ġprovocado":7042,"ĠRÃŃo":7043,"ĠEsc":7044,"Ġexplicado":7045,"Ġic":7046,"mpe":7047,"Ġsombra":7048,"Ġexpon":7049,"ĠcapÃŃtulo":7050,"dÃŃ":7051,"Ġasc":7052,"ĠSala":7053,"Ġsecretaria":7054,"ĠEduardo":7055,"Ġmostrado":7056,"ĠÃģlvarez":7057,"queta":7058,"Ġocupar":7059,"enz":7060,"Ġregistro":7061,"timidad":7062,"Ġestreno":7063,"Ġ2002":7064,"ĠAmbos":7065,"Ġdil":7066,"ĠHos":7067,"Ġfirme":7068,"ĠNaciones":7069,"Ġeditorial":7070,"ĠPremio":7071,"ĠPuigdemont":7072,"ĠintentÃ³":7073,"Ġbuscan":7074,"Ġ600":7075,"tios":7076,"dice":7077,"idaridad":7078,"ĠdocumentaciÃ³n":7079,"Ġmediados":7080,"Ġcorresponde":7081,"Ġcel":7082,"ego":7083,"Ġsindic":7084,"Ġconflictos":7085,"Ġcompleta":7086,"Ġequivoc":7087,"Ġsug":7088,"ĠaÃ±adido":7089,"ĠClar":7090,"lande":7091,"Ġ02":7092,"ĠintegraciÃ³n":7093,"Ġreiter":7094,"arlos":7095,"Ġextrema":7096,"ĠseguirÃ¡":7097,"Ġintenta":7098,"Ġinmue":7099,"Ġpies":7100,"34":7101,"ÃŃbe":7102,"Ġcomprobar":7103,"Ġapa":7104,"Ġcercano":7105,"Ġsof":7106,"Que":7107,"Ġimplan":7108,"Ġinmediato":7109,"ĠIrÃ¡n":7110,"Ġsiglos":7111,"Ġescolar":7112,"Ġplano":7113,"redo":7114,"Ġmarcado":7115,"Ġclim":7116,"ualidad":7117,"xe":7118,"Ġtasas":7119,"ĠAquel":7120,"Ġsuminist":7121,"Ġrecorte":7122,"ĠGranada":7123,"ĠConsejerÃŃa":7124,"Ġbajos":7125,"Ġenfermedades":7126,"Ġparlamentaria":7127,"ĠVi":7128,"Ġelimin":7129,"Ġdespacho":7130,"ĠIndia":7131,"Ġwill":7132,"clo":7133,"ĠHor":7134,"ĠAires":7135,"Ġasegurar":7136,"ĠllamÃ³":7137,"iosa":7138,"ĠdivisiÃ³n":7139,"Ġcarne":7140,"ĠpermitiÃ³":7141,"Ġfech":7142,"Ġreconocido":7143,"Ġamp":7144,"Ġchil":7145,"BA":7146,"%),":7147,"Ġcontun":7148,"Ġponen":7149,"Ġelig":7150,"ĠPregun":7151,"cir":7152,"uncias":7153,"Ġimpedir":7154,"ĠlegislaciÃ³n":7155,"Ġater":7156,"urias":7157,"Ġlistas":7158,"ĠdetenciÃ³n":7159,"Ġcorte":7160,"Ġpoliciales":7161,"Ġauster":7162,"Ġestr":7163,"ĠValle":7164,"ĠMaduro":7165,"Ġcontras":7166,"Ġpaga":7167,"Ġopina":7168,"ĠcooperaciÃ³n":7169,"ÃŃncipe":7170,"ĠPresu":7171,"Ġgala":7172,"Ġjud":7173,"35":7174,"jol":7175,"ervi":7176,"ĠGeorge":7177,"Ġsuici":7178,"onato":7179,"tres":7180,"ĠfotografÃŃas":7181,"zadas":7182,"Ġbajas":7183,"ĠHen":7184,"Ġbarrios":7185,"Ġlatinoameric":7186,"Ġllena":7187,"ĠAlfonso":7188,"Ġparado":7189,"EN":7190,"ĠteorÃŃa":7191,"Ġhermana":7192,"rilla":7193,"ĠGÃ¼":7194,"Ġinvest":7195,"Ġhin":7196,"Ġge":7197,"ello":7198,"erdo":7199,"ĠExteriores":7200,"Ġolvidar":7201,"eda":7202,"ĠPri":7203,"Ġperspectiva":7204,"Ġrefiere":7205,"ĠEstudi":7206,"Ġtrage":7207,"ĠmÃ³viles":7208,"Ġbelleza":7209,"Ġtonel":7210,"Ġaprobar":7211,"Ġprivados":7212,"Ġ46":7213,"Ġatender":7214,"ĠWilliam":7215,"dicaciÃ³n":7216,"alizÃ³":7217,"Ġcurios":7218,"Ġpierde":7219,"ĠRosa":7220,"cÃŃan":7221,"vos":7222,"ĠÃ¡lbum":7223,"Ġvale":7224,"Ġrecomend":7225,"ĠdemocrÃ¡tico":7226,"idaciÃ³n":7227,"Ġexc":7228,"laba":7229,"ÃŃble":7230,"Ġoficinas":7231,"Ġcampos":7232,"ĠtomÃ³":7233,"Ġpanorama":7234,"Ġ42":7235,"Ġinvestigaciones":7236,"ĠAmbiente":7237,"Ã³stico":7238,"ĠTurquÃŃa":7239,"ĠPh":7240,"Ġtrascen":7241,"Ġdrogas":7242,"ihad":7243,"Ġestablece":7244,"gamos":7245,"ĠautonÃ³micas":7246,"ogr":7247,"icultura":7248,"Ġconsiderar":7249,"Ġinfancia":7250,"Ġquita":7251,"ĠhabitaciÃ³n":7252,"Ġdivid":7253,"Ã³mica":7254,"Ġsufrir":7255,"Ġche":7256,"Ġencabez":7257,"iverso":7258,"Ġmotiv":7259,"Ġdescubrir":7260,"igh":7261,"ierten":7262,"Ġrestaurantes":7263,"ĠIVA":7264,"Ġfueran":7265,"Ġamist":7266,"ixa":7267,"ĠOrganizaciÃ³n":7268,"ĠInglaterra":7269,"cada":7270,"ienes":7271,"Ġfortun":7272,"Ġadmit":7273,"ĠMerkel":7274,"Ġsalarios":7275,"ĠinflaciÃ³n":7276,"Ġhablan":7277,"Ġarquitecto":7278,"ĠPerÃº":7279,"Ġaficionados":7280,"Ġmadera":7281,"Ġfacilitar":7282,"rador":7283,"tara":7284,"ĠZara":7285,"icada":7286,"Ġnotable":7287,"Ġavance":7288,"Ġentusias":7289,"Ġpotencia":7290,"Ġronda":7291,"Ġmateriales":7292,"Ġdemostrado":7293,"vio":7294,"derÃŃa":7295,"Ġagente":7296,"Ġfiguras":7297,"ique":7298,"ĠVol":7299,"Ġanimal":7300,"ĠcontÃ³":7301,"Ġama":7302,"Ġurnas":7303,"Ġprove":7304,"Ġabon":7305,"Ġalerta":7306,"ĠmÃºsicos":7307,"imientos":7308,"orcio":7309,"Ġconstruc":7310,"ĠcaÃŃdo":7311,"Ġimpar":7312,"ifornia":7313,"Ġnacionalistas":7314,"tillas":7315,"Estamos":7316,"tuario":7317,"Ġcotid":7318,"Ġriqueza":7319,"Ġverdadero":7320,"Ġinferior":7321,"Ġcho":7322,"ĠgustarÃŃa":7323,"Ġacusaciones":7324,"Ġnumerosos":7325,"ĠcayÃ³":7326,"amor":7327,"ĠSuÃ¡rez":7328,"OR":7329,"verg":7330,"Ġsueldo":7331,"Ġindependentista":7332,"ĠreÃºn":7333,"pera":7334,"Ġpermiten":7335,"Ġausteridad":7336,"Ġsemi":7337,"ĠBuenos":7338,"ĠDemoc":7339,"Ġcumbre":7340,"ĠreflexiÃ³n":7341,"ĠFondo":7342,"ĠcatedrÃ¡tico":7343,"ĠÂ»":7344,"ĠTan":7345,"Ġgui":7346,"rero":7347,"Ġenm":7348,"letas":7349,"ĠsÃ³l":7350,"diciÃ³n":7351,"ions":7352,"Ġprolon":7353,"bis":7354,"balcaba":7355,"Ġcorriente":7356,"ĠUnidas":7357,"Ġanivers":7358,"Ġende":7359,"ĠCarm":7360,"enn":7361,"Ġperpe":7362,"Ġapoyar":7363,"Ġmexicana":7364,"riel":7365,"Ġprivadas":7366,"ĠautonomÃŃa":7367,"ÃŃfica":7368,"Ġaudiencia":7369,"strucciÃ³n":7370,"ĠIC":7371,"%).":7372,"ĠIgu":7373,"Ġremon":7374,"Ġhier":7375,"ĠGuardi":7376,"IA":7377,"Ġgar":7378,"Ġabsoluto":7379,"Ġcalend":7380,"Ġsumar":7381,"Ġaltas":7382,"ock":7383,"Ġafil":7384,"ĠVÃ¡zquez":7385,"ionar":7386,"tidas":7387,"cher":7388,"Ġlectores":7389,"Ġacumul":7390,"Ġregreso":7391,"ĠPos":7392,"aso":7393,"ĠlanzÃ³":7394,"ĠClinton":7395,"Ġvital":7396,"Ġviento":7397,"Ġnegociar":7398,"Ġmales":7399,"Ġmalo":7400,"Ġinterro":7401,"Ã¡nica":7402,"ĠInst":7403,"Ġfues":7404,"Ġtesis":7405,"Ġpresentes":7406,"guay":7407,"Ġfallecido":7408,"Ġsuperficie":7409,"ĠBÃ¡rcenas":7410,"merÃŃa":7411,"Ġtemporal":7412,"Ġpisos":7413,"Ġindividual":7414,"Ġcoinciden":7415,"Ġdescen":7416,"iger":7417,"Ġlegales":7418,"irÃ¡n":7419,"Ġformado":7420,"Ġfirmado":7421,"Ġmel":7422,"Ġarreg":7423,"Ġobtuvo":7424,"Ã¡mico":7425,"ĠFederaciÃ³n":7426,"imp":7427,"Ġpermiso":7428,"Ġdemuestra":7429,"ĠDirecciÃ³n":7430,"Ġvulner":7431,"ezca":7432,"Ġfinancieras":7433,"ĠOscar":7434,"ĠIrak":7435,"ĠRubalcaba":7436,"ÃŃmenes":7437,"Ġmemor":7438,"tarias":7439,"ectÃ¡":7440,"ĠinnovaciÃ³n":7441,"Ġevidencia":7442,"Ġexpuls":7443,"ĠOrtega":7444,"ribuye":7445,"ĠBale":7446,"Ġindem":7447,"idura":7448,"Ġdeterior":7449,"Ġcastellano":7450,"Ġinoc":7451,"Ġchino":7452,"Ġhistori":7453,"Ġdesign":7454,"Ġverse":7455,"amentos":7456,"dencias":7457,"ĠrealizÃ³":7458,"ema":7459,"Ġterra":7460,"ĠcompeticiÃ³n":7461,"Ġcompletamente":7462,"Ġpendientes":7463,"Ġmantenido":7464,"Ġcalor":7465,"visible":7466,"Ġseries":7467,"cripciÃ³n":7468,"Ġterrorista":7469,"Ġsubraya":7470,"Ġopon":7471,"ĠBara":7472,"Ġnuclear":7473,"Ġparticipa":7474,"isa":7475,"Ġideal":7476,"Ġfundador":7477,"ld":7478,"ony":7479,"Ġinevi":7480,"Ġsalvar":7481,"ĠobligaciÃ³n":7482,"Ġascen":7483,"ĠseÃ±alado":7484,"Ġpoderes":7485,"Ġensay":7486,"Ġpropa":7487,"ĠacusaciÃ³n":7488,"Ġvest":7489,"tella":7490,"ĠviviÃ³":7491,"ĠpromociÃ³n":7492,"Ġcorrup":7493,"Ġvisitas":7494,"Ã¨ncia":7495,"ĠPr":7496,"Ġbailar":7497,"zca":7498,"Ġbalance":7499,"drÃ¡n":7500,"Ġdirectivos":7501,"Ġconvenio":7502,"Ġflexi":7503,"Ġaniversario":7504,"Ġ44":7505,"Ġministros":7506,"Ġatentado":7507,"Ġpiedra":7508,"ĠniÃ±as":7509,"ĠautÃ³nomas":7510,"Ã³logos":7511,"Ġdomicil":7512,"Ġsubray":7513,"gadas":7514,"Ã¡nico":7515,"Ġequilibrio":7516,"eca":7517,"cionista":7518,"ĠMarc":7519,"ĠJack":7520,"PV":7521,"Ġdistinta":7522,"Ġcontinuar":7523,"Ġbarco":7524,"Ġgallego":7525,"ĠWa":7526,"ĠEsper":7527,"Ġgeneraciones":7528,"ĠHom":7529,"Ġepisodio":7530,"ĠLin":7531,"Ġparcial":7532,"ĠQuizÃ¡":7533,"ĠÃ³rgano":7534,"Ġproductor":7535,"Ġlaborales":7536,"Ġfama":7537,"titu":7538,"ĠXIX":7539,"ĠVir":7540,"Ġsopor":7541,"Ġhoriz":7542,"ĠregulaciÃ³n":7543,"ĠReyes":7544,"Ġaparecen":7545,"ĠuniÃ³n":7546,"Ġsonido":7547,"idal":7548,"mitiÃ³":7549,"raron":7550,"Ġmeter":7551,"Ġconsta":7552,"Ġhacemos":7553,"Ġmotor":7554,"Ġcapitales":7555,"Ġcuidado":7556,"Ġmercan":7557,"Ġsuya":7558,"Ġhospitales":7559,"Ġbuscando":7560,"Ġincertidumbre":7561,"ĠBlanco":7562,"entre":7563,"Ġgir":7564,"Ġresponsabilidades":7565,"Ã³nicas":7566,"Ġperfecto":7567,"Ġnervi":7568,"Ġcielo":7569,"ĠComp":7570,"Ġruso":7571,"Ġpresunta":7572,"Ġ47":7573,"Ġcombatir":7574,"ĠiniciÃ³":7575,"direc":7576,"ĠsitÃºa":7577,"Ġsuficientes":7578,"dujo":7579,"Este":7580,"Ġmover":7581,"fica":7582,"ÃŃrculo":7583,"Ġafor":7584,"Ġcontenidos":7585,"ĠmadrileÃ±a":7586,"Ġcompetir":7587,"erra":7588,"Ġmorir":7589,"ĠCortes":7590,"ward":7591,"Ġaproxim":7592,"Ġluchar":7593,"Ġmaestro":7594,"Ġrivales":7595,"FA":7596,"ĠraÃŃz":7597,"ĠPalacio":7598,"Ġveo":7599,"Ġcubrir":7600,"ĠcaracterÃŃsticas":7601,"ĠCN":7602,"Ġexpediente":7603,"Ġlibres":7604,"ĠcerrÃ³":7605,"Ġdetalle":7606,"ĠOri":7607,"Ġbiblio":7608,"Ġeter":7609,"Ġeditor":7610,"'.":7611,"Ġlector":7612,"ites":7613,"comun":7614,"Ġterroristas":7615,"Ġperjud":7616,"Ġrelata":7617,"ĠWar":7618,"Ġdistrito":7619,"ĠDerecho":7620,"Ã±e":7621,"treet":7622,"Ġsingular":7623,"rica":7624,"ĠadvirtiÃ³":7625,"Ã©is":7626,"Ġsalto":7627,"EL":7628,"icul":7629,"Ġsanciones":7630,"Ġaventura":7631,"dell":7632,"Ġalcanza":7633,"tÃŃas":7634,"ĠJean":7635,"Ġviajar":7636,"Ġrequer":7637,"Ġescribe":7638,"ĠToda":7639,"ĠcampeÃ³n":7640,"Ġcriterios":7641,"Ġparar":7642,"incu":7643,"Ġintelectual":7644,"Ġacces":7645,"Ġestan":7646,"Ġelemento":7647,"Ġorques":7648,"Ġescritores":7649,"arrollo":7650,"Ġlogra":7651,"ariales":7652,"Ġtej":7653,"Ġhall":7654,"ĠSta":7655,"ement":7656,"ĠtransiciÃ³n":7657,"adÃ¡ver":7658,"Ġanalizar":7659,"identa":7660,"Ġtrataba":7661,"ĠEsp":7662,"Ġmarcar":7663,"Ġalcohol":7664,"Ġmanifestaciones":7665,"Ġtercero":7666,"lite":7667,"ĠQuer":7668,"Ġprofunda":7669,"ĠnegÃ³":7670,"Ġperfectamente":7671,"Ġacabado":7672,"Ġferia":7673,"Ġrepublicanos":7674,"zaba":7675,"ĠseÃ±alan":7676,"Ġescenarios":7677,"Ġfines":7678,"brÃ³":7679,"Ġavi":7680,"Ġ(âĢľ":7681,"Ġricos":7682,"Ġsindicato":7683,"Ġimputado":7684,"Ġadvers":7685,"Ġmoles":7686,"ĠSor":7687,"ĠSud":7688,"ĠSp":7689,"Ġgigantes":7690,"chada":7691,"din":7692,"Ġcomparec":7693,"ventud":7694,"PP":7695,"eos":7696,"vida":7697,"ĠcreÃ³":7698,"Ġinvestidura":7699,"ĠRich":7700,"Ġprincipalmente":7701,"Ġeviden":7702,"ĠdaÃ±os":7703,"Ġconvivencia":7704,"Madrid":7705,"ary":7706,"amÃ¡":7707,"Ġyihad":7708,"ĠRobert":7709,"ĠArte":7710,"Ġuniverso":7711,"Ġrespectivamente":7712,"ĠEstamos":7713,"Ġmultiplic":7714,"Ġarries":7715,"ĠCUP":7716,"Ġsel":7717,"Ġcalendario":7718,"Ġimprescindible":7719,"Ġcredi":7720,"?âĢĿ,":7721,"hat":7722,"Ġsiento":7723,"ĠSpan":7724,"ĠcadÃ¡ver":7725,"denes":7726,"Ġmanifiesto":7727,"Ġduelo":7728,"ĠPeÃ±a":7729,"--":7730,"seos":7731,"Ġsoldados":7732,"Ġdiscur":7733,"Ġayunta":7734,"Ġconvencer":7735,"tecas":7736,"ĠinsistiÃ³":7737,"Ġtoneladas":7738,"Ġcomicios":7739,"Ġpaisaje":7740,"Ġclaramente":7741,"Ġinvertir":7742,"uevo":7743,"ĠtecnologÃŃas":7744,"Ġthey":7745,"Ġpareci":7746,"ĠXa":7747,"Ġalcanzado":7748,"Ġequival":7749,"Ġmando":7750,"Ġquiera":7751,"Ġhue":7752,"ĠDol":7753,"Ġtoros":7754,"ĠdefendiÃ³":7755,"ĠMus":7756,"ani":7757,"duciendo":7758,"36":7759,"Ġvenido":7760,"tificaciÃ³n":7761,"ulaciÃ³n":7762,"Ġchoc":7763,"Ġfom":7764,"Re":7765,"ierto":7766,"ĠJulio":7767,"ĠSalvador":7768,"Ġsuman":7769,"Ġregiones":7770,"Ġviaj":7771,"Ġout":7772,"Ġinex":7773,"Ġdesgra":7774,"ĠinformÃ³":7775,"Ġtrabajado":7776,"Ġsituado":7777,"dere":7778,"Ġcolectivos":7779,"ĠHam":7780,"ĠpropÃ³sito":7781,"ĠmÃºltiples":7782,"Ġculp":7783,"ĠCuatro":7784,"Ġsuje":7785,"Ġconsumidores":7786,"ĠCat":7787,"Ġconferencia":7788,"Ġreivindic":7789,"ĠrecesiÃ³n":7790,"Ġamenazas":7791,"Ġcari":7792,"Ġthis":7793,"Ġhoteles":7794,"Ġfallo":7795,"Ġinsul":7796,"Ġretirada":7797,"Ġoficio":7798,"Ġpoca":7799,"ruecos":7800,"Ġzapatos":7801,"Ġindemn":7802,"Ġnegativa":7803,"Ġpiden":7804,"Ġcerebro":7805,"Ġestric":7806,"Ġisrael":7807,"ĠPuede":7808,"ĠXXI":7809,"ĠcambiÃ³":7810,"ĠPujol":7811,"ĠRi":7812,"ĠartÃŃculos":7813,"Ġapuntan":7814,"ĠcÃ©":7815,"istos":7816,"Ġpintura":7817,"econ":7818,"ĠDom":7819,"ĠMarruecos":7820,"ĠAir":7821,"ĠclÃŃn":7822,"zon":7823,"enco":7824,"Ã³cra":7825,"Ġheridos":7826,"plica":7827,"ĠCul":7828,"Ġtari":7829,"ĠUnos":7830,"ĠKar":7831,"ĠexplotaciÃ³n":7832,"ĠâĢľÂ¡":7833,"Ġinvierno":7834,"Ġmantenimiento":7835,"Ġmultitud":7836,"Ġreina":7837,"ficiencia":7838,"Ġdenuncias":7839,"gio":7840,"Ġcostum":7841,"Ġdigo":7842,"ĠCristiano":7843,"Ġcomedia":7844,"Ġsetenta":7845,"',":7846,"ĠtÃ©cnicas":7847,"Hemos":7848,"ĠTimes":7849,"Ġdejaron":7850,"Ġemig":7851,"Ġsupera":7852,"Ġimputados":7853,"Ġestall":7854,"Ġelevado":7855,"mato":7856,"Ġuniversal":7857,"Ġfemin":7858,"toÃ±o":7859,"Ġcolegios":7860,"Ġturno":7861,"Ġiglesia":7862,"Ġacaban":7863,"Ġactivo":7864,"Ġaver":7865,"Ġdesapareci":7866,"Ġchicos":7867,"Ġsacri":7868,"Ġbajar":7869,"Ġechar":7870,"Ġnecesarios":7871,"paÃ±as":7872,"ĠvacÃŃo":7873,"ĠSue":7874,"Ġruptura":7875,"Ġpic":7876,"Ġbasura":7877,"Ġrespaldo":7878,"Ġformato":7879,"ĠTar":7880,"ĠNavarro":7881,"Ã²":7882,"Ġpatronal":7883,"Ġdevolver":7884,"Ġquedaron":7885,"Ġgigante":7886,"Ġcriterio":7887,"Ġtratado":7888,"Ġadquis":7889,"Ġinsu":7890,"ĠVigo":7891,"Ġdirigida":7892,"Ġsencillo":7893,"ĠsiguiÃ³":7894,"Ġultra":7895,"Ġprimavera":7896,"Ġenfrenta":7897,"Ġemergencia":7898,"Ġfarma":7899,"Ġaument":7900,"Ġgrados":7901,"Ġregistrado":7902,"Ġlech":7903,"ĠOn":7904,"Ġfilme":7905,"Ġtragedia":7906,"ositor":7907,"Ã³lica":7908,"ĠhectÃ¡":7909,"Ġabusos":7910,"itores":7911,"Ġponerse":7912,"lada":7913,"Ġhumil":7914,"Ġlevantar":7915,"ey":7916,"Ġcuerpos":7917,"Ġconces":7918,"tizado":7919,"Ġsufre":7920,"Ġlanzar":7921,"Ġblanca":7922,"Ġcuadro":7923,"ĠrÃ¡pida":7924,"Ġchica":7925,"Ġejercer":7926,"ĠAcademia":7927,"ĠPrimero":7928,"Ġllaman":7929,"Son":7930,"Ġcomienzo":7931,"Ġencuesta":7932,"Ġape":7933,"ĠConcierto":7934,"Ġllamadas":7935,"ĠadmitiÃ³":7936,"Ġans":7937,"rida":7938,"ford":7939,"Ġcerem":7940,"Ġgastron":7941,"ĠexpansiÃ³n":7942,"inete":7943,"derÃ¡":7944,"ĠPaz":7945,"Ġonline":7946,"ĠescaÃ±os":7947,"Ġquis":7948,"Ġpersonalidad":7949,"ĠdestacÃ³":7950,"âĢĻ.":7951,"Ġace":7952,"Ġdisminu":7953,"Ġpiloto":7954,"ĠVie":7955,"quir":7956,"ĠCalifornia":7957,"ĠtransformaciÃ³n":7958,"Ġmet":7959,"Ġconvencido":7960,"iner":7961,"Ġespectador":7962,"199":7963,"radu":7964,"Ġnaturales":7965,"Ġsalen":7966,"Ġcuel":7967,"ĠVar":7968,"ĠfrÃŃo":7969,"segur":7970,"bieran":7971,"Ġesperaba":7972,"Ġentradas":7973,"Ġprioridad":7974,"ĠhÃ¡bi":7975,"Ġsolidaridad":7976,"tander":7977,"Ġexplicaciones":7978,"Ġamarilla":7979,"37":7980,"âĢĻ,":7981,"Ġrecin":7982,"ĠDesarrollo":7983,"Ġcobrar":7984,"Ġparad":7985,"Ġconocidos":7986,"ĠNavidad":7987,"ĠMossos":7988,"Ġcrecido":7989,"Ġbasta":7990,"Ġcomunes":7991,"Ġtramo":7992,"Ġfranceses":7993,"ĠComer":7994,"Ġtap":7995,"orld":7996,"udicial":7997,"ĠCorea":7998,"ĠprovocÃ³":7999,"Ġnumerosas":8000,"ĠCamps":8001,"Ġsexuales":8002,"ĠSha":8003,"ĠDal":8004,"adio":8005,"Ġhagan":8006,"ĠIndust":8007,"goza":8008,"arme":8009,"Ġrojo":8010,"ĠCasi":8011,"cionÃ³":8012,"Ġsobres":8013,"Ġmascul":8014,"Ġaprovechar":8015,"Ã³nicos":8016,"Ġmapa":8017,"Ġbanquillo":8018,"Ġacredi":8019,"vide":8020,"tem":8021,"ĠdueÃ±o":8022,"Ġmalos":8023,"Ġasistentes":8024,"Ġmicro":8025,"ĠNieto":8026,"ĠTenemos":8027,"Ġcober":8028,"Ġrecurrir":8029,"ĠPra":8030,"dy":8031,"ĠalcanzÃ³":8032,"Ġvenir":8033,"Ġcartas":8034,"utri":8035,"ding":8036,"ijÃ³":8037,"Ġemisiones":8038,"ĠdesafÃŃo":8039,"ĠAdministraciones":8040,"icano":8041,"ĠRaÃºl":8042,"ĠpoesÃŃa":8043,"ĠCalder":8044,"'s":8045,"ierta":8046,"Ġsucedido":8047,"ferencias":8048,"Ġkilos":8049,"Ġalternativas":8050,"Ġmilitantes":8051,"Ġdud":8052,"Ġcicl":8053,"Ġsupo":8054,"Ġpersegu":8055,"ĠCoruÃ±a":8056,"Ġmerece":8057,"ĠautonÃ³mico":8058,"idel":8059,"Ġvuelo":8060,"ĠAla":8061,"ecÃŃan":8062,"dimos":8063,"Ġencu":8064,"ĠÃ¡nimo":8065,"way":8066,"Ġpasajeros":8067,"Ġdeclarar":8068,"ĠhÃ©ro":8069,"Ġcolectiva":8070,"Ġempezado":8071,"Ġexactamente":8072,"Ġbarcel":8073,"Ġejemplos":8074,"Ġalemanes":8075,"Ġfascin":8076,"Ġrostro":8077,"ĠCe":8078,"Ġofens":8079,"aunque":8080,"Ġarma":8081,"Ġfrecuencia":8082,"Ġtermina":8083,"crito":8084,"Ġvieja":8085,"depen":8086,"Ġmach":8087,"mann":8088,"Ġdescanso":8089,"Ġasistencias":8090,"ĠautonÃ³mica":8091,"ĠcrÃŃticos":8092,"Ġlamenta":8093,"ĠelectrÃ³nico":8094,"Ġhumanidad":8095,"Ġempleos":8096,"Ġimporte":8097,"Ġrecientes":8098,"Ġbeen":8099,"ĠclimÃ¡tico":8100,"Ġyear":8101,"ĠSegunda":8102,"ĠampliaciÃ³n":8103,"Ġdecor":8104,"Ġdesat":8105,"udÃŃ":8106,"Ġagru":8107,"Ġacusados":8108,"Ġsesenta":8109,"ritos":8110,"Ġrepublicano":8111,"todos":8112,"ÃŃtico":8113,"Ġprepara":8114,"Ġeliminar":8115,"Ġ#":8116,"cionada":8117,"izan":8118,"Ġpresidencial":8119,"Ġcomenzar":8120,"muy":8121,"caden":8122,"Ġsalario":8123,"ĠAhÃŃ":8124,"ĠdifÃŃciles":8125,"Ġcuota":8126,"Ġpensando":8127,"twitter":8128,"ÃŃmp":8129,"Ġrespuestas":8130,"ĠilusiÃ³n":8131,"Ġtorneo":8132,"Ġtercio":8133,"ĠApple":8134,"Ġbandas":8135,"Ġencontraba":8136,"Ġhid":8137,"ĠBankia":8138,"Ġquinto":8139,"Ġatribu":8140,"Ġespectacular":8141,"ijÃ³o":8142,"Ġcontinuidad":8143,"Ġmente":8144,"ight":8145,"Ġcuyas":8146,"Ġurbano":8147,"Ġinstituto":8148,"ĠHemos":8149,"Ġcalcula":8150,"Ġdespre":8151,"Ã¶":8152,"Su":8153,"ĠCE":8154,"Ġsensa":8155,"daje":8156,"Ġservir":8157,"Ġcursos":8158,"38":8159,"Ġhambre":8160,"cita":8161,"ĠBi":8162,"ĠEncuent":8163,"ĠUP":8164,"ĠMaria":8165,"ĠdimisiÃ³n":8166,"Ġsupuesta":8167,"ĠPlaza":8168,"Ġwhich":8169,"Ġbut":8170,"ĠMag":8171,"Ġmedic":8172,"Ġconsigue":8173,"Ġingles":8174,"Ã³rdo":8175,"Ġresume":8176,"Ġespeciales":8177,"Ġsuyos":8178,"ablemente":8179,"Ġnacimiento":8180,"Ġanalistas":8181,"Ġincent":8182,"Ġpaciente":8183,"Ġempezaron":8184,"tive":8185,"radas":8186,"misiÃ³n":8187,"Ġniega":8188,"Ġtrato":8189,"istar":8190,"?âĢĿ.":8191,"ĠBon":8192,"Ġhubiese":8193,"Ġdiscipl":8194,"Ġmezcl":8195,"Ġpublici":8196,"ĠconexiÃ³n":8197,"Ġmanio":8198,"Ġantiguos":8199,"ĠFeder":8200,"Ġtier":8201,"ĠdesapariciÃ³n":8202,"Ġpales":8203,"ĠotoÃ±o":8204,"Ġtarjeta":8205,"Ġtoro":8206,"ĠfilosofÃŃa":8207,"Ġinevitable":8208,"Ġparticipantes":8209,"ĠBolsa":8210,"tul":8211,"ĠhablÃ³":8212,"Ġcarb":8213,"grÃ¡fica":8214,"Ġcrece":8215,"adilla":8216,"ĠChÃ¡":8217,"Ġorgullos":8218,"ĠfÃ¡brica":8219,"ĠcampaÃ±as":8220,"Ġmoneda":8221,"Ġconsejera":8222,"ĠMed":8223,"Ġruido":8224,"ĠAsia":8225,"ĠLatino":8226,"ÃŃgen":8227,"Ġben":8228,"Ġfruto":8229,"ĠInvesti":8230,"):":8231,"Ġindependentistas":8232,"ĠFomento":8233,"ĠprofesiÃ³n":8234,"ĠFeijÃ³o":8235,"Ġpresidentes":8236,"ĠAznar":8237,"ĠSociedad":8238,"ĠÃģlvaro":8239,"ot":8240,"Ġtecho":8241,"urs":8242,"Ġavances":8243,"ĠGuin":8244,"Ġlit":8245,"Ġllor":8246,"ĠinmigraciÃ³n":8247,"Ġespalda":8248,"ag":8249,"ĠexplicaciÃ³n":8250,"ĠrenovaciÃ³n":8251,"ĠUGT":8252,"Ġextin":8253,"ĠHistoria":8254,"ĠAT":8255,"ĠsuspensiÃ³n":8256,"ĠOro":8257,"Ġbicic":8258,"zco":8259,"ĠcontrataciÃ³n":8260,"cÃº":8261,"Ġcumplimiento":8262,"Ġcorrer":8263,"Ġvistas":8264,"mal":8265,"arquÃŃa":8266,"UT":8267,"Ġple":8268,"ĠJunto":8269,"Ġanaliz":8270,"Ġdirectores":8271,"ĠconclusiÃ³n":8272,"ĠmÃ©todo":8273,"Ġitaliana":8274,"Ġhomos":8275,"Ã±oz":8276,"Ġeti":8277,"ĠMÃ¡r":8278,"Ġup":8279,"Ġfundamentales":8280,"Ġgalard":8281,"ĠPau":8282,"MA":8283,"Ġllegue":8284,"tuvieron":8285,"Ġculmin":8286,"ĠCerv":8287,"iri":8288,"Ġhomosex":8289,"Ġdiscos":8290,"Ġinstrumento":8291,"venir":8292,"ĠlÃ³gica":8293,"ĠCity":8294,"orca":8295,"ĠconcesiÃ³n":8296,"Ġsolv":8297,"brada":8298,"Ġdefine":8299,"Ġpaque":8300,"Ġterritorial":8301,"Ġpuente":8302,"rante":8303,"ĠRicardo":8304,"istema":8305,"39":8306,"cionalidad":8307,"ĠPresupuestos":8308,"Ġprevisiones":8309,"entada":8310,"dicas":8311,"Ġchico":8312,"ĠveÃŃa":8313,"Ġfij":8314,"Ġextrem":8315,"trans":8316,"Ġsostenible":8317,"Ġ120":8318,"ĠofreciÃ³":8319,"Ġ800":8320,"ĠBri":8321,"Ġcambia":8322,"zona":8323,"ĠCambi":8324,"Ġfortuna":8325,"Ġhogares":8326,"Ã³rdoba":8327,"ĠWil":8328,"Ġdificultad":8329,"Ġpalacio":8330,"ĠpreguntÃ³":8331,"kes":8332,"yeron":8333,"arlas":8334,"Ġsta":8335,"Ġreciben":8336,"ĠMis":8337,"Ġrumbo":8338,"ori":8339,"ĠFrances":8340,"ĠmÃºsico":8341,"Ġnovelas":8342,"Ġdijeron":8343,"ĠejecuciÃ³n":8344,"ĠeconomÃŃas":8345,"Ġterren":8346,"Ġimpresion":8347,"Ġconclusiones":8348,"itoria":8349,"Ġpensamiento":8350,"ĠPalau":8351,"Ġsubvenciones":8352,"ĠPoco":8353,"Ġpermita":8354,"Ġrecoger":8355,"ĠGil":8356,"Ġinteresa":8357,"ĠmontaÃ±a":8358,"Ġimpulso":8359,"ĠRoberto":8360,"Ġgesti":8361,"arcos":8362,"Ġquerer":8363,"Ġ85":8364,"Ahora":8365,"itando":8366,"lix":8367,"Ġprovoca":8368,"ĠCorte":8369,"Ġtelef":8370,"tn":8371,"Ġprovis":8372,"Ġ41":8373,"Ġsabido":8374,"gues":8375,"Ġcien":8376,"Ġsemej":8377,"Ġdejando":8378,"arnos":8379,"Ġgor":8380,"ĠSantander":8381,"Ġseguramente":8382,"tamiento":8383,"Ġadultos":8384,"Ġtheir":8385,"Ġllevaron":8386,"Ġavanzar":8387,"icen":8388,"lace":8389,"Ġbille":8390,"Ġcolon":8391,"Ã³lico":8392,"onesa":8393,"ĠrevisiÃ³n":8394,"Ġpeores":8395,"Ġprocedentes":8396,"ganos":8397,"ĠFederal":8398,"ÃŃe":8399,"ser":8400,"Ġexceso":8401,"ĠCanadÃ¡":8402,"Ġnecesarias":8403,"Ġacor":8404,"lum":8405,"ĠhectÃ¡reas":8406,"Ġdedica":8407,"ĠestarÃŃa":8408,"ĠAsturias":8409,"ezas":8410,"ĠBildu":8411,"Ġterminado":8412,"ĠinstalaciÃ³n":8413,"ĠChÃ¡vez":8414,"rtel":8415,"Ġalej":8416,"ĠSÃ¡":8417,"bernam":8418,"Ġjornadas":8419,"ĠreligiÃ³n":8420,"ĠAg":8421,"tela":8422,"ĠCalderÃ³n":8423,"Ġ49":8424,"ĠVall":8425,"Ġaumentado":8426,"Ġutiliza":8427,"vado":8428,"Ġcontaba":8429,"Ġabordar":8430,"Ġfrenar":8431,"Ġizquierdas":8432,"Ġtestigo":8433,"gido":8434,"ĠRev":8435,"Ġrepresentan":8436,"Ġcelebrado":8437,"Ġdispone":8438,"abe":8439,"ralia":8440,"Ġtextos":8441,"Ġnoches":8442,"ciencia":8443,"ĠVuelta":8444,"Ġnaz":8445,"ĠBru":8446,"ĠobstÃ¡":8447,"Ġescrib":8448,"grama":8449,"Ġmultina":8450,"Ġevent":8451,"Ġelectri":8452,"Ġlimpieza":8453,"Ġ250":8454,"ĠIndi":8455,"ĠMour":8456,"ĠNet":8457,"Ġaer":8458,"Ġsentimiento":8459,"Ġcometido":8460,"Ġactiva":8461,"Ġresal":8462,"Ġhad":8463,"Ġtareas":8464,"ĠMuÃ±oz":8465,"Ġmecanismos":8466,"Ġfechas":8467,"Ġrap":8468,"ĠdiscusiÃ³n":8469,"ĠvÃŃdeos":8470,"Ġ1999":8471,"abora":8472,"Ġgestionar":8473,"Âª":8474,"enzo":8475,"Ġviendo":8476,"ĠOriente":8477,"ĠNobel":8478,"ĠSuiza":8479,"Ġdomicilio":8480,"jal":8481,"ctur":8482,"Ġpropietarios":8483,"Ġfuese":8484,"Ġgobernador":8485,"ĠresultÃ³":8486,"roga":8487,"ĠextraÃ±o":8488,"ĠTierra":8489,"Ġcha":8490,"ĠEsquer":8491,"ĠduraciÃ³n":8492,"ocos":8493,"ĠClub":8494,"uerta":8495,"Ġinfin":8496,"Ġfutbolistas":8497,".,":8498,"wer":8499,"ĠIber":8500,"Ġinvestigar":8501,"ĠGÃ¼rtel":8502,"temp":8503,"ĠNÃº":8504,"Ġexal":8505,"Ġempie":8506,"Ġganador":8507,"ĠconsiderÃ³":8508,"Ġburbu":8509,"Ġflor":8510,"lando":8511,"Ġdesempe":8512,"Ġincluir":8513,"rus":8514,"anca":8515,"igma":8516,"ĠdenunciÃ³":8517,"Ġlluvia":8518,"ĠAdri":8519,"300":8520,"ua":8521,"ganda":8522,"Ġcola":8523,"ĠÃºnicamente":8524,"iamente":8525,"Ġnombra":8526,"Ġcen":8527,"Ġefectivo":8528,"Ġliqu":8529,"Ġmodern":8530,"Ġseres":8531,"ĠLunes":8532,"Ġcoh":8533,"urado":8534,"Ġartic":8535,"ĠacudiÃ³":8536,"ics":8537,"ĠEmpleo":8538,"Ġinterno":8539,"ĠcelebrÃ³":8540,"Ġeventos":8541,"ĠclasificaciÃ³n":8542,"33":8543,"ĠmÃŃnima":8544,"Ġconcer":8545,"ĠMiami":8546,"tamen":8547,"Ġgobernar":8548,"Ġinesper":8549,"ĠÃĵ":8550,"Ġilum":8551,"Ġalmacen":8552,"Ġinstrumentos":8553,"Ġpura":8554,"Ġdecide":8555,"Ġpatro":8556,"tarÃ¡n":8557,"RO":8558,"47":8559,"icar":8560,"Ġorganismos":8561,"Ġcolum":8562,"Ġbrutal":8563,"ĠSpanish":8564,"Ġaparc":8565,"Ġexperiencias":8566,"Ġrecuerdan":8567,"landa":8568,"ĠJoaquÃŃn":8569,"Ġdispuestos":8570,"xit":8571,"Ġprevio":8572,"queo":8573,"ĠLeon":8574,"ĠMont":8575,"ĠCÃ¡diz":8576,"Ġrehabil":8577,"Ġeficaz":8578,"ĠBay":8579,"Ġencuentros":8580,"Ġalcaldes":8581,"Ġdedicada":8582,"ĠclÃ¡sicos":8583,"ĠEdi":8584,"Ġpetrol":8585,"cloa":8586,"lex":8587,"Ġadolescentes":8588,"Ġregul":8589,"ĠWest":8590,"ocas":8591,"Ġexportaciones":8592,"ĠBill":8593,"ĠocupaciÃ³n":8594,"ĠalegrÃŃa":8595,"Ġreforzar":8596,"cÃ³n":8597,"Ġemit":8598,"egas":8599,"ĠAlfredo":8600,"ĠhacÃŃan":8601,"ĠArtes":8602,"Ġrelacionados":8603,"Ġpropietario":8604,"Ġocurrir":8605,"QuiÃ©n":8606,"chado":8607,"Ġcensura":8608,"unos":8609,"Ya":8610,"Ġcobertura":8611,"Ġinn":8612,"Ġsecues":8613,"Ã¡les":8614,"urar":8615,"Ġrecauda":8616,"ĠZaragoza":8617,"Ġjustific":8618,"ĠOO":8619,"ĠenseÃ±anza":8620,"dea":8621,"Ġfija":8622,"ĠdomÃ©st":8623,"],":8624,"Ġhabituales":8625,"Ġ52":8626,"Ġsuperiores":8627,"Ġsonrisa":8628,"Ġconservador":8629,"ĠbrasileÃ±o":8630,"Ġabsolutamente":8631,"asiÃ³n":8632,"Ġrecomenda":8633,"Ġexcelente":8634,"ĠMurcia":8635,"Ġexigir":8636,"Ġincrement":8637,"Ġnacionalista":8638,"Ġparticulares":8639,"pla":8640,"Ġviviendo":8641,"ĠRamos":8642,"ĠgarantÃŃas":8643,"Ġsecu":8644,"ĠMoncloa":8645,"Ġsorprendente":8646,"Ġjazz":8647,"Ġprofundidad":8648,"ĠPaco":8649,"ĠMarcel":8650,"uo":8651,"Ġtemor":8652,"Ġtraspas":8653,"ĠquÃŃm":8654,"Ġsolitario":8655,"ĠJon":8656,"sula":8657,"dimientos":8658,"Ġtoque":8659,"55":8660,"letic":8661,"ĠMourinho":8662,"Ġsanitario":8663,"Ġjuventud":8664,"Ġatentados":8665,"ĠsÃŃmbolo":8666,"Ġlegado":8667,"ĠmarcÃ³":8668,"Ġilegales":8669,"Ġcorta":8670,"Ġreivindica":8671,"Ġabiertas":8672,"Ġejecutiva":8673,"Ġemocional":8674,"Ġjunta":8675,"Ġheridas":8676,"quinas":8677,"Ġhttps":8678,"Ġcumplido":8679,"ĠBut":8680,"ĠapariciÃ³n":8681,"thletic":8682,"ĠHabÃŃa":8683,"Ġroja":8684,"Ġeduc":8685,"ĠComitÃ©":8686,"ĠcuÃ¡ndo":8687,"ĠprogramaciÃ³n":8688,"Ġprevia":8689,"ĠcrÃ©ditos":8690,"Ġcomentarios":8691,"He":8692,"Ġaliv":8693,"tinos":8694,"Ġrelevante":8695,"Ġviajeros":8696,"Ġaporta":8697,"Ġanoche":8698,"ĠAlba":8699,"Ġpudieron":8700,"ning":8701,"Ġsanitaria":8702,"Ġdespren":8703,"Ġfacturas":8704,"tito":8705,"Ġlegalidad":8706,"ampions":8707,"Ġmadres":8708,"Ġtriste":8709,"CA":8710,"III":8711,"ĠInfor":8712,"ĠCarles":8713,"yan":8714,"ĠGlo":8715,"Ġpublicar":8716,"Ġfutbolista":8717,"Ġrecinto":8718,"Ġcrimin":8719,"ĠÃ³rdenes":8720,"ĠVÃŃctor":8721,"Ġmontaje":8722,"ĠDor":8723,"Ġquie":8724,"Ġprevista":8725,"ĠPalma":8726,"Ġtranscur":8727,"ĠMarta":8728,"Ġdiputada":8729,"Ġdiarios":8730,"Ġ\"Â¿":8731,"hen":8732,"Ġvay":8733,"Ġmillon":8734,"umiÃ³":8735,"crania":8736,"Ġanci":8737,"].":8738,"ĠjurÃŃdica":8739,"alista":8740,"ĠStreet":8741,"Ġ,":8742,"Ġinvolu":8743,"Ġdestacado":8744,"Ġcantidades":8745,"Ġemble":8746,"ĠCara":8747,"Ġgobier":8748,"ĠVil":8749,"Ġ56":8750,"Ġingenier":8751,"Ġaconse":8752,"Ġdarse":8753,"ĠCola":8754,"ĠconcluyÃ³":8755,"Ġhisp":8756,"ĠcÃºpula":8757,"Ġcubier":8758,"Ġcarreras":8759,"vimos":8760,"Ġchicas":8761,"Ġconductor":8762,"ĠSÃ¡bado":8763,"Ġcandidata":8764,"Ġreporta":8765,"48":8766,"Ġveinte":8767,"Ġenormes":8768,"Ġcuri":8769,"Ġconfirmado":8770,"Ġarbi":8771,"my":8772,"Ġmueve":8773,"ĠAyuntamientos":8774,"ĠbritÃ¡nicos":8775,"ast":8776,"Ġparados":8777,"Ġpunta":8778,"Ġimpulsar":8779,"Ġdelincu":8780,"ĠSilva":8781,"Ġprecip":8782,"...)":8783,"Ġredac":8784,"Ġwere":8785,"ĠMetro":8786,"ĠDerechos":8787,"Ġdesvel":8788,"Ġconfirma":8789,"Ġdul":8790,"ĠMic":8791,"izadas":8792,"iero":8793,"amar":8794,"Ã³nimo":8795,"Ġescul":8796,"trar":8797,"Ġcompras":8798,"ancial":8799,"ĠJueves":8800,"ĠViernes":8801,"ĠCastellÃ³n":8802,"Ġdiagn":8803,"Ġensayo":8804,"oras":8805,"Ġmuro":8806,"vol":8807,"Ġdefinitivo":8808,"ĠMunicip":8809,"Ġdelantero":8810,"Ġciudadana":8811,"Ar":8812,"Ġcontempla":8813,"Ġestil":8814,"ĠGuiller":8815,"SA":8816,"Ġces":8817,"Ġvemos":8818,"ĠcientÃŃfico":8819,"ĠtÃŃp":8820,"Ġcorreo":8821,"Ġconsejeros":8822,"uth":8823,"Ġmexicanos":8824,"Ġletras":8825,"Tenemos":8826,"ĠBarack":8827,"Ġabund":8828,"ĠElena":8829,"quidez":8830,"ĠimpresiÃ³n":8831,"Ġcomparecencia":8832,"Ġunidades":8833,"Ġmani":8834,"Ġsiglas":8835,"ĠSusana":8836,"Ġmedias":8837,"Ġsiga":8838,"Ġterritorios":8839,"ĠCÃ³rdoba":8840,"Esta":8841,"Ġjer":8842,"ĠMoscÃº":8843,"ĠPutin":8844,"Ġalza":8845,"ĠNeg":8846,"ĠLeg":8847,"Ġaspira":8848,"ĠPrin":8849,"Ġconjunta":8850,"kÃŃn":8851,"adra":8852,"diales":8853,"Ġcobra":8854,"Ġprecisa":8855,"ciende":8856,"tones":8857,"roquÃŃ":8858,"ĠDE":8859,"tienden":8860,"ĠcapitÃ¡n":8861,"lÃ¡mico":8862,"Ġextraordinario":8863,"Ġeducativo":8864,"Ġconstruido":8865,"Ġciertos":8866,"Ġpertenece":8867,"Ġenfrentamiento":8868,"Ġirregularidades":8869,"Ġmaravill":8870,"PA":8871,"ĠserÃŃan":8872,"Ġpuntu":8873,"Ġelaborado":8874,"ĠLou":8875,"Ġpose":8876,"Ġaparato":8877,"olÃ¡s":8878,"Ġsufren":8879,"Ġconocen":8880,"Ġjuegos":8881,"Ġparlamentarios":8882,"Ġtru":8883,"Ġmagistrado":8884,"ĠMej":8885,"Ġpagan":8886,"Ġdenunciar":8887,"Ġemergentes":8888,"Ġreglam":8889,"ĠsecciÃ³n":8890,"ĠHospital":8891,"Ġsienten":8892,"Ġsupervis":8893,"ĠMÃ¡rquez":8894,"Ġsiguientes":8895,"Ġcompromisos":8896,"ĠMall":8897,"ĠPÃºbl":8898,"ĠÃ©x":8899,"46":8900,"ĠsumÃ³":8901,"Ġanima":8902,"Ġrendimiento":8903,"ĠPuerto":8904,"ania":8905,"loria":8906,"ĠUnida":8907,"ĠIrlanda":8908,"Ġmental":8909,"ĠPapa":8910,"ĠsalÃ³n":8911,"ĠAndre":8912,"ĠcontinuaciÃ³n":8913,"ĠIzquier":8914,"Ġrevela":8915,"usse":8916,"cau":8917,"Ġincendio":8918,"ĠÃŃ":8919,"ĠLan":8920,"Ġprevisible":8921,"Ġentregar":8922,"Ġanticip":8923,"inaria":8924,"ĠestÃ¡s":8925,"Ġlej":8926,"Ġfilas":8927,"Ġmecanismo":8928,"ĠvÃŃn":8929,"oo":8930,"Ġprobar":8931,"Ġferro":8932,"ĠRichard":8933,"Ġ.":8934,"Ġveg":8935,"abell":8936,"Ġdesh":8937,"ped":8938,"ĠXavier":8939,"Ġincluidos":8940,"ĠPrimera":8941,"Ġcercana":8942,"Ġvestuario":8943,"ĠVe":8944,"ders":8945,"Ġsobr":8946,"ĠFinalmente":8947,"Ġprestigio":8948,"?,":8949,"Esto":8950,"Ġtestigos":8951,"Ġpatrocin":8952,"Ġjuven":8953,"Ġcinemato":8954,"Ġclubes":8955,"iense":8956,"Ġtoler":8957,"Ġnacionalismo":8958,"Ġsepara":8959,"Ġrevolucion":8960,"Ġespecies":8961,"ÃŃv":8962,"Ġretos":8963,"ĠAustralia":8964,"ĠGirona":8965,"Ġinvestigador":8966,"ĠPenal":8967,"eco":8968,"ĠDar":8969,"bilizar":8970,"Ġpintor":8971,"Ġparedes":8972,"ĠHolanda":8973,"ocal":8974,"Ġterrenos":8975,"Ã©ramos":8976,"ĠMerce":8977,"ĠapuntÃ³":8978,"sar":8979,"Ġcuidad":8980,"ings":8981,"Ġ57":8982,"Ġvieron":8983,"Ġentrado":8984,"Ġcomisario":8985,"ĠIb":8986,"ĠolÃŃmp":8987,"ĠMartes":8988,"Ġordenador":8989,"ĠcientÃŃfica":8990,"Ġimponer":8991,"cidas":8992,"ĠbÃ¡sicos":8993,"Ġdr":8994,"Desde":8995,"âĤ":8996,"Ġhubieran":8997,"Ġ05":8998,"Ġimpac":8999,"ĠnÃºc":9000,"Ġsupuestos":9001,"Ġrelo":9002,"ĠGuer":9003,"Ġdeterminar":9004,"ĠartÃŃstico":9005,"Ġ54":9006,"Ġeng":9007,"Ġdiciendo":9008,"âĤ¬":9009,"Ġsuperado":9010,"Ġmovilidad":9011,"Ġom":9012,"Ġleyenda":9013,"ĠPekÃŃn":9014,"Ġpresidenciales":9015,"Ġaguan":9016,"ny":9017,"Ġmedioambi":9018,"Ġcerv":9019,"ĠChampions":9020,"tecciÃ³n":9021,"ĠViajero":9022,"ĠVa":9023,"ĠArm":9024,"ĠsoberanÃŃa":9025,"Ġmatr":9026,"ĠromÃ¡n":9027,"ĠTodas":9028,"Ġenemigo":9029,"irch":9030,"cons":9031,"Ġfri":9032,"Ġaliento":9033,"Ġconfies":9034,"Ġcineasta":9035,"Ġutilizado":9036,"ĠAÃºn":9037,"Ġjurado":9038,"Ġimprovis":9039,"Ġdebates":9040,"Ġaparte":9041,"Ġinfluy":9042,"Ġgenerado":9043,"Ġnave":9044,"ĠsÃŃnt":9045,"ĠÃ¡rabe":9046,"Ġsirven":9047,"Ġpobl":9048,"gÃ¼en":9049,"Ġfirmar":9050,"crÃŃbe":9051,"zale":9052,"Ġdesesper":9053,"Ġjubil":9054,"Ġcomisiones":9055,"600":9056,"Ã¡ticamente":9057,"bs":9058,"ĠHill":9059,"Ġpreguntar":9060,"Ġaprobada":9061,"crÃŃbete":9062,"ĠMol":9063,"Ġcuento":9064,"400":9065,"ID":9066,"Ġpion":9067,"Ġformaciones":9068,"Ġbrazos":9069,"Ġidioma":9070,"Ġradic":9071,"ĠaÃ±adir":9072,"Ġx":9073,"ĠEsquerra":9074,"ĠLis":9075,"Ġimpide":9076,"Ġvigilancia":9077,"Ġprefiere":9078,"RA":9079,"Ġconcejales":9080,"ĠCD":9081,"Ġyou":9082,"Ġlicencia":9083,"Ġeres":9084,"idiÃ³":9085,"Ġapell":9086,"Ġcaras":9087,"ĠGabriel":9088,"Ġherramienta":9089,"ĠGuillermo":9090,"Ġportero":9091,"ĠconociÃ³":9092,"Ġrenuncia":9093,"ĠadaptaciÃ³n":9094,"ĠSecre":9095,"Ġprotagonismo":9096,"Ġfuga":9097,"ĠsirviÃ³":9098,"ĠpermitirÃ¡":9099,"istado":9100,"Ġescapar":9101,"Ġintentado":9102,"Ġ09":9103,"Ġclaves":9104,"zy":9105,"Ġbols":9106,"Ġjustificar":9107,"Ġune":9108,"Ġplatos":9109,"Ġcredibilidad":9110,"red":9111,"Ġadquir":9112,"Ġpostura":9113,"Ġafectado":9114,"here":9115,"Ġperiodismo":9116,"ĠdefiniciÃ³n":9117,"ARC":9118,"bida":9119,"Ġrealiza":9120,"ĠposesiÃ³n":9121,"Ġviejos":9122,"Ġreserva":9123,"Ġbaile":9124,"Hace":9125,"Ġhim":9126,"Ġ700":9127,"diera":9128,"ĠmÃ¡r":9129,"Ġalianza":9130,"grÃ¡fico":9131,"ĠRespuesta":9132,"Ġaden":9133,"beros":9134,"Ġdescribe":9135,"pal":9136,"Ã³sitos":9137,"omÃŃas":9138,"Ġeficacia":9139,"istencia":9140,"Ġopiniones":9141,"Ġretrato":9142,"pens":9143,"Ġfamosa":9144,"Ġ68":9145,"traciÃ³n":9146,"Ġsecretos":9147,"Ġvigente":9148,"Ġcombust":9149,"Ġcertific":9150,"Ġretraso":9151,"ĠTVE":9152,"ĠestarÃ¡n":9153,"orro":9154,"Ġtierras":9155,"Ġapoyos":9156,"Ġarena":9157,"Ġsuger":9158,"Ġgiro":9159,"ĠMediterrÃ¡neo":9160,"ife":9161,"Ġmari":9162,"ĠNou":9163,"Ġregresar":9164,"Ġleche":9165,"ĠEncuentra":9166,"ĠaficiÃ³n":9167,"ĠÃ©ste":9168,"ĠRen":9169,"Ġmanifestantes":9170,"Ġore":9171,"Ġurgencia":9172,"ĠAlcal":9173,"Ġneu":9174,"Ġdesplie":9175,"Ġparticipado":9176,"cÃ¡n":9177,"Ġbrazo":9178,"ĠIntÃ©rpretes":9179,"Ġfall":9180,"Ġdiversidad":9181,"Ġodio":9182,"Ġseguros":9183,"Ġjuzgados":9184,"EE":9185,"ĠfederaciÃ³n":9186,"Ġrentabilidad":9187,"Ġarque":9188,"Ġreferente":9189,"pany":9190,"Ġqueja":9191,"Ġcorpora":9192,"ĠcrÃŃmenes":9193,"Ġmatar":9194,"gaba":9195,"ĠInstra":9196,"iesta":9197,"ĠInstragram":9198,"quero":9199,"Ġantic":9200,"Ġcoincide":9201,"Ġsoberanista":9202,"ĠMiÃ©rcoles":9203,"ĠLorenzo":9204,"ĠinstrucciÃ³n":9205,"Ġ01":9206,"Ġorganiza":9207,"vergÃ¨ncia":9208,"Ġmete":9209,"Ġmila":9210,"Ġdesastre":9211,"itz":9212,"Ġliberal":9213,"Ġhabitaciones":9214,"fera":9215,"Ġherramientas":9216,"ĠDec":9217,"Ġnegros":9218,"ĠGuardiola":9219,"Ġcadenas":9220,"ĠAut":9221,"ĠdeberÃ¡n":9222,"gipto":9223,"Ġdesaparecido":9224,"ĠcÃ³m":9225,"ĠCaja":9226,"Ġpreparado":9227,"Ġepisodios":9228,"unciÃ³n":9229,"ĠaportaciÃ³n":9230,"Ġ51":9231,"Ġbasado":9232,"ĠsuscrÃŃbete":9233,"Ġpresunto":9234,"ĠTeresa":9235,"eses":9236,"Ġfur":9237,"ĠfusiÃ³n":9238,"ĠÃºtil":9239,"ĠFrank":9240,"top":9241,"ĠfirmÃ³":9242,"ĠÃ³pera":9243,"Ġrusa":9244,"Ġwe":9245,"grana":9246,"ĠconfirmÃ³":9247,"ĠmarroquÃŃ":9248,"Ġorganizar":9249,"reza":9250,"ĠRepu":9251,"Ġcomenzaron":9252,"ĠNicolÃ¡s":9253,"ĠPilar":9254,"Ġacud":9255,"Ġoscu":9256,"Ġgerente":9257,"ĠPeter":9258,"ĠmÃ¡quina":9259,"rias":9260,"ĠPolÃŃtica":9261,"Ġblancos":9262,"ĠestÃ©tica":9263,"LAS":9264,"Ġcartera":9265,"Ġdroga":9266,"Ġmuseos":9267,"Ġintervenciones":9268,"Ġbasada":9269,"ĠsucediÃ³":9270,"Ġproducen":9271,"ĠEcu":9272,"Ġtuviera":9273,"Ġservido":9274,"ĠbebÃ©":9275,"TE":9276,"Ġcama":9277,"Ġbau":9278,"Ġorgullo":9279,"its":9280,"Ġdesm":9281,"Ġimpa":9282,"ĠjardÃŃn":9283,"Ġaviones":9284,"Ġnegativo":9285,"NE":9286,"Ġexposiciones":9287,"ĠcontaminaciÃ³n":9288,"Ġproductores":9289,"Ġesperando":9290,"ĠAlgunas":9291,"Ġcoron":9292,"Ġconoz":9293,"Ġvasca":9294,"ĠMonte":9295,"Ġsh":9296,"unidad":9297,"Ġsuponen":9298,"Ġvicepresidenta":9299,"lus":9300,"Ġvuelos":9301,"Ġbonos":9302,"Ġaportar":9303,"Ġrecorrer":9304,"Ġmoderna":9305,"Ġcontactos":9306,"Ġcreciendo":9307,"Ġdicha":9308,"Ġsays":9309,"Ġiny":9310,"Ã¡ndole":9311,"ĠLatinoamÃ©rica":9312,"ĠautobÃºs":9313,"Quer":9314,"ciller":9315,"Ġrenunciar":9316,"ĠcÃ©le":9317,"Ġplacer":9318,"Ġaloj":9319,"Ġzan":9320,"Ġlib":9321,"Ġciertas":9322,"Ġhip":9323,"Ġaudio":9324,"Ġgubernam":9325,"Ġrequisitos":9326,"Ġmedal":9327,"Ġprofundo":9328,"ĠColau":9329,"Ġatro":9330,"cam":9331,"vieran":9332,"Ġaca":9333,"ĠAthletic":9334,"ĠVila":9335,"Ġmoto":9336,"tables":9337,"itana":9338,"Ġdesay":9339,"ĠartÃŃstica":9340,"remo":9341,"TV":9342,"ticiones":9343,"itadas":9344,"ĠPregunta":9345,"Ġincluyen":9346,"unas":9347,"Ġhago":9348,"uses":9349,"ĠCha":9350,"Ġprostitu":9351,"Ġpeligroso":9352,"irchner":9353,"ĠUcrania":9354,"Ġcreador":9355,"Ġpresentan":9356,"ĠYou":9357,"Ġesque":9358,"Ġpromover":9359,"Ġreti":9360,"Ġinmediata":9361,"Ġabsten":9362,"Ġlin":9363,"Ġdivis":9364,"Ġcanta":9365,"ciado":9366,"ĠguÃŃa":9367,"ĠCaixa":9368,"ĠpercepciÃ³n":9369,"Ġpropici":9370,"Ġtriple":9371,"ĠEstatu":9372,"Ġofertas":9373,"ĠtÃ¡c":9374,"enciales":9375,"Ġmoderno":9376,"Ġparejas":9377,"Ġreservas":9378,"gaciones":9379,"Ġexcepcional":9380,"ĠMercedes":9381,"Ġdesarrollado":9382,"Ġcircuito":9383,"49":9384,"Ġpositiva":9385,"Ġempleado":9386,"75":9387,"Ġmuertes":9388,"Ġvestido":9389,"32":9390,"Ġafirmado":9391,"Ġurgente":9392,"Ġendeud":9393,"Ġvalenciana":9394,"Ġespecialista":9395,"ĠhipÃ³":9396,"grado":9397,"ĠKe":9398,"ĠindicÃ³":9399,"Ġpreju":9400,"ĠhistÃ³ricos":9401,"Ġnormalidad":9402,"ĠrÃ¡pidamente":9403,"Ġcuadros":9404,"viendo":9405,"osten":9406,"Ġmalas":9407,"Ġacusa":9408,"Ġdije":9409,"kers":9410,"ÃŃdos":9411,"ĠdÃ©ci":9412,"Ġenamor":9413,"ĠMora":9414,"Ġpasaron":9415,"Ġesquina":9416,"Ġonce":9417,"Ġgravedad":9418,"Ġrural":9419,"Ġplane":9420,"riles":9421,"198":9422,"ub":9423,"fil":9424,"Ġnoctur":9425,"ĠcomparaciÃ³n":9426,"Ġentrevistas":9427,"Ġtera":9428,"Ġdignidad":9429,"Ġcoordinador":9430,"ander":9431,"uertos":9432,"Ġvesti":9433,"tades":9434,"Ġcalcul":9435,"ĠÃºnicos":9436,"ĠCin":9437,"ĠIma":9438,"Ġconscientes":9439,"Ġplas":9440,"Ġprovocar":9441,"Ġborde":9442,"Ġacoso":9443,"ĠinÃ©di":9444,"Ġaumenta":9445,"ĠacusÃ³":9446,"cinco":9447,"Ġdescubierto":9448,"hay":9449,"roso":9450,"Ġhablado":9451,"ĠharÃŃa":9452,"Ġlema":9453,"800":9454,"equi":9455,"ĠBrexit":9456,"Ġamistad":9457,"Ġrealizada":9458,"ĠincreÃŃble":9459,"gui":9460,"ĠCorrea":9461,"Ġempiezan":9462,"Ġgarantiz":9463,"Ġ66":9464,"ĠdestrucciÃ³n":9465,"Ġsupuso":9466,"ĠJaime":9467,"ĠConvergÃ¨ncia":9468,"The":9469,"mig":9470,"Ġcop":9471,"Ġviva":9472,"Ġrefuer":9473,"Ġiniciar":9474,"ĠAsuntos":9475,"formas":9476,"ĠturÃŃstico":9477,"Ġusuario":9478,"Ġcombate":9479,"ĠTV":9480,"Ġcomparte":9481,"Ġcriminal":9482,"ĠCO":9483,"ĠpareciÃ³":9484,"ĠjurÃŃdico":9485,"ĠjugÃ³":9486,"ĠmÃŃnimos":9487,"ĠtenÃŃamos":9488,"ĠMara":9489,"Ġregionales":9490,"Ġprovincias":9491,"ĠMancha":9492,"www":9493,"Ġabert":9494,"Ġtramp":9495,"ĠpÃºblicamente":9496,"Ġ58":9497,"Ġenviado":9498,"ĠERE":9499,"Ġcomprender":9500,"ĠEgipto":9501,"ĠrevÃ©s":9502,"Ġchoque":9503,"Ġojo":9504,"Ġquinta":9505,"Mu":9506,"Ġintroducir":9507,"Ġdestacan":9508,"Ġhablaba":9509,"Ġvirus":9510,"ĠTrabaj":9511,"ĠAD":9512,"uelto":9513,"Ġdenunciado":9514,"ĠFar":9515,"Ġespecu":9516,"ĠParece":9517,"Ġ1998":9518,"the":9519,"Hab":9520,"Todo":9521,"Ġliquidez":9522,"cista":9523,"rey":9524,"ĠcreciÃ³":9525,"Ġatractivo":9526,"ĠDemocr":9527,"gona":9528,"oluciones":9529,"Ġperfecta":9530,"ĠvolverÃ¡":9531,"Ġdesac":9532,"ĠMark":9533,"edes":9534,"Ġdesahu":9535,"ĠcontemporÃ¡neo":9536,"ĠIl":9537,"Ġamericano":9538,"ĠAgr":9539,"isco":9540,"ĠFMI":9541,"Ġ67":9542,"Ġrebaja":9543,"Ġdeca":9544,"Ġjap":9545,"Ġresidentes":9546,"ĠMarina":9547,"Ġaliados":9548,"ath":9549,"Ġocta":9550,"ĠDen":9551,"ĠmociÃ³n":9552,"Ġjefes":9553,"Ġbrillante":9554,"Ġfus":9555,"Ġplen":9556,"stein":9557,"ĠparaÃŃs":9558,"old":9559,"ĠAran":9560,"Ġpi":9561,"Ġimpre":9562,"Ġcarreteras":9563,"Ġdesemb":9564,"bitro":9565,"Fue":9566,"Ġpuro":9567,"ĠgarantÃŃa":9568,"Ġconfirm":9569,"Ġceremonia":9570,"resas":9571,"ĠPere":9572,"Ġvende":9573,"Ġencaj":9574,"Ġcomenzado":9575,"ĠComercio":9576,"Ġrescat":9577,"Ġnacionalidad":9578,"Ġtemporadas":9579,"Ġecu":9580,"Ġdeudas":9581,"ĠChica":9582,"ĠLlu":9583,"ganistÃ¡n":9584,"Ġconviene":9585,"Ġinmobiliaria":9586,"Ġmasa":9587,"yD":9588,"Ġdiscapa":9589,"hasta":9590,"Ġprede":9591,"Ġunifor":9592,"CuÃ¡n":9593,"Ġdespla":9594,"cÃ³mo":9595,"ĠLam":9596,"Ġchina":9597,"Ġchinos":9598,"ĠNosotros":9599,"Ġdecidieron":9600,"Ġprofesora":9601,"ĠStar":9602,"ducida":9603,"Ġfamosos":9604,"Ġexclusivamente":9605,"ĠelÃ©ctrica":9606,"Ġsist":9607,"Ġcopa":9608,"ĠemociÃ³n":9609,"Ġestructuras":9610,"ĠdimensiÃ³n":9611,"ĠÃ¡rboles":9612,"Ġnomin":9613,"ividad":9614,"Ġhorizonte":9615,"Ġjugando":9616,"Ġluces":9617,"presiÃ³n":9618,"Ġrecaud":9619,"low":9620,"Ġrotun":9621,"Ġtranspor":9622,"Ġcomparten":9623,"Ġecos":9624,"ulada":9625,"Ġinteligente":9626,"colo":9627,"Ġrent":9628,"gi":9629,"Ġaro":9630,"PF":9631,"ree":9632,"ĠJudicial":9633,"Ġmigra":9634,"ĠMallorca":9635,"Ġafectan":9636,"Ġbombar":9637,"ĠvivÃŃa":9638,"Ġislas":9639,"ensiones":9640,"ĠCÃ©s":9641,"Ġreferencias":9642,"Ġdormir":9643,"Ġsentimientos":9644,"Ġrecuerdos":9645,"Ġmutu":9646,"Ġpermanecer":9647,"tibles":9648,"Ġfinanciar":9649,"Ġprovincial":9650,"Ġdefinitivamente":9651,"Ġcamiseta":9652,"ons":9653,"Ġ95":9654,"Ġresiduos":9655,"Ġespecialistas":9656,"Ġobserva":9657,"Ġincluida":9658,"ĠVictoria":9659,"utas":9660,"isten":9661,"Ġsuena":9662,"olÃŃn":9663,"Ġgro":9664,"99":9665,"Ġpreside":9666,"Ġpasaba":9667,"Ġtropas":9668,"Ġsesiones":9669,"ificados":9670,"Ġfelicidad":9671,"ĠTrabajo":9672,"ĠlesiÃ³n":9673,"Ġremate":9674,"Ġpusieron":9675,"Ġrever":9676,"Ãģ":9677,"ĠÃ³rganos":9678,"Ġ1995":9679,"lim":9680,"posiciÃ³n":9681,"Ġseman":9682,"Ġobses":9683,"ĠperiÃ³dicos":9684,"Ġacontecimientos":9685,"ĠReina":9686,"Ġone":9687,"Ġterrible":9688,"Ã±Ã³n":9689,"ĠllegarÃ¡":9690,"ĠNavarra":9691,"trices":9692,"Ġdirigir":9693,"Ġdominio":9694,"Ġcontroles":9695,"Ġexigencia":9696,"Ġ2020":9697,"Ġemociones":9698,"Ġpagado":9699,"Ġseguimiento":9700,"ĠKim":9701,"EspaÃ±a":9702,"lados":9703,"ĠGracias":9704,"Barcelona":9705,"Como":9706,"ĠtrÃ¡mite":9707,"Ġcreada":9708,"Ġsentirse":9709,"Ġjugada":9710,"Ġaprendiz":9711,"Ġbron":9712,"ĠBeat":9713,"Ġoccidental":9714,"Ġbrin":9715,"Ġrodaje":9716,"Ġfui":9717,"ĠvenÃŃa":9718,"Ġfoco":9719,"Ġrentas":9720,"usto":9721,"Ġmaltra":9722,"Ġdemandas":9723,"Ã©ndez":9724,"31":9725,"Ġextraordinaria":9726,"Ġautora":9727,"Ġindependientes":9728,"Ġapas":9729,"MS":9730,"ĠNatur":9731,"Ġbancaria":9732,"gela":9733,"ĠRob":9734,"ĠreÃºne":9735,"ĠvaloraciÃ³n":9736,"Ġprecedentes":9737,"Ġplazos":9738,"ĠsacÃ³":9739,"Ġdebil":9740,"Ġpotente":9741,"Ġlaboratorio":9742,"Ġmulta":9743,"ĠRub":9744,"terÃŃas":9745,"ĠElec":9746,"rie":9747,"Ġentreten":9748,"NG":9749,"Ġcontado":9750,"ĠDur":9751,"ĠquerÃŃan":9752,"ĠGasol":9753,"Ġcore":9754,"Ġguardia":9755,"ĠMayor":9756,"Ġparada":9757,"ĠalcaldÃŃa":9758,"Ġmuestras":9759,"Ġburbuja":9760,"Ġpene":9761,"toro":9762,"ĠAfganistÃ¡n":9763,"ĠMolina":9764,"ĠBien":9765,"ĠBlas":9766,"Ġaclara":9767,"Ġrinc":9768,"ÃŃtimo":9769,"Ġtrabajador":9770,"Ġadolescente":9771,"Ġmalestar":9772,"Ġnovedad":9773,"Ġterremo":9774,"Ġdefinir":9775,"ĠÃŃndice":9776,"Ġelectricidad":9777,"ms":9778,"Ġpata":9779,"LL":9780,"Ġlegi":9781,"Ġingreso":9782,"ĠHabana":9783,"Ġcompetitividad":9784,"100":9785,"Ġencer":9786,"Ġsometer":9787,"Ġgeo":9788,"ĠSara":9789,"cuenta":9790,"Ġaparecer":9791,"Ġidentificar":9792,"ĠPrado":9793,"Ġindicios":9794,"Ġsospecha":9795,"Ġejemplares":9796,"Ġcanales":9797,"ĠparticipÃ³":9798,"atorios":9799,"ĠcuÃ¡nto":9800,"Ġcolegas":9801,"Ġembajador":9802,"Ġpru":9803,"Ġlanzado":9804,"Ġsinies":9805,"Ġhomici":9806,"ĠIgual":9807,"FP":9808,"alizados":9809,"Ġcena":9810,"Ġ1996":9811,"opol":9812,"ĠportuguÃ©s":9813,"fir":9814,"Ġaborto":9815,"ĠfotÃ³grafo":9816,"Ch":9817,"Ġdestitu":9818,"Ġcorreg":9819,"Ġimaginar":9820,"ĠvocaciÃ³n":9821,"fu":9822,"Ġencontramos":9823,"Ġcuartos":9824,"Ġrelacionadas":9825,"jeras":9826,"Ġprogreso":9827,"ĠtÃºn":9828,"Ġmacro":9829,"Ġatraves":9830,"Ġprosper":9831,"ĠFra":9832,"Ġnovia":9833,"Ġvangu":9834,"ĠCÃ©sar":9835,"ĠSanz":9836,"mitaciÃ³n":9837,"Ġfiel":9838,"Ġpublicada":9839,"Ġestuvieron":9840,"Ġadecuado":9841,"status":9842,"icados":9843,"ĠBlo":9844,"ÃŃnsula":9845,"ĠenviÃ³":9846,"uto":9847,"Ġgolpes":9848,"ady":9849,"rimir":9850,"Ġsanitarios":9851,"Ġtreinta":9852,"ĠemisiÃ³n":9853,"ĠÃ©xitos":9854,"Ġhem":9855,"etty":9856,"ave":9857,"Ġmargin":9858,"Ġconservadores":9859,"ĠDirector":9860,"imaciÃ³n":9861,"Ġconlle":9862,"ĠIns":9863,"ÃŃsimos":9864,"Ġhijas":9865,"Ġatravi":9866,"Ġargentina":9867,"Ġpeda":9868,"Ġatraer":9869,"Ġcreadores":9870,"iadas":9871,"Ġconfun":9872,"ĠenergÃ©tica":9873,"Ġeurozona":9874,"Ġacumula":9875,"Po":9876,"Ġinvitados":9877,"ĠConferencia":9878,"Ġdesin":9879,"Ġminor":9880,"Ġfilial":9881,"Ġvuelven":9882,"Ã¨s":9883,"pul":9884,"traje":9885,"ĠEsco":9886,"Ġventajas":9887,"Ġgratuita":9888,"Ġentusiasmo":9889,"Ġcorri":9890,"BI":9891,"Ġreclamar":9892,"tle":9893,"Ġreduce":9894,"Ġnecesitamos":9895,"ĠHel":9896,"ĠGuti":9897,"Ġpiensan":9898,"Ã©lgica":9899,"Ġpistas":9900,"quilla":9901,"oledo":9902,"ĠdiagnÃ³stico":9903,"ĠAun":9904,"Ġcapaci":9905,"ĠautonomÃŃas":9906,"ople":9907,"ĠMundo":9908,"Ġdebilidad":9909,"ĠCanarias":9910,"Ġeconomista":9911,"ĠCine":9912,"Ġexclusiva":9913,"ĠAmeric":9914,"Ġtales":9915,"Ġ53":9916,"Ġ78":9917,"ĠTurismo":9918,"ĠCervantes":9919,"Ġencen":9920,"Ġcae":9921,"Ġinvent":9922,"Ġabiertos":9923,"cy":9924,"Ġmortal":9925,"Ġbares":9926,"44":9927,"tienda":9928,"Ġdesalo":9929,"landia":9930,"Ġnorteamericano":9931,"ĠChe":9932,"entalmente":9933,"Ġ1990":9934,"Ġasamblea":9935,"kin":9936,"Ġgovern":9937,"ĠHugo":9938,"ĠCÃ³":9939,"Ġtiros":9940,"Ġmusicales":9941,"Ġlanzamiento":9942,"ĠES":9943,"Ġinfraestructura":9944,"Ġcanciller":9945,"seguridad":9946,"Ġaccionistas":9947,"Ġevi":9948,"Ġabur":9949,"cÃ©tera":9950,"lamiento":9951,"Ġtard":9952,"Ġhuy":9953,"Ġsello":9954,"Ġcoopera":9955,"ĠTel":9956,"risas":9957,"Ġigualmente":9958,"Ġoscur":9959,"ĠEFE":9960,"ĠPin":9961,"Ġexpul":9962,"Ġadministraciones":9963,"Ġnotas":9964,"Ġprestaciones":9965,"Ġdeje":9966,"Ġsitios":9967,"Ġascenso":9968,"ĠrechazÃ³":9969,"Ġcro":9970,"Ġvictorias":9971,"ĠcÃŃrculo":9972,"Ġtax":9973,"ĠLiber":9974,"ĠPastor":9975,"ĠGreen":9976,"Ġconfiesa":9977,"ika":9978,"esen":9979,"ĠSac":9980,"ĠPac":9981,"Ġasistir":9982,"Ġpulso":9983,"ĠRio":9984,"ĠrecaudaciÃ³n":9985,"Ġinto":9986,"dangar":9987,"ĠGE":9988,"Ã©ticos":9989,"ĠdiscriminaciÃ³n":9990,"ĠStan":9991,"Ġanunciar":9992,"mith":9993,"ĠsueÃ±os":9994,"ĠcelebrarÃ¡":9995,"Ġamiga":9996,"Ġsaid":9997,"Ã¡stica":9998,"gÃ¼enza":9999,"Ġaparta":10000,"Ġtalleres":10001,"voces":10002,"ĠiP":10003,"Ġola":10004,"Ġconstituye":10005,"Ġvivimos":10006,"Ġadquirir":10007,"mita":10008,"Ġaviso":10009,"ĠÃį":10010,"ĠGarzÃ³n":10011,"ĠRepublic":10012,"Ġ(@":10013,"Ġestudiante":10014,"Ġpira":10015,"Ġletra":10016,"ĠThomas":10017,"ĠEmilio":10018,"Ġinternos":10019,"Ġenfrentarse":10020,"cciones":10021,"Ġedil":10022,"Ġargumenta":10023,"Ġsupervivencia":10024,"locu":10025,"Ġesencia":10026,"Ġcantar":10027,"ĠHumanos":10028,"Ġparalelo":10029,"Ġdirectiva":10030,"Ġabertzale":10031,"Ġrelev":10032,"erios":10033,"Ġwork":10034,"Ġexigencias":10035,"endak":10036,"ĠVitoria":10037,"Ġits":10038,"Ġdibujos":10039,"ĠRomero":10040,"Ġlanza":10041,"Ġcumplen":10042,"Ġpropuso":10043,"Ġpeticiones":10044,"Ġfavorable":10045,"ĠTes":10046,"Ġdisponible":10047,"vÃ¡n":10048,"urales":10049,"Ġinmediatamente":10050,"ĠdarÃ¡":10051,"ĠJan":10052,"Ġentrenamiento":10053,"ĠApar":10054,"Ġmod":10055,"Ġhiciera":10056,"Ġmonetaria":10057,"oper":10058,"Ġratific":10059,"till":10060,"Ġafirm":10061,"gÃ³n":10062,"Ġintentando":10063,"icias":10064,"Ġposee":10065,"Ġtotalidad":10066,"inÃ³":10067,"Ġpreserv":10068,"ĠOlÃŃ":10069,"ĠimaginaciÃ³n":10070,"Ġbasa":10071,"Ġinmensa":10072,"ence":10073,"Ġ1992":10074,"Ġnatal":10075,"ĠautÃ©ntico":10076,"chÃ³":10077,"Ġencontraron":10078,"ĠminorÃŃa":10079,"Ġconsejos":10080,"ĠTomÃ¡s":10081,"ĠMoham":10082,"ĠOlÃŃmp":10083,"jidad":10084,"Ġintenciones":10085,"ĠServicio":10086,"Ġpenas":10087,"ĠetcÃ©tera":10088,"eada":10089,"Ãī":10090,"ĠEsperanza":10091,"ĠsanciÃ³n":10092,"Ġtemperatura":10093,"Ġherencia":10094,"Ġjubi":10095,"Ġmiser":10096,"Ġdependencia":10097,"ficaciones":10098,"Ġabsur":10099,"Ġpensaba":10100,"Ġcitado":10101,"arragona":10102,"Ġquitar":10103,"Ġcoun":10104,"chester":10105,"Ġvascos":10106,"ited":10107,"ĠcirculaciÃ³n":10108,"Ġseleccion":10109,"esc":10110,"ÃŃfic":10111,"Ġadmir":10112,"Ġ64":10113,"allero":10114,"Ġguarda":10115,"Ġdanza":10116,"Ġroto":10117,"Ġacogida":10118,"Ġpecul":10119,"Ġvisible":10120,"Ġestablecido":10121,"ĠdÃ©bil":10122,"iras":10123,"Ġindependentismo":10124,"ĠPSE":10125,"Ġutilizan":10126,"Ġ72":10127,"ĠJaume":10128,"ÃŃg":10129,"lava":10130,"queros":10131,"Ġdesierto":10132,"ĠOccidente":10133,"Ġdeterioro":10134,"brados":10135,"ĠIndustria":10136,"Ġintensa":10137,"pr":10138,"Ġmaf":10139,"ĠmadrileÃ±os":10140,"ĠUrdangar":10141,"Ġdisciplina":10142,"gentes":10143,"Ġemitir":10144,"Ġanuncia":10145,"ĠOtras":10146,"Ġraro":10147,"anim":10148,"ragÃ³n":10149,"Ġshow":10150,"Ġpensado":10151,"Ġregistros":10152,"AE":10153,"Ġdocena":10154,"Ġadecuada":10155,"Ġfum":10156,"Ġhorario":10157,"Ġrepite":10158,"ĠbaÃ±o":10159,"ĠPhil":10160,"Ġincur":10161,"Ġinterrump":10162,"ĠdirigiÃ³":10163,"Ġmandatario":10164,"Ġpromesa":10165,"ef":10166,"gico":10167,"ivia":10168,"Ġ1997":10169,"edi":10170,"oncesto":10171,"ĠSy":10172,"bados":10173,"ĠRE":10174,"ĠmediodÃŃa":10175,"Ġintu":10176,"Ġtitulares":10177,"Ġfant":10178,"ĠBaleares":10179,"Ġpeople":10180,"Ġapartado":10181,"Ġsobrevivir":10182,"Ġproductividad":10183,"Ġcarteles":10184,"ĠcalificÃ³":10185,"ĠprÃ©stamos":10186,"Ġ@":10187,"ĠdirÃŃa":10188,"urt":10189,"ĠRoc":10190,"Ġcincuenta":10191,"guÃ©":10192,"ĠcÃ©n":10193,"Ġtrenes":10194,"ĠOC":10195,"Ġhistoriador":10196,"hendak":10197,"Ġjoy":10198,"Ġsuponer":10199,"Ġvayan":10200,"ĠcapÃŃtulos":10201,"ĠfacturaciÃ³n":10202,"Ġreduc":10203,"ĠcatÃ¡logo":10204,"ĠChicago":10205,"Ġpatio":10206,"raba":10207,"Ġdestro":10208,"Ġcierra":10209,"ĠcÃ¡lculos":10210,"Ġcolombiano":10211,"ĠcostÃ³":10212,"Ġdispositivo":10213,"tez":10214,"Ġfestiv":10215,"Ġcans":10216,"ĠPoder":10217,"Ġencarcel":10218,"Ġequivalente":10219,"ĠtrabajÃ³":10220,"Ġblog":10221,"Ġ62":10222,"Ġtraje":10223,"Ġobtenido":10224,"Ġjustifica":10225,"Ã©rico":10226,"Ġimplicados":10227,"Ġfuncionario":10228,"Ġsentado":10229,"Ġfrases":10230,"Ġdesb":10231,"osidad":10232,"port":10233,"porque":10234,"tag":10235,"ĠalimentaciÃ³n":10236,"Ġbomba":10237,"Ġplataformas":10238,"ĠTr":10239,"bano":10240,"orden":10241,"ositores":10242,"Ġescritora":10243,"ocada":10244,"ĠEcuador":10245,"ĠDam":10246,"ĠProvin":10247,"700":10248,"Ġretribu":10249,"ĠMesa":10250,"Ġsalieron":10251,"Ġagencias":10252,"Ġunila":10253,"ĠCompro":10254,"Ġcomprometido":10255,"Ġhero":10256,"ĠprevisiÃ³n":10257,"Ġwo":10258,"ĠPlata":10259,"Ġenrique":10260,"Ġabandono":10261,"ĠIzquierda":10262,"Ġazulgrana":10263,"Ġacreedores":10264,"Ġdepos":10265,"ĠhabrÃŃan":10266,"Ġinmobiliario":10267,"boa":10268,"lantes":10269,"Ġguerras":10270,"tea":10271,"ĠCur":10272,"cola":10273,"tizÃ³":10274,"Ġdestinado":10275,"Ġfemenino":10276,"Ġmore":10277,"Ġobis":10278,"Ġgratis":10279,"ĠAren":10280,"ĠsubrayÃ³":10281,"ĠpasarÃ¡":10282,"blan":10283,"Ġquedaba":10284,"Ġinterpreta":10285,"Ġtransmitir":10286,"ĠMuchas":10287,"ĠUPyD":10288,"ĠCS":10289,"queras":10290,"Ġdistingu":10291,"ĠSerÃ¡":10292,"Ġmagistrados":10293,"rueba":10294,"Ġintercambio":10295,"abÃ©":10296,"Ġpropuesto":10297,"orka":10298,"vancia":10299,"ĠRoja":10300,"Ġrazonable":10301,"ĠestadÃŃsticas":10302,"Ġoscuro":10303,"ĠSÃ³lo":10304,"itano":10305,"ĠGan":10306,"Ġperu":10307,"Ġescenas":10308,"ĠcomentÃ³":10309,"Ġcentenares":10310,"ĠGor":10311,"Ġalso":10312,"ĠTelefÃ³nica":10313,"Ġsiguiendo":10314,"ĠmodificaciÃ³n":10315,"ĠCambio":10316,"Ġprotec":10317,"ĠLl":10318,"Ã³loga":10319,"ĠretÃ³":10320,"ĠEstatuto":10321,"bus":10322,"Ġirse":10323,"estructura":10324,"ind":10325,"usas":10326,"Ġ1994":10327,"Ġdemues":10328,"Ġambiental":10329,"Ġcampeonato":10330,"Ġadoptar":10331,"Ġecl":10332,"ciosa":10333,"Ġcoca":10334,"guraciÃ³n":10335,"Ġtensiones":10336,"Ġejercicios":10337,"ĠJuli":10338,"Ãºr":10339,"Ġmesas":10340,"Ġlesiones":10341,"Ġimag":10342,"ĠdescubriÃ³":10343,"izca":10344,"tilidad":10345,"Ġrato":10346,"Ġcompara":10347,"ĠMÃºs":10348,"Ġcoher":10349,"ĠOperaciÃ³n":10350,"Ġderiva":10351,"ĠsÃ©p":10352,"Ġ07":10353,"poner":10354,"ĠPresidencia":10355,"Ġdefendido":10356,"Ġabsor":10357,"Ġresultar":10358,"Ġimpone":10359,"Ġaplicaciones":10360,"Ġvuelva":10361,"Ġproveedores":10362,"Ġgracia":10363,"Ġdich":10364,"wo":10365,"Ġrem":10366,"ced":10367,"Ġabus":10368,"Ġescasa":10369,"Ã±igo":10370,"Ġescritura":10371,"Ġprefi":10372,"Ġremit":10373,"Ġsentim":10374,"Ġhecha":10375,"ERS":10376,"58":10377,"Ġrealizadas":10378,"ĠclÃ¡sica":10379,"gÃŃa":10380,"Ġsencilla":10381,"ĠMuy":10382,"uestos":10383,"Ġestaciones":10384,"ĠplÃ¡stico":10385,"ĠPanamÃ¡":10386,"ĠespectÃ¡culos":10387,"ĠCiencias":10388,"Ġconme":10389,"olos":10390,"Ġaliment":10391,"Era":10392,"ĠMichel":10393,"uz":10394,"-;":10395,"ĠHun":10396,"56":10397,"rarse":10398,"ĠautomÃ³vil":10399,"ĠMunicipal":10400,"atÃŃa":10401,"Ġplato":10402,"fianza":10403,"ĠLibia":10404,"ĠJuz":10405,"Ġcement":10406,"dela":10407,"Ġtrasladado":10408,"Ġdemo":10409,"Ġsat":10410,"Ġimpuso":10411,"Ġcaminos":10412,"Ġconvocar":10413,"edido":10414,"Ġintegrantes":10415,"Tu":10416,"Ġpist":10417,"ĠperdÃ³n":10418,"Ġhoja":10419,"ĠseÃ±ora":10420,"nado":10421,"day":10422,"Ġmurieron":10423,"Ġcaballo":10424,"mala":10425,"astas":10426,"ĠPÃºblica":10427,"sea":10428,"ĠrepresiÃ³n":10429,"ji":10430,"Ġiniciado":10431,"Ġposteriormente":10432,"ĠBlack":10433,"Ġdona":10434,"Ġpresentarse":10435,"Ġ59":10436,"ĠautorizaciÃ³n":10437,"Ã³so":10438,"Ġelog":10439,"ĠPicas":10440,"ĠprohibiciÃ³n":10441,"Ġtocado":10442,"Ã¡ntico":10443,"Ġcompleja":10444,"Ġvalencianos":10445,"bores":10446,"Ġguardi":10447,"Ġintenso":10448,"vada":10449,"Ġproba":10450,"Ġtoc":10451,"Ġregla":10452,"ĠconocÃŃa":10453,"ĠIII":10454,"Ġsabor":10455,"Ã±aki":10456,"Ġcerrada":10457,"director":10458,"rÃ³n":10459,"ĠBÃ©lgica":10460,"ĠMontoro":10461,"Ġconsigu":10462,"ĠVel":10463,"clar":10464,"Ġinicialmente":10465,"ĠUrdangarin":10466,"Ġrecibieron":10467,"ĠdedicÃ³":10468,"Ġarchivo":10469,"Ġapo":10470,"ĠPubl":10471,"Ġconducir":10472,"Ġrid":10473,"ĠLleida":10474,"Ġveintena":10475,"Ġthere":10476,"Ġmaestros":10477,"Estoy":10478,"Ġinterpretar":10479,"olid":10480,"Ġempate":10481,"ĠAsimismo":10482,"Ġexminist":10483,"Ġrepente":10484,"Ġorquesta":10485,"Ġdiscursos":10486,"atorias":10487,"fun":10488,"uede":10489,"ĠgalerÃŃa":10490,"Ġcolocar":10491,"Ġeco":10492,"ĠMarcos":10493,"trem":10494,"Ġfla":10495,"grÃ¡f":10496,"Ġenviar":10497,"Ġgovernment":10498,"ĠAmazon":10499,"Ġcaos":10500,"Ġaceite":10501,"icto":10502,"Ġretorno":10503,"Ġexcon":10504,"Ġpiernas":10505,"ĠÃ¡mbitos":10506,"Ġlograron":10507,"Ġsolicitar":10508,"Ġpreciso":10509,"gol":10510,"Ġminim":10511,"dilla":10512,"ĠNBA":10513,"Ġbarro":10514,"ĠEnerg":10515,"Ġejemplar":10516,"Ġdemocra":10517,"ĠcombinaciÃ³n":10518,"Ġurbana":10519,"Ġcontundente":10520,"Ġmito":10521,"ocar":10522,"Ġjuvenil":10523,"hendakari":10524,"Ġconsa":10525,"CuÃ¡l":10526,"ĠautÃ³noma":10527,"ĠPepe":10528,"ĠexplosiÃ³n":10529,"cisamente":10530,"ĠmÃ¡quinas":10531,"grada":10532,"Ġhermos":10533,"Ġsueldos":10534,"Par":10535,"Ġsolamente":10536,"marÃŃa":10537,"selo":10538,"ĠseÃ±ales":10539,"Ġestuviera":10540,"Ġmasiva":10541,"Ġrelevo":10542,"Ġvendido":10543,"ĠregistrÃ³":10544,"Ġalf":10545,"Ġcaro":10546,"Ġcerveza":10547,"Ġtratan":10548,"ĠproyecciÃ³n":10549,"ĠMujer":10550,"ĠfalleciÃ³":10551,"Ġtrabajaba":10552,"Ã©rrez":10553,"mados":10554,"ors":10555,"Ġcelebran":10556,"Ġinnov":10557,"Ġafectadas":10558,"Ġdiscul":10559,"Mar":10560,"americano":10561,"Ġrefugio":10562,"Ġsenador":10563,"Ġformal":10564,"ĠTenÃŃa":10565,"Ġfranquismo":10566,"equipo":10567,"ager":10568,"ĠWall":10569,"Ġrecordado":10570,"ilan":10571,"Ġayuntamientos":10572,"ĠÃ³":10573,"Ġtuve":10574,"Ġjugado":10575,"ĠGorka":10576,"ĠSem":10577,"Ġ06":10578,"Ġdespl":10579,"Ġsentenci":10580,"Ġvoluntarios":10581,"Ġwould":10582,"Ġtranquilidad":10583,"zarÃ¡":10584,"allar":10585,"Ġsustituir":10586,"Ġfeste":10587,"pers":10588,"Ġmaterias":10589,"tat":10590,"ficio":10591,"Ġregala":10592,"ĠcriticÃ³":10593,"ĠseguÃŃa":10594,"ĠWorld":10595,"Ġindican":10596,"Ġexplicaba":10597,"Ġsemes":10598,"ĠtratÃ³":10599,"Ġchef":10600,"ÃŃmetros":10601,"ĠVo":10602,"Ġbrecha":10603,"Ġincidente":10604,"Ġsolicitado":10605,"Ġquede":10606,"Ãºcar":10607,"Ġefectu":10608,"ĠPine":10609,"ĠabandonÃ³":10610,"Ġcoy":10611,"ĠGoya":10612,"vie":10613,"Ġapoya":10614,"Ġenfermos":10615,"keting":10616,"Ġconocimientos":10617,"Ġbode":10618,"ĠagresiÃ³n":10619,"Ġrin":10620,"Ġconsumidor":10621,"ĠMorales":10622,"ĠAlcalÃ¡":10623,"Ã±Ã¡n":10624,"ĠexclusiÃ³n":10625,"Ġ77":10626,"Ġsacu":10627,"Ġestablecimiento":10628,"ĠinauguraciÃ³n":10629,"Ġcristal":10630,"erÃ¡":10631,"Ġgritos":10632,"Ġmodificar":10633,"ĠEscuela":10634,"ĠGutiÃ©rrez":10635,"ĠejÃ©rcito":10636,"ĠCle":10637,"Ġcausado":10638,"Ġpromesas":10639,"RE":10640,"Ġescla":10641,"Ġfalso":10642,"ĠseÃ±alar":10643,"Ġcruzar":10644,"!âĢĿ.":10645,"ata":10646,"Ġagar":10647,"ĠOrtiz":10648,"ĠNÃºÃ±ez":10649,"his":10650,"garÃ¡":10651,"ĠWilliams":10652,"ĠSierra":10653,"ĠGreg":10654,"Ġarranca":10655,"Ġempresariales":10656,"Ġdigitales":10657,"ĠLula":10658,"ĠlÃ³gico":10659,"ĠvÃŃs":10660,"ĠBernabÃ©":10661,"TO":10662,"Ġgris":10663,"ĠactÃºa":10664,"ĠelaboraciÃ³n":10665,"anova":10666,"Ġoficialmente":10667,"Ġeficiencia":10668,"ĠpolÃŃticamente":10669,"Ġsuficientemente":10670,"Ġang":10671,"omen":10672,"Ġautode":10673,"vias":10674,"Ġfelici":10675,"ĠextensiÃ³n":10676,"Ġdosis":10677,"Ġiguales":10678,"Ġponiendo":10679,"Ġflamenco":10680,"Ġpudieran":10681,"Ġmedir":10682,"Ġfutura":10683,"demÃ³cra":10684,"ĠelectrÃ³nica":10685,"Ġguitarra":10686,"Ġremedio":10687,"Ġmedicamentos":10688,"Ġintentos":10689,"Ġconm":10690,"culares":10691,"Ġaprendido":10692,"Ġllamados":10693,"Ġsostienen":10694,"Ġsimul":10695,"Ġajustes":10696,"Ġvuln":10697,"ĠPress":10698,"ĠEllos":10699,"ĠfilÃ³so":10700,"Ġtrasladar":10701,"ĠdemÃ³crata":10702,"Ġ2019":10703,"ĠGuadal":10704,"ĠprÃŃncipe":10705,"Ġprimaria":10706,"ĠmuchÃŃsimo":10707,"Ġjuegan":10708,"ĠPaulo":10709,"Ġfuncionar":10710,"Ġira":10711,"ĠleÃŃdo":10712,"ĠEstoy":10713,"ĠAlmerÃŃa":10714,"Ġocio":10715,"Ã³rico":10716,"Ġconserva":10717,"CC":10718,"ĠisraelÃŃ":10719,"inada":10720,"ĠCari":10721,"Ġfiguran":10722,"59":10723,"ĠNingun":10724,"Ġcanad":10725,"icho":10726,"Ġcump":10727,"ificada":10728,"Ġconsiderable":10729,"Ġtraslado":10730,"ĠelÃ©ctrico":10731,"Ġhueco":10732,"ĠLaura":10733,"ĠIÃ±aki":10734,"ĠParque":10735,"ĠcÃ³digo":10736,"Ġsoledad":10737,"ĠToledo":10738,"Ġprom":10739,"Ġcolap":10740,"Ġobligaciones":10741,"Ġfrac":10742,"esp":10743,"ĠRoca":10744,"Ġversiones":10745,"Ġsupermer":10746,"Ġdeterminados":10747,"ĠBrook":10748,"nist":10749,"Ġnieve":10750,"ĠAragÃ³n":10751,"Ġagreg":10752,"Ġcaza":10753,"Ġfinca":10754,"Ġaudiovis":10755,"hab":10756,"ĠideologÃŃa":10757,"Ã±Ã³":10758,"Ġvengan":10759,"ĠreuniÃ³":10760,"Ġaprendizaje":10761,"Ġrechaza":10762,"ĠCÃ³digo":10763,"Ġportada":10764,"57":10765,"core":10766,"Ġsolar":10767,"tte":10768,"ecesita":10769,"quila":10770,"Ġaline":10771,"Ġaux":10772,"Ġtestimonio":10773,"Ġpresentaron":10774,"Ġboda":10775,"Ġrevisar":10776,"Ġpresiones":10777,"Ġlargas":10778,"tifica":10779,"Ġestancia":10780,"ĠUru":10781,"Ġelectorado":10782,"bara":10783,"ximo":10784,"Ġdesaparecer":10785,"Ġandaluza":10786,"Ġplayas":10787,"Ġconvocado":10788,"ĠaprovechÃ³":10789,"ally":10790,"Ġcurr":10791,"EstÃ¡":10792,"ĠTribu":10793,"Ġprimas":10794,"Ġvueltas":10795,"Ġclaras":10796,"ĠincÃ³mo":10797,"Ġhues":10798,"Ġsaque":10799,"olfo":10800,"ĠAP":10801,"ĠpagÃ³":10802,"ĠharÃ¡n":10803,"Ġdada":10804,"Ġeva":10805,"Ġrepresentar":10806,"ĠbaterÃŃa":10807,"Ġdivul":10808,"entino":10809,"ecieron":10810,"Ġestablecimientos":10811,"Ġrecuperado":10812,"Ġpartidarios":10813,"aste":10814,"Ġlog":10815,"ĠDin":10816,"ĠSco":10817,"ĠLlor":10818,"ĠFamil":10819,"zano":10820,"ĠUnited":10821,"ĠRousse":10822,"Ġcongres":10823,"ĠhipÃ³tesis":10824,"ĠexplÃŃ":10825,"Ġcamar":10826,"ĠVargas":10827,"etafe":10828,"Ġ%":10829,"alla":10830,"ĠLee":10831,"ĠPicasso":10832,"gna":10833,"ĠprevenciÃ³n":10834,"Ġvisual":10835,"Ġincumpl":10836,"ĠcuÃ¡les":10837,"Ġaproximadamente":10838,"quetas":10839,"ĠBea":10840,"ĠfrÃŃa":10841,"Ġmue":10842,"Ġtremen":10843,"Ġinformaciones":10844,"ĠdueÃ±os":10845,"ĠDiputados":10846,"OO":10847,"copa":10848,"Ġrespetar":10849,"ĠdinÃ¡mica":10850,"Ġflores":10851,"Ġvideoj":10852,"orrupciÃ³n":10853,"Ġquieran":10854,"Ġgre":10855,"Ġbarcos":10856,"Ġlimitado":10857,"Ġintelectuales":10858,"Ġrigor":10859,"ĠsÃ¡":10860,"ĠAllen":10861,"ĠdiseÃ±ado":10862,"ĠPonte":10863,"Ġdesequil":10864,"Ġpiscina":10865,"ĠjudÃŃos":10866,"ĠRog":10867,"Ġmaneras":10868,"Ġ(...)":10869,"Ã¡stro":10870,"Ġduras":10871,"ĠpreparaciÃ³n":10872,"ĠHubo":10873,"Ġveterano":10874,"ĠmovilizaciÃ³n":10875,"ĠMarco":10876,"pin":10877,"ĠVÃŃa":10878,"Ġintermedi":10879,"Ġdeportiva":10880,"tigo":10881,"Ġliterario":10882,"ĠnÃºcleo":10883,"ĠCif":10884,"Ġiran":10885,"ĠconservaciÃ³n":10886,"ĠVega":10887,"CO":10888,"cesa":10889,"ĠSegu":10890,"Ġaustral":10891,"Ġida":10892,"Ġquejas":10893,"trÃ¡fico":10894,"mÃ³s":10895,"Ġdespro":10896,"ĠJuzgado":10897,"pulaciÃ³n":10898,"Ġfavorito":10899,"Ġreconocen":10900,"Ġoeste":10901,"ĠMill":10902,"Ġsalarial":10903,"Ġequili":10904,"Ġsufrimiento":10905,"Ġexcusa":10906,"gÃ©n":10907,"Creo":10908,"tear":10909,"ĠUnidad":10910,"Ġpienso":10911,"Ġ76":10912,"ĠSofÃŃa":10913,"Ġapel":10914,"Ġobligados":10915,"Ġnovedades":10916,"Ġconfron":10917,"Ġreperc":10918,"ĠdebiÃ³":10919,"ĠSuecia":10920,"desde":10921,"Ġmusulmanes":10922,"Ġinterrog":10923,"Ġdescal":10924,"itivo":10925,"torÃŃa":10926,"Ġcostado":10927,"Ġacabe":10928,"Ġanuncios":10929,"ĠOfici":10930,"Ġsituada":10931,"Ġsolid":10932,"poraciÃ³n":10933,"Ġdisputa":10934,"Ġcurioso":10935,"Ġavanzado":10936,"Ġbosque":10937,"Ġpeculiar":10938,"ianas":10939,"Ġalturas":10940,"Ġcoyun":10941,"ĠQuizÃ¡s":10942,"Ġtirar":10943,"xia":10944,"piÃ©":10945,"Ġcaj":10946,"Ġrusos":10947,"Ġsignificado":10948,"LA":10949,"quito":10950,"ĠdemÃ³cratas":10951,"itenci":10952,"Ġcusto":10953,"Ġcontratar":10954,"Ġteatral":10955,"Ġ00":10956,"arcas":10957,"alismo":10958,"Ġesg":10959,"uelva":10960,"Ġvalorar":10961,"ĠgrabaciÃ³n":10962,"IT":10963,"Ġabuelo":10964,"Ġusa":10965,"Ġcongel":10966,"Ġindefin":10967,"Ġclaridad":10968,"Ġdedo":10969,"ĠestÃŃm":10970,"Ġrico":10971,"ĠMata":10972,"Ġsube":10973,"Ã©p":10974,"Ġtendencias":10975,"rill":10976,"ĠAgust":10977,"ĠseparaciÃ³n":10978,"Ġpaquete":10979,"atales":10980,"ĠcoordinaciÃ³n":10981,"Ġprevent":10982,"Ġvirtual":10983,"Ġdesconocido":10984,"portivo":10985,"Ġperros":10986,"ĠmÃ©dica":10987,"ĠraÃŃces":10988,"Ġdebu":10989,"Ġcorrespondiente":10990,"Ġprotocolo":10991,"ĠAutÃ³n":10992,"ĠJohnson":10993,"ĠBBVA":10994,"Ġgustan":10995,"ĠIslÃ¡mico":10996,"Ġprocedimientos":10997,"Ġreconstru":10998,"TAN":10999,"Ġexamen":11000,"ĠCarmena":11001,"ĠCav":11002,"Ġhice":11003,"Ġvenezolano":11004,"Ġpreparar":11005,"Ġrepertorio":11006,"ĠFoto":11007,"Ġpolit":11008,"ĠUniÃ³":11009,"ĠPrecisamente":11010,"Ġmisterio":11011,"ĠRadio":11012,"Ġpredic":11013,"ĠambiciÃ³n":11014,"ĠATLAS":11015,"Ġclaus":11016,"cÃ©ut":11017,"ĠFerro":11018,"Ġfaltan":11019,"ĠLucas":11020,"ĠADN":11021,"Ġdetener":11022,"Ġfachada":11023,"radores":11024,"Ġsensibilidad":11025,"ĠAC":11026,"cedentes":11027,"ĠtelÃ©fonos":11028,"mÃŃs":11029,"ĠLuna":11030,"Ġinvis":11031,"Ġingre":11032,"Ġperro":11033,"ĠRodrigo":11034,"ĠlingÃ¼":11035,"ĠcomposiciÃ³n":11036,"Ġjugue":11037,"Ġatribuy":11038,"Ġdetalla":11039,"ĠSmith":11040,"Ġinvitado":11041,"Ġ63":11042,"ĠRubio":11043,"trina":11044,"ĠBajo":11045,"Ġinstalado":11046,"Ġpared":11047,"ĠPl":11048,"ĠGro":11049,"mentaciÃ³n":11050,"tiera":11051,"Ġportal":11052,"ĠSaba":11053,"Ġcobran":11054,"Ġexpedientes":11055,"Ġestrena":11056,"Ġcomba":11057,"Ġentero":11058,"Ã¡rma":11059,"Ġdefienden":11060,"Ġaparentemente":11061,"Ġacabaron":11062,"ku":11063,"eld":11064,"Ġsubido":11065,"Ġtaba":11066,"ĠFARC":11067,"Ġabuso":11068,"ĠBuena":11069,"Ġgab":11070,"Ġactivistas":11071,"Ġcastigo":11072,"Ġcompletar":11073,"ĠatmÃ³s":11074,"antÃ¡n":11075,"Ġfans":11076,"ĠsubiÃ³":11077,"Ã©rprete":11078,"Ġsexto":11079,"ois":11080,"identes":11081,"Ġbancario":11082,"Siempre":11083,"Ġangust":11084,"guer":11085,"Ġbiblioteca":11086,"Ġsemejante":11087,"Ġliger":11088,"Ġabandonado":11089,"Ġtranquilo":11090,"ling":11091,"tac":11092,"Ġpelea":11093,"Ġaclarar":11094,"Ġ1978":11095,"Ġdiga":11096,"Ġpecho":11097,"vedra":11098,"Ġinformar":11099,"Ġimple":11100,"Ġpesos":11101,"ĠcatÃ¡stro":11102,"Ġestados":11103,"Ġavanza":11104,"ĠSerra":11105,"Ġbomberos":11106,"Ġduros":11107,"ĠAcu":11108,"Ġaparatos":11109,"Ġoperativo":11110,"urense":11111,"Ġespejo":11112,"Ġcritica":11113,"Ġbicicleta":11114,"Ã¡frica":11115,"trico":11116,"Ġhabil":11117,"ĠAten":11118,"ĠLlo":11119,"Ġlehendakari":11120,"acciones":11121,"ĠContra":11122,"Ġantici":11123,"evin":11124,"ĠCampo":11125,"Ġseno":11126,"ĠPolonia":11127,"Ġconfig":11128,"Ġregalo":11129,"Ġoptimismo":11130,"Ġrelevantes":11131,"68":11132,"dras":11133,"trados":11134,"Ġverdes":11135,"Ġconmo":11136,"itaron":11137,"Ġcontrola":11138,"ĠautÃ©ntica":11139,"Te":11140,"ĠKing":11141,"Ġdiferenci":11142,"ĠprÃ³r":11143,"Ġauge":11144,"Ġfortaleza":11145,"Ġcorro":11146,"DEO":11147,"icÃ³p":11148,"ĠMars":11149,"Ã©cdo":11150,"Ġcontiene":11151,"Ġcamin":11152,"Ġrutas":11153,"Ġpersecu":11154,"Ġfemenina":11155,"ert":11156,"ĠconfÃŃa":11157,"Ġcelebrada":11158,"Ġhilo":11159,"ede":11160,"americana":11161,"ĠbrasileÃ±a":11162,"damente":11163,"Ġterraza":11164,"cionan":11165,"Ġpromete":11166,"ĠnarcotrÃ¡fico":11167,"ĠTransiciÃ³n":11168,"Ġindirec":11169,"Ġcatalanas":11170,"dadas":11171,"Ġavenida":11172,"!!":11173,"Ġatacar":11174,"uters":11175,"penas":11176,"ĠviolaciÃ³n":11177,"Ġconducta":11178,"Ġlad":11179,"Ġasent":11180,"ionistas":11181,"ĠdebÃŃan":11182,"ĠHit":11183,"Ġpretenden":11184,"koa":11185,"jetas":11186,"ĠpedÃŃa":11187,"Ġfacilidad":11188,"Ġelaborar":11189,"Ġperpetu":11190,"ueras":11191,"ĠColeg":11192,"Ġdisfra":11193,"ĠDÃŃ":11194,"Ġhorror":11195,"Ġnegar":11196,"Ġdimensiones":11197,"Ġlegitimidad":11198,"Ġtime":11199,"ĠVin":11200,"igas":11201,"legÃ³":11202,"42":11203,"Ã±al":11204,"Ġnombramiento":11205,"Ġdespido":11206,"Ġabout":11207,"Ġenve":11208,"ueven":11209,"ĠÃ©tica":11210,"Ġdecena":11211,"ĠNuevo":11212,"Ġlateral":11213,"ĠmanifestÃ³":11214,"Ġdisponibles":11215,"panyol":11216,"Ġhablamos":11217,"aco":11218,"ĠPens":11219,"ĠObr":11220,"uelve":11221,"Ġterremoto":11222,"scar":11223,"Ã±ada":11224,"Ġnaveg":11225,"ĠUruguay":11226,"âĢ¦)":11227,"Ġautobuses":11228,"lave":11229,"ĠBl":11230,"Ġimperio":11231,"Ġafirman":11232,"ĠVidal":11233,"ĠKen":11234,"Ġ69":11235,"ĠpresentarÃ¡":11236,"Ġfomentar":11237,"Ġanaliza":11238,"Ġestrategias":11239,"Ġcancha":11240,"adu":11241,"Ġbordo":11242,"ĠMejor":11243,"ĠextraÃ±a":11244,"Ġacudieron":11245,"iciones":11246,"Ġfes":11247,"Ġopa":11248,"ĠoÃŃr":11249,"Ġenemigos":11250,"Ġexilio":11251,"Ġinmuebles":11252,"ĠEstudios":11253,"eck":11254,"Ġfinanzas":11255,"Ġrechazado":11256,"Ġvenden":11257,"ĠobligÃ³":11258,"Ġbrome":11259,"ĠcÃ©lebre":11260,"ĠMÃºsica":11261,"ĠLA":11262,"ets":11263,"Ġespaldas":11264,"ĠintÃ©rprete":11265,"Ġhones":11266,"Ġmostra":11267,"ĠPatrimonio":11268,"Ġpropaganda":11269,"Ġnecesariamente":11270,"Ġexpresa":11271,"abo":11272,"uevos":11273,"Ġsemestre":11274,"OX":11275,"uega":11276,"ĠDoc":11277,"sted":11278,"idi":11279,"Ġliteraria":11280,"Ġentrevist":11281,"verde":11282,"enses":11283,"imnas":11284,"Ġincapaz":11285,"ĠpensiÃ³n":11286,"Ġplantear":11287,"Nunca":11288,"ÃŃgenas":11289,"Ġescrita":11290,"Ġlargos":11291,"ĠMem":11292,"Ġpost":11293,"Ġinteresantes":11294,"idge":11295,"pedal":11296,"Ġmontar":11297,"ĠArabia":11298,"olviÃ³":11299,"Ġinstancia":11300,"ĠTarragona":11301,"ĠvergÃ¼enza":11302,"Ġnovel":11303,"Ġcompetid":11304,"ĠBernabÃ©u":11305,"Ġcoger":11306,"dena":11307,"Ġdesgracia":11308,"Ġrealizan":11309,"Ġenferm":11310,"ĠpretendÃŃa":11311,"Ġretirar":11312,"Ġsilla":11313,"cual":11314,"yecto":11315,"tense":11316,"Ġnegado":11317,"Ġtitu":11318,"critos":11319,"Ġpublica":11320,"Ġfijar":11321,"ĠhelicÃ³p":11322,"Com":11323,"ĠTengo":11324,"ĠprecisiÃ³n":11325,"ĠbiografÃŃa":11326,"Ġlum":11327,"ĠdiseÃ±ador":11328,"Ġcuello":11329,"pados":11330,"Ġinternas":11331,"icana":11332,"Ġmundiales":11333,"Ã¡us":11334,"chill":11335,"trada":11336,"izas":11337,"Ġsubasta":11338,"Ġutilizados":11339,"braltar":11340,"Ġprocedente":11341,"ĠUrban":11342,"Ġtin":11343,"ĠfÃ¡rma":11344,"Ġ99":11345,"ĠHerrera":11346,"Ġlibertades":11347,"ĠCro":11348,"Ġcolabora":11349,"ĠdifusiÃ³n":11350,"Ġunido":11351,"Ġbarcelon":11352,"Ġpiano":11353,"ĠcomprÃ³":11354,"Ġpresentada":11355,"Ġreligiosa":11356,"Ġcontribuir":11357,"Ġcomand":11358,"Ġtoman":11359,"Ġclam":11360,"dure":11361,"Ġcircunstancia":11362,"Ġperspectivas":11363,"Ã³f":11364,"ĠEsos":11365,"Ġnaciones":11366,"ĠHollande":11367,"ware":11368,"ĠWood":11369,"Ġserlo":11370,"mart":11371,"Ġbaloncesto":11372,"Ex":11373,"Ġsevill":11374,"ĠCual":11375,"ĠSoy":11376,"ĠanÃ©cdo":11377,"eth":11378,"Ġconceptos":11379,"Ġcuantos":11380,"ĠUnas":11381,"Ġlocalidades":11382,"Ġprovisional":11383,"Ġmonstru":11384,"Ġustedes":11385,"ĠDolores":11386,"tremadura":11387,"nan":11388,"Ġcalma":11389,"Ġnombrado":11390,"ĠTour":11391,"tza":11392,"Ġ61":11393,"ĠaceptÃ³":11394,"Ġefectiva":11395,"ĠRoy":11396,"Ġfundamentalmente":11397,"ĠagrÃŃ":11398,"Ġafter":11399,"Ġpoderoso":11400,"Ġrecogida":11401,"ĠcontemporÃ¡nea":11402,"Ġacercarse":11403,"win":11404,"calde":11405,"Ġ1980":11406,"Ġarquitectos":11407,"Ġreportaje":11408,"tadores":11409,"Ġemer":11410,"ĠadjudicaciÃ³n":11411,"uentes":11412,"ĠâĢĶâĢľ":11413,"Ġincluyendo":11414,"estructuraciÃ³n":11415,"ÃŃgenes":11416,"ĠPier":11417,"now":11418,"ĠÃ©lite":11419,"ĠordenÃ³":11420,"Ġ1993":11421,"mad":11422,"ocado":11423,"Ġegip":11424,"Ġelectores":11425,"Ġbajada":11426,"Ġindividuos":11427,"ĠdelegaciÃ³n":11428,"Ġparticipan":11429,"otas":11430,"ĠConde":11431,"Ġembarc":11432,"Ġhallaz":11433,"Ġcomplica":11434,"ĠCenter":11435,"Ġgestos":11436,"PSOE":11437,"ĠKevin":11438,"mÃ¡ticos":11439,"ski":11440,"tti":11441,"Ġcitas":11442,"Ġdilig":11443,"Ġsentencias":11444,"Ġitalianos":11445,"ĠrehabilitaciÃ³n":11446,"Ġbarato":11447,"Ġinstante":11448,"Ġruedas":11449,"Ġbill":11450,"ĠacadÃ©mico":11451,"ĠTro":11452,"ĠCameron":11453,"uss":11454,"iriÃ³":11455,"Todos":11456,"ĠDentro":11457,"Ġescucha":11458,"Ġaportaciones":11459,"Ġcondenados":11460,"Ġester":11461,"Ġcultiv":11462,"Ġatribuye":11463,"Ġpermanece":11464,"Ġreside":11465,"iosos":11466,"ĠMone":11467,"âĢĵ,":11468,"Ġeu":11469,"Ġasust":11470,"Ġpidiendo":11471,"Ġinmueble":11472,"ficar":11473,"Ġcolaboradores":11474,"ĠBueno":11475,"ved":11476,"ĠManchester":11477,"Ġexcelencia":11478,"ĠconsejerÃŃa":11479,"Ġinterlocu":11480,"Ġ1989":11481,"Ġ1991":11482,"Ġlenguas":11483,"ĠsurgiÃ³":11484,"Ġgestiona":11485,"egem":11486,"ĠtrÃ¡g":11487,"Ġmigrantes":11488,"ĠPrÃ³":11489,"Ġnace":11490,"ĠCospedal":11491,"Ġcomplicada":11492,"ĠempeÃ±o":11493,"Ġcercanas":11494,"Ġrelevancia":11495,"ĠDiv":11496,"Ġediciones":11497,"ĠquedarÃ¡":11498,"Ġcomienzos":11499,"Ġculpable":11500,"ĠPublicidad":11501,"ĠSemana":11502,"Ġsofist":11503,"Ġnecesitaba":11504,"ĠCompromÃŃs":11505,"ĠhÃŃ":11506,"ĠacompaÃ±a":11507,"Ġgriego":11508,"Ġingeniero":11509,"ĠOriol":11510,"Ġaccidentes":11511,"Ġcreatividad":11512,"ĠevaluaciÃ³n":11513,"Ġtorre":11514,"Ġdesarrolla":11515,"ĠRousseff":11516,"guas":11517,"grad":11518,"Ġconfirmar":11519,"ĠTributaria":11520,"Ġatac":11521,"Ġcorresponden":11522,"Ġregula":11523,"Ġdecisivo":11524,"Ġrar":11525,"Ġagricul":11526,"ĠJones":11527,"ĠirÃ¡":11528,"ĠdurÃ³":11529,"Ġgafas":11530,"Ġdesgas":11531,"Ġneoy":11532,"Ġgarantiza":11533,"ĠMinistros":11534,"Ġsondeos":11535,"ĠSocialista":11536,"Ġcompositor":11537,"quita":11538,"Ġabuela":11539,"Ġenfrentar":11540,"Ġparticiparon":11541,"Ġperdiendo":11542,"ÃŃsimas":11543,"Ġnaran":11544,"Ġdiscutir":11545,"Ġtemplo":11546,"Ġreflejo":11547,"Ġindividuales":11548,"ĠBiz":11549,"Ġespecializada":11550,"Ġescasos":11551,"Eso":11552,"valu":11553,"ĠhÃ©roe":11554,"serv":11555,"try":11556,"Ġvecina":11557,"Ġprestar":11558,"Ġventana":11559,"ĠarrancÃ³":11560,"Ġensayos":11561,"Ġpresuntamente":11562,"Ġcubano":11563,"ĠJunqueras":11564,"Ġsostenibilidad":11565,"ĠfarmacÃ©ut":11566,"Ġnutri":11567,"Ġover":11568,"Ġsolos":11569,"ĠAnna":11570,"Ġdeli":11571,"Ġdoce":11572,"Ġlimitar":11573,"giÃ³":11574,"jam":11575,"Ġcentra":11576,"Ġ86":11577,"ĠAcciÃ³n":11578,"tuoso":11579,"Ġtratando":11580,"Ġdeterminado":11581,"43":11582,"ĠHi":11583,"ader":11584,"ridos":11585,"Ġburo":11586,"ĠÃ©sta":11587,"Ġvalora":11588,"ĠAutor":11589,"ĠPineda":11590,"Ġintentan":11591,"Ġdesconfianza":11592,"Ġexclu":11593,"Ġsumario":11594,"ĠliberaciÃ³n":11595,"Ġtarjetas":11596,"Ġcruel":11597,"Ġsacerdo":11598,"Ġjuzgar":11599,"Ġplanteado":11600,"ĠsucesiÃ³n":11601,"Ġcambiando":11602,"ĠChan":11603,"ĠSomos":11604,"ĠatmÃ³sfera":11605,"Ġcese":11606,"ĠTradu":11607,"andÃ©s":11608,"ĠAngel":11609,"domin":11610,"Ã¡ndolo":11611,"viamente":11612,"ĠmÃ©todos":11613,"Ġcaptur":11614,"Ġespon":11615,"Ġsignific":11616,"ĠCalle":11617,"Ġradicales":11618,"Ġfalse":11619,"Ġmand":11620,"ĠExtremadura":11621,"bat":11622,"vimiento":11623,"Ġelevada":11624,"AD":11625,"Ġib":11626,"Ġcarece":11627,"sÃŃ":11628,"Ġverte":11629,"Ġobservar":11630,"ĠBull":11631,"41":11632,"Ġcatedral":11633,"ĠBush":11634,"ĠInvestigaciÃ³n":11635,"Ġblin":11636,"Ġgeneran":11637,"fit":11638,"ĠJord":11639,"197":11640,"Ġlimita":11641,"Ġshe":11642,"pais":11643,"Ġoptado":11644,"ĠMercado":11645,"ult":11646,"ĠcrÃ³nica":11647,"Ġexigen":11648,"ĠMiquel":11649,"kozy":11650,"ĠSantamarÃŃa":11651,"Ġceder":11652,"ĠespecÃŃf":11653,"ĠllevarÃ¡":11654,"ĠdemostrÃ³":11655,"ips":11656,"Ġmensuales":11657,"Ġinseguridad":11658,"ĠAntoni":11659,"ĠFalta":11660,"Ġexpone":11661,"Ġhegem":11662,"Ġresc":11663,"Ġsalidas":11664,"ĠMcC":11665,"Ġmaniobra":11666,"ĠFlores":11667,"Ġrecre":11668,"Ġasume":11669,"Ġregidor":11670,"ĠOTAN":11671,"Ġcalifica":11672,"Ġincrementar":11673,"!âĢĿ,":11674,"ĠGuerrero":11675,"Ġreele":11676,"Ġescand":11677,"Ġenfrentan":11678,"ĠLara":11679,"ĠPort":11680,"ĠSalam":11681,"Ġmentira":11682,"ĠtÃŃo":11683,"Ġgloria":11684,"minente":11685,"Ġ08":11686,"Ġfieles":11687,"ars":11688,"Ġmantenerse":11689,"Ġalarma":11690,"yer":11691,"ĠTec":11692,"Ġarcas":11693,"Ġacababa":11694,"ĠMax":11695,"ĠClaro":11696,"ĠDra":11697,"ĠautonÃ³micos":11698,"pone":11699,"Ġprioridades":11700,"ĠRecuer":11701,"ĠBrown":11702,"Ġsistem":11703,"berÃ¡":11704,"Ġahorrar":11705,"66":11706,"ĠverÃ¡":11707,"Ġtomando":11708,"Ġpoblaciones":11709,"ĠperÃŃo":11710,"ĠtramitaciÃ³n":11711,"ĠIniesta":11712,"Ġartificial":11713,"ĠEu":11714,"Ġincidentes":11715,"Ġbac":11716,"Ġates":11717,"ĠTre":11718,"toriales":11719,"Ġmagia":11720,"Ġdictador":11721,"gÃ¼edad":11722,"Ġempo":11723,"ÃįDEO":11724,"Ġintervenir":11725,"olf":11726,"Ġinfec":11727,"ĠMohamed":11728,"Ġinterv":11729,"Ġpabell":11730,"quera":11731,"Ġperdieron":11732,"Ã¡ns":11733,"Ġsimpl":11734,"Ġcortes":11735,"Ġrecomienda":11736,"ĠAde":11737,"Ġinvoluc":11738,"UU":11739,"Ã³bal":11740,"Ġparques":11741,"Ġarmado":11742,"ĠConfe":11743,"Ġculto":11744,"Ġrastro":11745,"ĠexpulsiÃ³n":11746,"ĠJane":11747,"Ġempezando":11748,"dremos":11749,"Ġeducativa":11750,"Ġhierro":11751,"Ġarranque":11752,"ombre":11753,"Ġthan":11754,"iona":11755,"ĠCir":11756,"Ġcancel":11757,"Ġcomplejos":11758,"Ġrodeado":11759,"Ġindustriales":11760,"Ġlust":11761,"urbios":11762,"gend":11763,"Ġhttp":11764,"Ġcotiz":11765,"Ġtesor":11766,"ĠCultural":11767,"very":11768,"Ġreplic":11769,"finales":11770,"Ġoptimista":11771,"Ġconmigo":11772,"junto":11773,"Ġintimidad":11774,"parse":11775,"Ã³j":11776,"ĠNÃ³":11777,"Ġbolsa":11778,"Ġtop":11779,"Ġcontraria":11780,"Ġagricultura":11781,"Ġrelacionado":11782,"Ġstar":11783,"ĠSig":11784,"Ġhuir":11785,"ĠrompiÃ³":11786,"Ġescaso":11787,"Ġfestivales":11788,"San":11789,"ĠoÃŃdo":11790,"ĠLakers":11791,"Ġlee":11792,"Ġantiguas":11793,"fos":11794,"fec":11795,"puz":11796,"Ã³rica":11797,"Ġsolicitud":11798,"90":11799,"ĠprestaciÃ³n":11800,"Ġdespliegue":11801,"Ã±an":11802,"Ġtormenta":11803,"ĠimplicaciÃ³n":11804,"ĠindignaciÃ³n":11805,"Ġrecomendaciones":11806,"Ġsalvaje":11807,"Ġconsens":11808,"Ġdirectivo":11809,"jaba":11810,"Ġcafe":11811,"ĠexistÃŃa":11812,"terna":11813,"ĠclÃ¡us":11814,"ĠsatisfacciÃ³n":11815,"ĠCifuentes":11816,"Ġevolu":11817,"Ġcapitalismo":11818,"Ġfuncionan":11819,"ĠXavi":11820,"Ġofensiva":11821,"AquÃŃ":11822,"Ġdelic":11823,"hara":11824,"Ġadicional":11825,"ĠLluÃŃs":11826,"Ġhered":11827,"Ġpatria":11828,"Ġdejaba":11829,"Ġconvierten":11830,"Ġafirmar":11831,"Ġenfo":11832,"tier":11833,"ĠTedes":11834,"ĠGriÃ±Ã¡n":11835,"Ã³tico":11836,"Ġvotado":11837,"ĠNey":11838,"ĠreclamÃ³":11839,"ĠcatÃ³lica":11840,"Ġrestricciones":11841,"Ġdebut":11842,"Ġoccidentales":11843,"Ġperdida":11844,"Ġempeor":11845,"rimas":11846,"ĠconfusiÃ³n":11847,"Ġbolsillo":11848,"Ã¤":11849,"Ġinesta":11850,"rigoyen":11851,"Sin":11852,"ĠtocÃ³":11853,"Ġcinta":11854,"Especial":11855,"omina":11856,"ĠIS":11857,"Ġtorero":11858,"Ġrepartir":11859,"Ġcreativo":11860,"ĠdepÃ³sitos":11861,"derse":11862,"Ġ88":11863,"Ġaventuras":11864,"Ġformada":11865,"Ġretom":11866,"?\",":11867,"ĠJackson":11868,"ĠFuerzas":11869,"ĠVera":11870,"Ġconcretas":11871,"Ġrob":11872,"Ġcharla":11873,"Ġencargada":11874,"abal":11875,"ĠIrigoyen":11876,"Ġuniversitarios":11877,"Ġdetectar":11878,"ĠTedeschi":11879,"rich":11880,"arreal":11881,"titudes":11882,"Ġpresupuestaria":11883,"Ġarru":11884,"Ġgustaba":11885,"Ġordenadores":11886,"Ġpidieron":11887,"Ġinmer":11888,"Ġcircular":11889,"Ġ98":11890,"Ġactivista":11891,"ĠBolivia":11892,"Ġbarra":11893,"Ġcomplejidad":11894,"ĠrestauraciÃ³n":11895,"Ġreligioso":11896,"ĠAntena":11897,"ciliaciÃ³n":11898,"Ã³licos":11899,"aster":11900,"aden":11901,"esco":11902,"ĠFI":11903,"SJ":11904,"tus":11905,"Ġestatales":11906,"ĠFron":11907,"Ġcreando":11908,"ĠsentÃŃa":11909,"Ci":11910,"Ġreglamento":11911,"ĠactÃºan":11912,"atemala":11913,"Cada":11914,"Ġvisitante":11915,"ĠpatrÃ³n":11916,"ĠFac":11917,"ĠChi":11918,"Ġusan":11919,"Ġpactos":11920,"Ġoriginales":11921,"ĠProvincial":11922,"Ġdaban":11923,"ÃŃticas":11924,"eral":11925,"Ġagrad":11926,"Ġdispositivos":11927,"Ġpantallas":11928,"ostenible":11929,"ture":11930,"SÃŃ":11931,"sed":11932,"Ġembarazo":11933,"Ġcentrado":11934,"ĠKi":11935,"Ġapres":11936,"Ġrevistas":11937,"ĠSarkozy":11938,"ĠindemnizaciÃ³n":11939,"ĠclÃŃnica":11940,"versiÃ³n":11941,"ĠArt":11942,"ĠeliminaciÃ³n":11943,"ĠPRI":11944,"Ġdebatir":11945,"entimiento":11946,"Ġamericana":11947,"turos":11948,"ĠturÃŃstica":11949,"bana":11950,"Ġcuotas":11951,"Ġchal":11952,"Ġcrucial":11953,"Ġefectivos":11954,"democ":11955,"Ġhiper":11956,"Ġdesencaden":11957,"Ġtestimonios":11958,"quadra":11959,"Ġleal":11960,"Ġcrudo":11961,"ĠCaribe":11962,"Ġremun":11963,"ĠRay":11964,"donde":11965,"baciones":11966,"Ġmagnitud":11967,"ĠindÃŃgenas":11968,"ĠAtlÃ¡ntico":11969,"ĠMedia":11970,"Ġconsultas":11971,"tom":11972,"Ġchar":11973,"ĠCorrado":11974,"Ġlento":11975,"Ġ73":11976,"Ġcompl":11977,"Ġvirtud":11978,"Ġquieres":11979,"Ġsensible":11980,"tornos":11981,"ĠcreÃŃa":11982,"ĠFrancesc":11983,"yente":11984,"Ġsumado":11985,"Ġimpunidad":11986,"ĠPSPV":11987,"BC":11988,"xta":11989,"Ġcriticado":11990,"ĠprÃ³rroga":11991,"ĠSanto":11992,"Ġneoyor":11993,"Ġasilo":11994,"Ġvariedad":11995,"IE":11996,"ĠOurense":11997,"lique":11998,"Ġganando":11999,"trio":12000,"ĠCristÃ³bal":12001,"ĠescÃ¡ndalos":12002,"Ġderrib":12003,"Ġaspirantes":12004,"Ġelevar":12005,"Ġpaciencia":12006,"ĠentregÃ³":12007,"ĠmÃ©rito":12008,"Ġfronter":12009,"Ġsuministro":12010,"Ġllevaban":12011,"Ġtable":12012,"ĠSerÃŃa":12013,"Ġentregado":12014,"Ġrepi":12015,"ĠLisboa":12016,"ĠTex":12017,"Ġador":12018,"Ġmejorado":12019,"rÃ©":12020,"osamente":12021,"Ġaceptado":12022,"ĠcÃ¡lculo":12023,"ponÃ©s":12024,"Ġextremos":12025,"Ġcolaborar":12026,"Ġteniente":12027,"ĠGonzalo":12028,"Ġrenovables":12029,"ĠlecciÃ³n":12030,"kar":12031,"hile":12032,"dam":12033,"ĠpÃŃ":12034,"Ġaga":12035,"Ġprob":12036,"izos":12037,"ĠGEOX":12038,"ĠAntic":12039,"ĠFederico":12040,"inst":12041,"Ġsignificativo":12042,"jando":12043,"Ġalu":12044,"guera":12045,"ĠtecnolÃ³gico":12046,"Ġconsultora":12047,"ĠErnes":12048,"Ġecolog":12049,"puzkoa":12050,"Ġ155":12051,"Ġdefensores":12052,"ĠCharles":12053,"ĠAmbas":12054,"Ġnorteamericana":12055,"kul":12056,"kaia":12057,"Ġidiomas":12058,"ĠVat":12059,"sobre":12060,"Ġofrecido":12061,"Ġtitulado":12062,"bren":12063,"Ġllegaba":12064,"Ġesperado":12065,"lyn":12066,"Ġpreviamente":12067,"Nosotros":12068,"ecÃ©":12069,"Ġposteriores":12070,"Ġdisparo":12071,"ĠÃ¡rbitro":12072,"Ġnarrativa":12073,"sel":12074,"-.":12075,"ĠAVE":12076,"ĠGallar":12077,"Ġimpresionante":12078,"ach":12079,"trop":12080,"ĠSaudÃŃ":12081,"Ġadvertido":12082,"Ġcostumbre":12083,"ĠredacciÃ³n":12084,"Ġacoge":12085,"ĠOCDE":12086,"Ġdesbord":12087,"urÃ³":12088,"Ġdocentes":12089,"UTERS":12090,"ĠIndepen":12091,"Ġgimnas":12092,"Ġredi":12093,"ĠGetafe":12094,"Ġhumo":12095,"Ġagrega":12096,"Aunque":12097,"ĠVallad":12098,"Ġpopularidad":12099,"Ġahorros":12100,"Ġhielo":12101,"ĠdecÃŃan":12102,"ĠNeymar":12103,"fran":12104,"Ġox":12105,"Ġdesvi":12106,"Ġcuid":12107,"ĠtÃ³":12108,"coni":12109,"ĠorÃŃgenes":12110,"ĠÃĵscar":12111,"ĠCaracas":12112,"dipu":12113,"Ġsalga":12114,"Ġllamaba":12115,"Ġexistentes":12116,"Ġsorprende":12117,"Ġcriminales":12118,"Ġcompor":12119,"Ġrelativamente":12120,"mora":12121,"ĠEspecial":12122,"Ġcosech":12123,"ĠSegura":12124,"Ġorganizada":12125,"Ġprohibido":12126,"ĠCres":12127,"Ġsurge":12128,"bria":12129,"leto":12130,"ĠEsteban":12131,"Ġ130":12132,"ĠsÃŃntomas":12133,"Ġfalsas":12134,"Ġapariencia":12135,"Ġequip":12136,"ĠMacron":12137,"ĠabstenciÃ³n":12138,"Ġequ":12139,"Ġmedioc":12140,"!,":12141,"Ġdulce":12142,"uk":12143,"ĠplanteÃ³":12144,"trÃŃa":12145,"izando":12146,"Ġjuris":12147,"Ġpromedio":12148,"Ġmarcador":12149,"ose":12150,"Ġlegend":12151,"Ġambul":12152,"bola":12153,"Ġestructurales":12154,"ĠFlorida":12155,"ĠInformaciÃ³n":12156,"Ġbilater":12157,"nistÃŃa":12158,"tigu":12159,"Ġresumen":12160,"Ġracional":12161,"ĠpÃ¡":12162,"Ġquiebra":12163,"ĠBat":12164,"Ġhorarios":12165,"ĠâĤ¬":12166,"itarse":12167,"ĠSudÃ¡frica":12168,"ĠRib":12169,"Ġgrito":12170,"Ġrecep":12171,"abar":12172,"Ġcompartido":12173,"Ġconcreta":12174,"Ġeventual":12175,"Ġgras":12176,"icis":12177,"Ġconocidas":12178,"Ġreceta":12179,"lis":12180,"ĠTarjeta":12181,"Ġapreci":12182,"ĠjaponÃ©s":12183,"ĠcÃ³mp":12184,"Ġsindical":12185,"tarle":12186,"Ġfavorecer":12187,"Ġcercanos":12188,"Ġnew":12189,"Ġtemporales":12190,"Ġsucesor":12191,"Ġdinam":12192,"ĠsupondrÃŃa":12193,"Ãĵ":12194,"ester":12195,"Ġelegante":12196,"Ġasesinatos":12197,"Ġneutr":12198,"Ġreten":12199,"Ġobede":12200,"Ġcorrecto":12201,"ĠTodavÃŃa":12202,"Ġmedicina":12203,"ĠconvicciÃ³n":12204,"Ġbajado":12205,"Ġencontrarse":12206,"Ġobligada":12207,"Ã©lulas":12208,"Ġdios":12209,"Ġendeudamiento":12210,"tex":12211,"illon":12212,"vila":12213,"Ġexpresar":12214,"Ġdemol":12215,"Ġreclaman":12216,"ĠasiÃ¡tico":12217,"guida":12218,"Ġsaca":12219,"Ġtransformar":12220,"Ġolvido":12221,"iness":12222,"ĠbÃ¡sico":12223,"ĠEva":12224,"ĠescÃ©n":12225,"Ġentran":12226,"ĠincorporaciÃ³n":12227,"Ġsemifinales":12228,"Ġsolvencia":12229,"Ġatraviesa":12230,"ĠGuatemala":12231,"Ġcomponentes":12232,"ĠaerolÃŃn":12233,"ĠsÃº":12234,"ĠLima":12235,"ĠobsesiÃ³n":12236,"etero":12237,"Ġrenovar":12238,"Ġesconde":12239,"Ġpatrimon":12240,"gor":12241,"doso":12242,"Ġprocede":12243,"Ġexit":12244,"ĠMacri":12245,"Ġgobierna":12246,"lah":12247,"ĠDist":12248,"Ġcasco":12249,"Ġsaltar":12250,"ĠtecnolÃ³gica":12251,"jados":12252,"ring":12253,"Ġacaso":12254,"Ġtransform":12255,"Ġreform":12256,"Ġejerce":12257,"Ġinfluencias":12258,"Ġagrupa":12259,"Ġoculta":12260,"ĠporterÃŃa":12261,"ĠDuran":12262,"Ġ92":12263,"Ġcircul":12264,"Ġrestring":12265,"Ġinsta":12266,"Hasta":12267,"emas":12268,"mÃ³n":12269,"Ġsienta":12270,"Ġocupado":12271,"Ġpinturas":12272,"ĠdÃ³lar":12273,"Ġpromotores":12274,"ĠestrenÃ³":12275,"chen":12276,"Ġpescado":12277,"parate":12278,"dada":12279,"Ġbloqueo":12280,"Ġsalp":12281,"ĠCampe":12282,"Ġseces":12283,"Ġdirectos":12284,"Ġcomerci":12285,"Ġsentimental":12286,"Ġpartidas":12287,"ĠQa":12288,"Ġcura":12289,"Ġreformar":12290,"ĠpuÃ±ado":12291,"ĠSerrano":12292,"Ġcontemplar":12293,"Ġforo":12294,"Ġpasadas":12295,"org":12296,"ĠOeste":12297,"dirse":12298,"ĠmÃ¡ximos":12299,"ĠLugo":12300,"Ġdeterminadas":12301,"Ġutilizando":12302,"Ġgallega":12303,"Ġreloj":12304,"ĠparaÃŃso":12305,"Lle":12306,"tentes":12307,"ĠVÃįDEO":12308,"ĠmediÃ¡tico":12309,"ĠXVI":12310,"ĠdepresiÃ³n":12311,"ĠMauri":12312,"Ġajeno":12313,"Ġconcluir":12314,"Ġproductora":12315,"Ġocultar":12316,"ingos":12317,"ĠprÃ©stamo":12318,"ĠMit":12319,"ille":12320,"Ġllegando":12321,"ecretario":12322,"Ġprefieren":12323,"ĠhÃ¡bitos":12324,"ĠNÃ³os":12325,"Ġmam":12326,"ĠCis":12327,"âĢĿ;":12328,"ĠDie":12329,"vela":12330,"ĠexpresÃ³":12331,"cuando":12332,"Ã³gn":12333,"Ġrecortar":12334,"Ġaseguraba":12335,"ĠsocialdemÃ³cra":12336,"Ġicono":12337,"Ġcanadiense":12338,"Fran":12339,"ĠEsas":12340,"ĠNicara":12341,"Ġsobresal":12342,"Ġriguros":12343,"cesor":12344,"ĠlevantÃ³":12345,"uci":12346,"ĠPark":12347,"Val":12348,"ĠlÃ¡g":12349,"resiÃ³n":12350,"Ġhidro":12351,"ĠseguirÃ¡n":12352,"ĠenergÃŃas":12353,"Ġrelatos":12354,"ĠcÃ³modo":12355,"Ġduplic":12356,"Ġpilotos":12357,"Ġarmon":12358,"Ġmirando":12359,"ĠmontaÃ±as":12360,"ĠpersecuciÃ³n":12361,"udos":12362,"zi":12363,"Ġponga":12364,"Ġincompa":12365,"Ġsuceso":12366,"ĠtrÃ¡ns":12367,"ĠEmer":12368,"Esquadra":12369,"Ġrebeldes":12370,"landest":12371,"med":12372,"onaldo":12373,"hum":12374,"ĠfÃ³rmulas":12375,"Ġbonito":12376,"ÃŃda":12377,"Ġbilletes":12378,"eneraciÃ³n":12379,"Ġdieta":12380,"ĠcontarÃ¡":12381,"Ġfantasma":12382,"lip":12383,"Ġcorrientes":12384,"CN":12385,"Ġ74":12386,"ĠencargÃ³":12387,"Ġconsultados":12388,"ĠincÃ³gn":12389,"ĠjubilaciÃ³n":12390,"ĠNuestra":12391,"Ġcasualidad":12392,"pecto":12393,"Ġaspi":12394,"Ġsuceder":12395,"Ġlicencias":12396,"Ġego":12397,"Ġtim":12398,"ĠanÃ³n":12399,"Ġapropi":12400,"arry":12401,"Ġaeropuertos":12402,"Ġ87":12403,"cru":12404,"Ġcampes":12405,"Ġcomentar":12406,"biera":12407,"ÃŃnguez":12408,"Ġvolvieron":12409,"luencia":12410,"Ġsometido":12411,"Ġcuriosidad":12412,"ĠValladolid":12413,"cara":12414,"cela":12415,"ĠAsad":12416,"ken":12417,"Ġencier":12418,"Ġacercar":12419,"Ġdemuestran":12420,"ĠestÃ¡bamos":12421,"ĠrevelÃ³":12422,"ĠSE":12423,"Ġcerte":12424,"Ġportavoces":12425,"Ġentienden":12426,"Ġproh":12427,"Ġvivos":12428,"ĠColegio":12429,"ĠmenÃº":12430,"ĠsuperÃ³":12431,"95":12432,"chel":12433,"ĠIR":12434,"Ġautop":12435,"ĠGuindos":12436,"ÃŃsmo":12437,"Ġgenio":12438,"Ġmanifestado":12439,"Ġ1985":12440,"ensible":12441,"Ġach":12442,"Ġdorm":12443,"Ġum":12444,"ĠCinco":12445,"ĠilÃŃ":12446,"bÃ³n":12447,"Ġaliado":12448,"Ġ(-":12449,"ĠReuters":12450,"ĠÃļ":12451,"Ġencanta":12452,"Ġdecep":12453,"ĠEspanyol":12454,"Ìģ":12455,"Ġenvid":12456,"Ġdestacar":12457,"Ġtejido":12458,"well":12459,"Ġlocura":12460,"Ġtransmit":12461,"Ġ82":12462,"ĠcariÃ±o":12463,"98":12464,"Ã³graf":12465,"ĠFranÃ§":12466,"ĠNatural":12467,"antil":12468,"ĠPel":12469,"cidental":12470,"ĠSabadell":12471,"nada":12472,"ĠIt":12473,"Ġdama":12474,"Ġreen":12475,"ĠSec":12476,"Ġcuch":12477,"ĠcÃ©lulas":12478,"trica":12479,"ville":12480,"Ġpiedras":12481,"Ġencargo":12482,"Ġsimb":12483,"mira":12484,"Ġcementerio":12485,"Ġfactur":12486,"Ġdisponer":12487,"ĠTerri":12488,"Ġhuella":12489,"Ġdesfile":12490,"ĠGetty":12491,"alizadas":12492,"lutense":12493,"psol":12494,"ĠglobalizaciÃ³n":12495,"hal":12496,"ĠPuerta":12497,"ĠAbo":12498,"ĠRepsol":12499,"Ġplanteamiento":12500,"Ġcaute":12501,"arata":12502,"Ġbipar":12503,"ĠPacÃŃfico":12504,"of":12505,"Ġprofundamente":12506,"ĠadquisiciÃ³n":12507,"ĠvÃ¡l":12508,"Ġpenalti":12509,"mia":12510,"logos":12511,"Ġinsuficiente":12512,"ulÃ³":12513,"ĠQaeda":12514,"IP":12515,"ĠalusiÃ³n":12516,"ĠCuer":12517,"Ġmejoras":12518,"Ġhabitualmente":12519,"Ġcuarenta":12520,"ĠbÃ¡sica":12521,"Ġintim":12522,"Ġderrum":12523,"cÃ©n":12524,"gnos":12525,"Ġpus":12526,"toral":12527,"ionista":12528,"ĠCatalana":12529,"Ġizquierdo":12530,"ĠHotel":12531,"AP":12532,"MV":12533,"ĠReci":12534,"ĠestratÃ©gico":12535,"Ġdesconoc":12536,"Ġorganizadores":12537,"Ġocupan":12538,"Ġprevar":12539,"Ġsaga":12540,"Ġtam":12541,"ĠGe":12542,"contra":12543,"Ġfuturos":12544,"Ġconvenios":12545,"onde":12546,"Ġ71":12547,"Ġmatices":12548,"Ġdefensiva":12549,"Ġincapacidad":12550,"ĠasumiÃ³":12551,"ervan":12552,"Ġengan":12553,"igan":12554,"umer":12555,"ionaje":12556,"zarse":12557,"ĠLabor":12558,"Ġdestinos":12559,"Ġintegral":12560,"Ġapoyado":12561,"ĠprometiÃ³":12562,"solo":12563,"Ġplural":12564,"ĠBob":12565,"Ġtemperaturas":12566,"Ġcorregir":12567,"Ġclaros":12568,"Ġagujero":12569,"Ġsimpa":12570,"pri":12571,"Ġpsi":12572,"gono":12573,"Ġenfermo":12574,"glish":12575,"ĠSaint":12576,"ĠreivindicaciÃ³n":12577,"ĠRonaldo":12578,"Ġsolucionar":12579,"ĠacompaÃ±ada":12580,"pur":12581,"ĠcentÃŃmetros":12582,"Ġabiertamente":12583,"ĠAgricultura":12584,"Ġdonaciones":12585,"ĠmuÃ±":12586,"Ġcarn":12587,"aÃ±os":12588,"ĠBoston":12589,"ĠRubÃ©n":12590,"Ġgabinete":12591,"Ġproponer":12592,"Ġempa":12593,"uston":12594,"Ġejecutivos":12595,"tipo":12596,"Ġrurales":12597,"ĠestrÃ©s":12598,"kullu":12599,"ĠNicaragua":12600,"taÃ±a":12601,"Ġpesca":12602,"Ġacepta":12603,"ĠobstÃ¡culos":12604,"Ãºe":12605,"atra":12606,"ĠVis":12607,"Ġcreemos":12608,"ĠSale":12609,"Ġnormalmente":12610,"Ġtabla":12611,"ĠretÃ³rica":12612,"Ġinestabilidad":12613,"Ġcuidar":12614,"ĠRivas":12615,"xiona":12616,"Ġdescubrimiento":12617,"Ġacuden":12618,"Ġetiqueta":12619,"Ġcombustible":12620,"Ġmero":12621,"Ġmatem":12622,"ĠrÃ©":12623,"Ġinstitucionales":12624,"Ġextiende":12625,"rime":12626,"ĠWat":12627,"Ġcultivo":12628,"Ġestudia":12629,"Ġconcesiones":12630,"ĠPep":12631,"iendas":12632,"lora":12633,"Ġface":12634,"Ã©ticas":12635,"Ġleve":12636,"Ġafectar":12637,"ĠidÃ©n":12638,"Ġnervios":12639,"ĠQuien":12640,"Ġost":12641,"Ġcandidaturas":12642,"ĠelectrÃ³nicos":12643,"gh":12644,"acÃ³n":12645,"Ġafiliados":12646,"ze":12647,"ĠGibraltar":12648,"Ġyears":12649,"ĠFeria":12650,"oneses":12651,"Ġreunirse":12652,"ĠQuÃ©":12653,"ĠTraducciÃ³n":12654,"Ġpertenecen":12655,"Ġsecundaria":12656,"Ġrechazar":12657,"Somos":12658,"ĠÃ¡rabes":12659,"Ġsenda":12660,"Ġcomercios":12661,"zcan":12662,"organ":12663,"ĠocÃ©":12664,"ĠPatri":12665,"Ġhaci":12666,"ject":12667,"Ġladr":12668,"ĠtendrÃŃan":12669,"ĠextinciÃ³n":12670,"Ġjardines":12671,"Ãºst":12672,"Ġcuant":12673,"Ġazo":12674,"ĠtrÃ¡mites":12675,"urÃŃa":12676,"Ġteme":12677,"ĠperÃŃodo":12678,"ĠPiquÃ©":12679,"ĠGr":12680,"Ġnews":12681,"ĠProtecciÃ³n":12682,"Ġordin":12683,"Ġbelga":12684,"Ġmilagro":12685,"Ġtabaco":12686,"Ġlici":12687,"kov":12688,"ĠcategorÃŃas":12689,"Ġcron":12690,"Ġfijado":12691,"Ġ\"Â¡":12692,"ĠOf":12693,"Ġperfor":12694,"Ġthem":12695,"78":12696,"Ġother":12697,"vira":12698,"acen":12699,"Ġvege":12700,"ĠOk":12701,"ĠpodrÃŃamos":12702,"Ġextranjera":12703,"ĠUrkullu":12704,"ĠPrÃŃncipe":12705,"ticismo":12706,"ĠBNG":12707,"ĠCuentas":12708,"Ġasesino":12709,"Ġadaptar":12710,"Ġdeba":12711,"ĠEstre":12712,"Ġsane":12713,"Ġbecas":12714,"ĠayudÃ³":12715,"Ġpropiedades":12716,"Ġgestores":12717,"ĠproporciÃ³n":12718,"Ġlisto":12719,"cistas":12720,"Ġaman":12721,"ĠconsideraciÃ³n":12722,"Ġayudan":12723,"ĠJunts":12724,"Ġadministrativa":12725,"ĠShe":12726,"edy":12727,"Ġmonumento":12728,"Ġcastillo":12729,"uevas":12730,"ĠBarberÃ¡":12731,"Ġarroz":12732,"Ġente":12733,"eto":12734,"Ġintr":12735,"itarÃ¡":12736,"Ġcostas":12737,"Ġafricanos":12738,"Ġcomarca":12739,"Ġconvencional":12740,"ĠComplutense":12741,"Ġlabores":12742,"ĠBau":12743,"Ġfalsa":12744,"ĠVillarreal":12745,"ĠEstaba":12746,"chool":12747,"Ġdeso":12748,"ĠOrden":12749,"Solo":12750,"losa":12751,"Ġimpulsado":12752,"Ġoperadores":12753,"Ġurbanos":12754,"tizaciones":12755,"Ġmarketing":12756,"Ġarrancar":12757,"inados":12758,"Ġ1977":12759,"tambi":12760,"ĠSun":12761,"ĠVarios":12762,"ĠutilizaciÃ³n":12763,"cad":12764,"ving":12765,"minas":12766,"ĠMontero":12767,"Ġosci":12768,"ĠVaticano":12769,"Ġpierden":12770,"ĠSalamanca":12771,"Ġexistir":12772,"ĠOficina":12773,"Ġafro":12774,"ĠmontÃ³n":12775,"Ġmodernidad":12776,"ĠRica":12777,"ĠpensÃ©":12778,"Ġdescarta":12779,"ĠcalificaciÃ³n":12780,"Ġposiblemente":12781,"ĠcontestÃ³":12782,"Ġchi":12783,"Ġdial":12784,"Ġreflexiona":12785,"bri":12786,"Ġclandest":12787,"Ġsepa":12788,"vertido":12789,"Ġmarcada":12790,"Cas":12791,"Ġgasolina":12792,"ties":12793,"ĠRick":12794,"52":12795,"Ġinda":12796,"Ġmultinacional":12797,"sable":12798,"idora":12799,"Ġrector":12800,"jarse":12801,"NC":12802,"talgia":12803,"Ġsubidas":12804,"ĠimputaciÃ³n":12805,"Ġconductores":12806,"ĠdesafÃŃos":12807,"Sal":12808,"Ã¯":12809,"anismo":12810,"Ġlago":12811,"dul":12812,"ilas":12813,"Ġafueras":12814,"lito":12815,"Ġbanderas":12816,"Ġmensual":12817,"Ġapostar":12818,"Ġpreocupante":12819,"ĠPrÃ³ximo":12820,"Ġcaz":12821,"Ġasturi":12822,"ĠAlicia":12823,"Ġrepun":12824,"Ġliga":12825,"peras":12826,"Ġresultan":12827,"Ġacordado":12828,"60":12829,"ĠAngela":12830,"ĠWhat":12831,"Ġblanqueo":12832,"Ġdispuesta":12833,"Ã©ndolo":12834,"Ġasalto":12835,"Ġafortun":12836,"ĠEfe":12837,"Ġsustancial":12838,"ĠPontevedra":12839,"Ġcalific":12840,"ĠTelecinco":12841,"ĠVene":12842,"Ġasciende":12843,"Ġinvertido":12844,"Ġpetrolera":12845,"ĠDice":12846,"Ġ900":12847,"ĠenseÃ±ar":12848,"Ġbuscaba":12849,"Ġrebajar":12850,"egos":12851,"Ġinsistido":12852,"Ġapasion":12853,"ajara":12854,"marca":12855,"Ġadicionales":12856,"Ġferrovi":12857,"Ġvinos":12858,"Ġayudado":12859,"Ġ1982":12860,"Ġconservadora":12861,"Ġescolares":12862,"Ġreh":12863,"ĠCr":12864,"Ġescritos":12865,"hor":12866,"ĠmÃŃo":12867,"Ġdescri":12868,"ĠaÃ±aden":12869,"Ġllevando":12870,"Ġderrotas":12871,"Ġproxim":12872,"Ġasfi":12873,"ĠtrasladÃ³":12874,"onto":12875,"ĠCarolina":12876,"tÃŃan":12877,"Ġtraer":12878,"Ġnegras":12879,"Ġinglesa":12880,"Ġligeramente":12881,"Ġconcede":12882,"ceta":12883,"Ġenfrentamientos":12884,"ĠcocaÃŃna":12885,"Ġdecan":12886,"Ġcortar":12887,"ĠironÃŃa":12888,"Ġ84":12889,"Queremos":12890,"ĠAda":12891,"izaron":12892,"ĠconfesÃ³":12893,"lusconi":12894,"Ġdespo":12895,"Ġcalent":12896,"ĠMilÃ¡n":12897,"ĠlamentÃ³":12898,"tambiÃ©n":12899,"ux":12900,"Ġarra":12901,"Ġadmitir":12902,"Ġmilitancia":12903,"Ġtarifas":12904,"Ġcuentos":12905,"Ġresign":12906,"Ġreza":12907,"ĠafirmaciÃ³n":12908,"Ġlogran":12909,"Ġlados":12910,"ĠTam":12911,"Ġmonte":12912,"Ġmultas":12913,"Ġperju":12914,"tinas":12915,"ducidos":12916,"Ġrodea":12917,"Ġarmados":12918,"Soy":12919,"Ġ79":12920,"Ġpenitenci":12921,"Ġconstantes":12922,"MC":12923,"Ġ1979":12924,"citos":12925,"ĠreestructuraciÃ³n":12926,"Ġantecedentes":12927,"dices":12928,"oto":12929,"Ġganan":12930,"omÃ©":12931,"Ġcomedor":12932,"ĠIvÃ¡n":12933,"telerÃŃa":12934,"Ġpeat":12935,"Ġexconse":12936,"gat":12937,"fortun":12938,"Ġinternet":12939,"Ġasesinado":12940,"Ġansiedad":12941,"ĠSÃ¡enz":12942,"Ġgrueso":12943,"Ġpreguntado":12944,"Ġasesores":12945,"tto":12946,"Ġsusci":12947,"Ġcomunicaciones":12948,"hone":12949,"Ġaulas":12950,"amarca":12951,"Ġsumerg":12952,"Ġrapidez":12953,"Ġingredientes":12954,"ĠcatÃ¡strofe":12955,"Ġreflejan":12956,"Ġprevios":12957,"ĠmediÃ¡tica":12958,"Ġreunido":12959,"Ġnoble":12960,"Ġcaminar":12961,"ĠStu":12962,"ĠutilizÃ³":12963,"Ġpresuntos":12964,"Ġcotidiana":12965,"ĠDomÃŃnguez":12966,"ĠAlianza":12967,"ĠKirchner":12968,"Ġcalado":12969,"Ġsuperan":12970,"ĠponÃŃa":12971,"Ġ350":12972,"ĠChel":12973,"grafÃŃas":12974,"fan":12975,"Ġcombina":12976,"vard":12977,"Ġdid":12978,"Ġmega":12979,"Ã³micas":12980,"Ġherida":12981,"Ġrecetas":12982,"Ġconduce":12983,"tÃ¡ndose":12984,"Ġvice":12985,"Ġdependiente":12986,"ĠoptÃ³":12987,"ĠChris":12988,"Ġ83":12989,"ĠcontinÃºan":12990,"ĠaumentÃ³":12991,"ĠsolicitÃ³":12992,"Ġmagna":12993,"udir":12994,"ĠMarcelo":12995,"alia":12996,"Ġpapa":12997,"Ġpoderosa":12998,"cinas":12999,"ĠFerrer":13000,"Ġsugiere":13001,"ensor":13002,"Ġsacado":13003,"ĠEstÃ¡n":13004,"Ġpactar":13005,"Ġquir":13006,"Ġpreparados":13007,"Ġlevantado":13008,"Ġaterri":13009,"Ġtwo":13010,"Ġ91":13011,"Ġpsico":13012,"ĠCompe":13013,"Ġespecializado":13014,"Ġindicadores":13015,"Ġnecesitar":13016,"sÃ¡":13017,"ĠLen":13018,"Ġ180":13019,"Ġmedalla":13020,"Ġparezca":13021,"ĠSime":13022,"ĠDani":13023,"Ġcong":13024,"ezcan":13025,"Ġamantes":13026,"Ġreemp":13027,"Ġour":13028,"Ġexager":13029,"ĠArena":13030,"Ġrealizados":13031,"comunicaciones":13032,"Ġsuav":13033,"Ġinvita":13034,"Ġunilateral":13035,"Ġfila":13036,"Ġsospechas":13037,"ĠGipuzkoa":13038,"estÃ¡":13039,"Ġincorporar":13040,"Ġboom":13041,"erciÃ³n":13042,"Ġpereg":13043,"ĠtardÃ³":13044,"Ġglobales":13045,"Ġvulnerables":13046,"77":13047,"Ġgole":13048,"ĠregresÃ³":13049,"ĠScott":13050,"abul":13051,"Ġcompuesto":13052,"ĠenergÃ©tico":13053,"ĠEnglish":13054,"Ġconsigo":13055,"Ġimpo":13056,"Ġagresiones":13057,"Ġdestinados":13058,"ĠServicios":13059,"Ġinocencia":13060,"Ġeficiente":13061,"ĠBerlusconi":13062,"Ġpalo":13063,"Ġcorrespondientes":13064,"ald":13065,"ĠEran":13066,"Ġrega":13067,"Ġreunir":13068,"ĠProfes":13069,"ĠTok":13070,"lanta":13071,"edicto":13072,"Ġconsolid":13073,"ĠCrespo":13074,"Ġbis":13075,"Ġcompartida":13076,"Ġterritoriales":13077,"Ġarchivos":13078,"ĠPom":13079,"toras":13080,"eller":13081,"Ġhipotecas":13082,"arz":13083,"ĠBerg":13084,"ĠnÃ³m":13085,"paje":13086,"apia":13087,"ĠHabrÃ¡":13088,"ĠUS":13089,"Ġrojos":13090,"ĠpensÃ³":13091,"Ġincendios":13092,"Ġpopulismo":13093,"Ġcontempl":13094,"orado":13095,"ĠAlta":13096,"ĠlÃŃqu":13097,"Ġexpresado":13098,"Ġfrutos":13099,"ĠcadÃ¡veres":13100,"ĠApenas":13101,"ĠidentificaciÃ³n":13102,"Ġcali":13103,"ĠAnder":13104,"Ġespionaje":13105,"Ġmoverse":13106,"ĠActualmente":13107,"ĠLew":13108,"bella":13109,"Ġconcretos":13110,"Ġanalista":13111,"Ġapellido":13112,"Ġvencer":13113,"Ġsostuvo":13114,"Ġcontabilidad":13115,"Ġbarrera":13116,"ĠMelilla":13117,"ĠtÃºnel":13118,"Ġinteresado":13119,"Ġestrecha":13120,"Ġabogada":13121,"Ġcaptar":13122,"Ġdibujo":13123,"Ġmaestra":13124,"Ġevacu":13125,"Hoy":13126,"Ġindicado":13127,"ĠSociales":13128,"fra":13129,"Ġmetal":13130,"Ġdoctrina":13131,"Ġsovi":13132,"ĠdaÃ±":13133,"Ġemocion":13134,"Ġpolar":13135,"Ġsonora":13136,"heim":13137,"Ġ93":13138,"ĠFord":13139,"Ġoptar":13140,"Ġindul":13141,"Ġafronta":13142,"Ġconcesion":13143,"Tiene":13144,"ĠCarme":13145,"Ġwhen":13146,"Ġnad":13147,"teos":13148,"ats":13149,"Ġllevamos":13150,"animidad":13151,"Ġpesc":13152,"Ġjoyas":13153,"itariamente":13154,"Ġaco":13155,"Ġgriega":13156,"Ġexministro":13157,"pada":13158,"Ġobr":13159,"ĠMÃ©ndez":13160,"Ġdesmon":13161,"Ġsabes":13162,"Ġenfoque":13163,"ĠBarre":13164,"ĠexhibiciÃ³n":13165,"Ġorgulloso":13166,"Ãºp":13167,"ĠFan":13168,"Ġdisparos":13169,"ĠHillary":13170,"Ġfallecidos":13171,"ĠOlÃŃmpicos":13172,"Ġpancar":13173,"Ġborrador":13174,"Ġherido":13175,"Ġconsiguieron":13176,"ĠtÃŃm":13177,"ĠFinanzas":13178,"Ġandaluces":13179,"sex":13180,"ĠTener":13181,"Ġtratamientos":13182,"Ġlong":13183,"ĠDia":13184,"Ġexpro":13185,"Ġsigno":13186,"ĠFranÃ§ois":13187,"Ġllevarse":13188,"Ġfelices":13189,"ĠprevaricaciÃ³n":13190,"Ġvaria":13191,"Ġprendas":13192,"ming":13193,"Ġrespira":13194,"bilizaciÃ³n":13195,"Ġsecuestro":13196,"Ġconsideraba":13197,"ĠagregÃ³":13198,"Ġesenciales":13199,"quets":13200,"ĠlegÃŃ":13201,"Ġtrayecto":13202,"Ġ1986":13203,"ĠResulta":13204,"Ġverti":13205,"Ġnostalgia":13206,"ĠdejarÃ¡":13207,"arita":13208,"Ġlatinoamericanos":13209,"Ġdefra":13210,"Ġcorredor":13211,"Ġmediano":13212,"ĠescaÃ±o":13213,"Ġlevanta":13214,"Ġmelo":13215,"Ġflexibilidad":13216,"Ġinterac":13217,"Ġinstrucciones":13218,"Ġretirado":13219,"Ġfrecuente":13220,"ĠBosque":13221,"Ġcubierta":13222,"Ġusos":13223,"Ġconstantemente":13224,"ĠfilÃ³sofo":13225,"54":13226,"ĠCastillo":13227,"ĠDavis":13228,"Ġunder":13229,"Ġfatal":13230,"cionario":13231,"Ġprec":13232,"ĠSteve":13233,"Ġcorrecta":13234,"bidos":13235,"Ã¡i":13236,"terror":13237,"kespe":13238,"gulo":13239,"Ġful":13240,"Ã©sped":13241,"Ġsimbol":13242,"ÃŃrez":13243,"Ġrell":13244,"Ġgay":13245,"ĠbÃ¡sicamente":13246,"Ġcolocado":13247,"Ġcorreos":13248,"Ġcontribuido":13249,"ĠFun":13250,"tone":13251,"Ġadaptarse":13252,"ĠOcho":13253,"entaciones":13254,"Ġprodi":13255,"Ġgrabar":13256,"Ġfacilita":13257,"ĠAgustÃŃn":13258,"ĠJen":13259,"Ġamante":13260,"ĠdÃ©bi":13261,"Ġmur":13262,"ĠtÃ³p":13263,"ĠfÃ¡cilmente":13264,"ĠBellas":13265,"ĠRespecto":13266,"ĠGust":13267,"tors":13268,"ĠplanificaciÃ³n":13269,"Ġconstancia":13270,"Ġadministrativo":13271,"UE":13272,"Ġmuros":13273,"Ġgrav":13274,"Ġpermitan":13275,"Ġdiagnos":13276,"Ġentera":13277,"ĠcausÃ³":13278,"Ġperfiles":13279,"ĠÃ©pocas":13280,"ĠHuman":13281,"Ġcompatrio":13282,"istente":13283,"Ġcrean":13284,"Ġrecorre":13285,"camiento":13286,"ĠMah":13287,"Ġdiaria":13288,"Ġ81":13289,"ĠAFP":13290,"Ġcabezas":13291,"Ġgustado":13292,"Ġindividuo":13293,"ĠpÃ¡r":13294,"ween":13295,"ĠCasado":13296,"Ġensal":13297,"Ġguardias":13298,"Ġprocur":13299,"Ġconsiderada":13300,"Ġsostener":13301,"Ġdividen":13302,"guna":13303,"Ġviabilidad":13304,"Ġadjudic":13305,"Ġmelan":13306,"53":13307,"Ġseguimos":13308,"Ġsupl":13309,"ĠsorprendiÃ³":13310,"ĠfrustraciÃ³n":13311,"orios":13312,"ĠenseÃ±a":13313,"Ġdivertido":13314,"ort":13315,"ĠtelefÃ³nica":13316,"Ġpreferido":13317,"Ġvulnera":13318,"diÃ³s":13319,"Ġdefensor":13320,"tase":13321,"Ġcaliente":13322,"ĠfrÃ¡g":13323,"51":13324,"iÃ©ndose":13325,"ĠMartÃŃ":13326,"ĠvendiÃ³":13327,"ĠautÃ³nomos":13328,"cible":13329,"Ġmaquinaria":13330,"Ġforzar":13331,"Ġdesple":13332,"IM":13333,"Ġmandar":13334,"Ġfallecimiento":13335,"Ġencontraban":13336,"Ġgeogr":13337,"inan":13338,"ĠTony":13339,"Ġprofesion":13340,"esos":13341,"Ã³fo":13342,"teto":13343,"elli":13344,"trad":13345,"Ġsombras":13346,"Ġacoger":13347,"ĠlÃ¡grimas":13348,"ĠCuar":13349,"ek":13350,"Ġescasez":13351,"ĠBurgos":13352,"Ġexalcalde":13353,"ĠRena":13354,"Ġvalle":13355,"Ġdeportistas":13356,"Ġacome":13357,"ĠadelantÃ³":13358,"Ġpian":13359,"Ġnow":13360,"ĠTru":13361,"Ġpelu":13362,"Ġconsigui":13363,"Ġpincha":13364,"Ġblancas":13365,"ĠcÃ³n":13366,"Ġmetido":13367,"Ġvestidos":13368,"une":13369,"Ġrobos":13370,"Ġdiploma":13371,"ĠAustria":13372,"ah":13373,"Ġprecar":13374,"ĠdiplomÃ¡tico":13375,"Ġsimpatiz":13376,"Ġlarg":13377,"Ġyihadistas":13378,"led":13379,"Ġboliv":13380,"ĠShan":13381,"ĠformÃ³":13382,"ĠbajÃ³":13383,"ĠAutÃ³noma":13384,"az":13385,"Ġazar":13386,"ĠsabÃŃan":13387,"ampl":13388,"Ġdesmante":13389,"Ġinferiores":13390,"ĠrepercusiÃ³n":13391,"ĠconsolidaciÃ³n":13392,"ĠBizkaia":13393,"Ġdedos":13394,"bita":13395,"ĠEspa":13396,"ĠturÃŃsticos":13397,"Ġgobernantes":13398,"Ġeconomistas":13399,"gusto":13400,"clu":13401,"Ġtransforma":13402,"Ġmasas":13403,"ĠTrias":13404,"Ġcanon":13405,"yon":13406,"Ġcostos":13407,"Ġproven":13408,"ĠinclusiÃ³n":13409,"ĠfundÃ³":13410,"Ġdespedida":13411,"Ġsubsid":13412,"ĠTecn":13413,"esto":13414,"ĠRico":13415,"Ġescoc":13416,"ĠimplantaciÃ³n":13417,"ĠsubvenciÃ³n":13418,"ĠFox":13419,"ĠcumpleaÃ±os":13420,"ĠRioja":13421,"ĠazÃºcar":13422,"ĠEmbaj":13423,"Ġzar":13424,"Ġoff":13425,"ĠFerr":13426,"UR":13427,"ĠhabÃŃamos":13428,"ĠsalÃŃa":13429,"ĠholandÃ©s":13430,"Ġlid":13431,"Ġvea":13432,"guerra":13433,"Ã³micos":13434,"Ġguerrilla":13435,"ĠUN":13436,"ĠCaballero":13437,"osÃ©":13438,"Ġdesea":13439,"Ġexquis":13440,"Ġfijo":13441,"ĠCrim":13442,"Ġcontinua":13443,"Ġreligiosos":13444,"ĠafÃ¡n":13445,"Ġcomunista":13446,"ambul":13447,"Ġpoema":13448,"Ġhermanas":13449,"Ġ96":13450,"ĠCoop":13451,"Ġwhat":13452,"Ġmanifiesta":13453,"Ġinminente":13454,"ĠcumpliÃ³":13455,"Ġcometer":13456,"Ġdepre":13457,"Ġaparente":13458,"Ġplenamente":13459,"Ġtaj":13460,"ĠSum":13461,"cionismo":13462,"ĠÃģr":13463,"Ġbroma":13464,"Ġpresupuestario":13465,"ĠXVIII":13466,"Ġacude":13467,"izarse":13468,"Ġdisper":13469,"Ġmemorias":13470,"ĠEugen":13471,"ĠsaldrÃ¡":13472,"Ġcomplicidad":13473,"querÃŃa":13474,"Ġescultura":13475,"Ġ140":13476,"fobia":13477,"ĠObserv":13478,"Ġalumno":13479,"Ġlent":13480,"miÃ³":13481,"riÃ³n":13482,"Ġfabricantes":13483,"ĠNational":13484,"Ġcolecciones":13485,"Ġmural":13486,"Tengo":13487,"ĠcÃ³mic":13488,"ĠChelsea":13489,"ĠubicaciÃ³n":13490,"Ġafectada":13491,"ĠMira":13492,"Ġelegidos":13493,"bablemente":13494,"ĠestadÃŃstica":13495,"Ġaspirante":13496,"Ġgrabado":13497,"ĠPatr":13498,"ĠideolÃ³gica":13499,"Ġesperaban":13500,"Ġnucleares":13501,"Ġdesv":13502,"Ġseguida":13503,"ĠbaÃ±":13504,"ĠRato":13505,"Ġrasgos":13506,"Ġargentinos":13507,"Ġara":13508,"CI":13509,"Ġacento":13510,"Ġcomplement":13511,"derecha":13512,"ĠPho":13513,"Ġdesl":13514,"Ġacercamiento":13515,"ĠVenecia":13516,"ifer":13517,"Ġany":13518,"ĠAtenas":13519,"Ġesfor":13520,"Ġquerella":13521,"Ġadelanta":13522,"iebre":13523,"Ġpagando":13524,"Ġuniversitario":13525,"bon":13526,"dura":13527,"Ġenseguida":13528,"Ġeducativos":13529,"Ġlitros":13530,"Ġpreso":13531,"Ġdemand":13532,"ĠdÃº":13533,"ĠconcediÃ³":13534,"Ġlicenci":13535,"Ġinicios":13536,"Ġtrajes":13537,"Ġpoemas":13538,"Ġolvidado":13539,"ĠRum":13540,"Ġrodar":13541,"Ġenfa":13542,"mago":13543,"ĠInstrucciÃ³n":13544,"ĠRamÃŃrez":13545,"ĠgastronomÃŃa":13546,"mica":13547,"âĢĿ)":13548,"Ġsalva":13549,"Ġalrededores":13550,"Ġcontraste":13551,"ĠmÃ¡ster":13552,"Ġ1988":13553,"Ġpalestinos":13554,"ases":13555,"die":13556,"Ġretor":13557,"Ġber":13558,"ĠprivatizaciÃ³n":13559,"Ġjefa":13560,"dador":13561,"Ġadh":13562,"Ġambicioso":13563,"Ġpreservar":13564,"ĠSimeone":13565,"Ġviolentos":13566,"ricaciÃ³n":13567,"caso":13568,"âĢ¦âĢĿ.":13569,"ĠpenÃŃnsula":13570,"Ġdeseos":13571,"ink":13572,"Ġprogram":13573,"Ġguionista":13574,"ĠPhilip":13575,"Ġpill":13576,"Ġhabilidad":13577,"Ġganancias":13578,"Ġaprovechando":13579,"ĠFuente":13580,"ĠgÃ©n":13581,"Ġurgencias":13582,"ĠlÃº":13583,"Ġprevistas":13584,"Ã¡fora":13585,"Ġmortales":13586,"Ġinstrument":13587,"Ġenveje":13588,"Ġandar":13589,"ĠCristo":13590,"Pro":13591,"gs":13592,"ĠparÃ¡":13593,"Ġmasivo":13594,"Ġsever":13595,"Ġfero":13596,"Ġinac":13597,"iena":13598,"ĠFueron":13599,"Ġcreativa":13600,"ĠDÃŃez":13601,"Vamos":13602,"ĠParty":13603,"Ġlogros":13604,"Ġtrop":13605,"Ġexcepto":13606,"Ġholan":13607,"riera":13608,"gobier":13609,"ĠKenn":13610,"ĠArturo":13611,"ĠdifÃŃcilmente":13612,"Ġsignificativa":13613,"Ġpeligrosa":13614,"Ġpercibe":13615,"jalÃ¡":13616,"ule":13617,"Ġcertamen":13618,"Ġgolf":13619,"Ã³tica":13620,"Ġinus":13621,"ĠVlad":13622,"ĠLucÃŃa":13623,"adafi":13624,"Ġotorga":13625,"ĠRevoluciÃ³n":13626,"Ġnegativos":13627,"ĠacadÃ©micos":13628,"Ġcompensar":13629,"Ġredujo":13630,"Ġprescin":13631,"ĠClaudi":13632,"Ġrentable":13633,"Ġbet":13634,"Ġadquier":13635,"ificaciones":13636,"Ġbloques":13637,"Ġauxil":13638,"ĠAnticorrupciÃ³n":13639,"gotÃ¡":13640,"Ġpositivos":13641,"Ġdespidos":13642,"ĠBetis":13643,"Ġdespertar":13644,"Ġconsiguen":13645,"viaciÃ³n":13646,"Ġalfom":13647,"ĠcuantÃŃa":13648,"Ġresum":13649,"Ġtenis":13650,"Ġoral":13651,"politana":13652,"Ġseleccionador":13653,"Ġmuebles":13654,"ĠinÃº":13655,"Ġpersonalmente":13656,"ĠmatÃ³":13657,"ĠgalerÃŃas":13658,"ĠZam":13659,"Ġreactiv":13660,"ĠurbanizaciÃ³n":13661,"cionamiento":13662,"tÃ©s":13663,"chan":13664,"Ġmanual":13665,"Ġpreval":13666,"ĠaÃ©reo":13667,"Ġpermisos":13668,"ĠComis":13669,"Ġconocemos":13670,"Ġladrillo":13671,"ĠTay":13672,"Ġprevenir":13673,"Ġtemprano":13674,"ĠpabellÃ³n":13675,"Ġbl":13676,"ĠPatxi":13677,"Ġdenominado":13678,"ak":13679,"Ġsuave":13680,"ĠStra":13681,"casi":13682,"Ġhicimos":13683,"Ġvinculado":13684,"Ġendure":13685,"ĠSÃ£o":13686,"iega":13687,"ĠGam":13688,"Ġresuelto":13689,"Ġpresentaba":13690,"senal":13691,"Ġcolumna":13692,"asen":13693,"ĠHouse":13694,"ĠSteph":13695,"Ġfranquista":13696,"Ġsentarse":13697,"Ġrompe":13698,"Ġlimitaciones":13699,"ecos":13700,"pit":13701,"ĠTienen":13702,"Ġdependen":13703,"Ġdestacados":13704,"Ġincidencia":13705,"Ġdesaparecidos":13706,"Ġvanguardia":13707,"rico":13708,"Ġanto":13709,"ĠEmpez":13710,"Ġconferencias":13711,"Ġsiguieron":13712,"ĠtrÃ¡nsito":13713,"ls":13714,"ĠDisney":13715,"ĠSw":13716,"Ġ1975":13717,"ĠHitler":13718,"Ġreacciones":13719,"Ġmide":13720,"inger":13721,"Ġviejas":13722,"ĠreputaciÃ³n":13723,"Ġbancarias":13724,"inosa":13725,"ĠInno":13726,"Ġlluvias":13727,"Ġagricultores":13728,"reos":13729,"Ġculturas":13730,"Ġdureza":13731,"Ġtransparente":13732,"Ġexplorar":13733,"ĠDeb":13734,"Ġespiri":13735,"Ġturco":13736,"Ġtrein":13737,"Ġdelegados":13738,"Ġliderar":13739,"Ġdivorcio":13740,"ĠIRPF":13741,"Ġloco":13742,"Ġprodujeron":13743,"ianzas":13744,"Ġincentivos":13745,"Ġlleve":13746,"Ġgastar":13747,"Ġ1976":13748,"Ġprosigue":13749,"tano":13750,"ĠDrag":13751,"ĠdiÃ¡":13752,"ĠManuela":13753,"ĠdemocrÃ¡ticas":13754,"Ġetapas":13755,"Ġinfantiles":13756,"ĠJar":13757,"Ġprobabilidad":13758,"Ġexce":13759,"Ġcampus":13760,"ĠHis":13761,"Ġversion":13762,"Ġdicta":13763,"Ġalejado":13764,"ĠAno":13765,"Ġconfi":13766,"ĠpermitÃŃa":13767,"Ġprejuicios":13768,"Ġfic":13769,
[...]
